{
  "version": "1.0",
  "truncation": null,
  "padding": null,
  "added_tokens": [
    {
      "id": 0,
      "content": "[UNK]",
      "single_word": false,
      "lstrip": false,
      "rstrip": false,
      "normalized": false,
      "special": true
    },
    {
      "id": 1,
      "content": "[PAD]",
      "single_word": false,
      "lstrip": false,
      "rstrip": false,
      "normalized": false,
      "special": true
    },
    {
      "id": 2,
      "content": "[CLS]",
      "single_word": false,
      "lstrip": false,
      "rstrip": false,
      "normalized": false,
      "special": true
    }
  ],
  "normalizer": null,
  "pre_tokenizer": null,
  "post_processor": null,
  "decoder": null,
  "model": {
    "type": "BPE",
    "dropout": null,
    "unk_token": null,
    "continuing_subword_prefix": null,
    "end_of_word_suffix": null,
    "fuse_unk": false,
    "byte_fallback": false,
    "ignore_merges": false,
    "vocab": {
      "[UNK]": 0,
      "[PAD]": 1,
      "[CLS]": 2,
      "\b": 3,
      "\t": 4,
      "\u0010": 5,
      " ": 6,
      "!": 7,
      "\"": 8,
      "#": 9,
      "$": 10,
      "%": 11,
      "&": 12,
      "'": 13,
      "(": 14,
      ")": 15,
      "*": 16,
      "+": 17,
      ",": 18,
      "-": 19,
      ".": 20,
      "/": 21,
      "0": 22,
      "1": 23,
      "2": 24,
      "3": 25,
      "4": 26,
      "5": 27,
      "6": 28,
      "7": 29,
      "8": 30,
      "9": 31,
      ":": 32,
      ";": 33,
      "<": 34,
      "=": 35,
      ">": 36,
      "?": 37,
      "@": 38,
      "A": 39,
      "B": 40,
      "C": 41,
      "D": 42,
      "E": 43,
      "F": 44,
      "G": 45,
      "H": 46,
      "I": 47,
      "J": 48,
      "K": 49,
      "L": 50,
      "M": 51,
      "N": 52,
      "O": 53,
      "P": 54,
      "Q": 55,
      "R": 56,
      "S": 57,
      "T": 58,
      "U": 59,
      "V": 60,
      "W": 61,
      "X": 62,
      "Y": 63,
      "Z": 64,
      "[": 65,
      "\\": 66,
      "]": 67,
      "^": 68,
      "_": 69,
      "`": 70,
      "a": 71,
      "b": 72,
      "c": 73,
      "d": 74,
      "e": 75,
      "f": 76,
      "g": 77,
      "h": 78,
      "i": 79,
      "j": 80,
      "k": 81,
      "l": 82,
      "m": 83,
      "n": 84,
      "o": 85,
      "p": 86,
      "q": 87,
      "r": 88,
      "s": 89,
      "t": 90,
      "u": 91,
      "v": 92,
      "w": 93,
      "x": 94,
      "y": 95,
      "z": 96,
      "{": 97,
      "|": 98,
      "}": 99,
      "~": 100,
      "": 101,
      "": 102,
      "": 103,
      "": 104,
      "": 105,
      "": 106,
      "": 107,
      "": 108,
      "": 109,
      "": 110,
      "": 111,
      " ": 112,
      "¡": 113,
      "¢": 114,
      "£": 115,
      "¤": 116,
      "¦": 117,
      "§": 118,
      "¨": 119,
      "«": 120,
      "­": 121,
      "®": 122,
      "°": 123,
      "³": 124,
      "´": 125,
      "·": 126,
      "º": 127,
      "»": 128,
      "½": 129,
      "¾": 130,
      "¿": 131,
      "À": 132,
      "Á": 133,
      "Ã": 134,
      "Ä": 135,
      "Å": 136,
      "È": 137,
      "É": 138,
      "Ê": 139,
      "Õ": 140,
      "Ø": 141,
      "Ü": 142,
      "ß": 143,
      "à": 144,
      "á": 145,
      "â": 146,
      "ã": 147,
      "ä": 148,
      "å": 149,
      "æ": 150,
      "ç": 151,
      "è": 152,
      "é": 153,
      "ê": 154,
      "ë": 155,
      "ì": 156,
      "í": 157,
      "î": 158,
      "ï": 159,
      "ð": 160,
      "ñ": 161,
      "ò": 162,
      "ó": 163,
      "ô": 164,
      "ö": 165,
      "ø": 166,
      "ù": 167,
      "ú": 168,
      "û": 169,
      "ü": 170,
      "ý": 171,
      "ō": 172,
      "–": 173,
      "‘": 174,
      "’": 175,
      "“": 176,
      "”": 177,
      "…": 178,
      "₤": 179,
      "": 180,
      "e ": 181,
      "s ": 182,
      "th": 183,
      "t ": 184,
      "in": 185,
      "d ": 186,
      "er": 187,
      "an": 188,
      "y ": 189,
      " th": 190,
      "en": 191,
      "on": 192,
      "or": 193,
      ", ": 194,
      ". ": 195,
      "o ": 196,
      "is ": 197,
      "ou": 198,
      "ing": 199,
      "ar": 200,
      "al": 201,
      "a ": 202,
      " the ": 203,
      "re": 204,
      "and ": 205,
      "of": 206,
      "ing ": 207,
      "st": 208,
      "il": 209,
      "r ": 210,
      "at": 211,
      "to ": 212,
      "ed ": 213,
      "er ": 214,
      "the ": 215,
      "at ": 216,
      "om": 217,
      "ch": 218,
      "as ": 219,
      "it": 220,
      "ly ": 221,
      "r /": 222,
      "<b": 223,
      "r />": 224,
      "<br />": 225,
      "es ": 226,
      "of ": 227,
      "es": 228,
      "ac": 229,
      "el": 230,
      "ic": 231,
      "ov": 232,
      "wh": 233,
      "he ": 234,
      "ow": 235,
      "in ": 236,
      "I ": 237,
      "an ": 238,
      "on ": 239,
      "is": 240,
      "l ": 241,
      "for": 242,
      "en ": 243,
      "it ": 244,
      "se": 245,
      "ti": 246,
      "st ": 247,
      "'s ": 248,
      "m ": 249,
      "li": 250,
      "ha": 251,
      "be": 252,
      "gh": 253,
      "ev": 254,
      "pl": 255,
      "mov": 256,
      "oo": 257,
      "ith": 258,
      "ve ": 259,
      "<br /><br />": 260,
      "movi": 261,
      "ol": 262,
      "un": 263,
      "fil": 264,
      "ma": 265,
      "ri": 266,
      ". T": 267,
      "bu": 268,
      "with": 269,
      "was ": 270,
      "di": 271,
      "ab": 272,
      "as": 273,
      "ot ": 274,
      "k ": 275,
      "le": 276,
      "al ": 277,
      "his ": 278,
      "am": 279,
      "you": 280,
      "ur": 281,
      "that ": 282,
      "act": 283,
      ".<br /><br />": 284,
      "sh": 285,
      "ch ": 286,
      "of the ": 287,
      "ec": 288,
      "to": 289,
      "em": 290,
      "ent": 291,
      "ere ": 292,
      "ke ": 293,
      "or ": 294,
      "out ": 295,
      "but ": 296,
      "com": 297,
      "us": 298,
      "one ": 299,
      "ra": 300,
      "ro": 301,
      "are ": 302,
      "'t ": 303,
      " this ": 304,
      "with ": 305,
      "le ": 306,
      "si": 307,
      "ir": 308,
      "movie ": 309,
      "for ": 310,
      "ally ": 311,
      "de": 312,
      "ex": 313,
      ", and ": 314,
      "oul": 315,
      "f ": 316,
      "ay": 317,
      "be ": 318,
      "ad": 319,
      "su": 320,
      "ge": 321,
      "sc": 322,
      "not ": 323,
      "have ": 324,
      "ed": 325,
      ". I": 326,
      "p ": 327,
      "oth": 328,
      "ey ": 329,
      "n ": 330,
      "film ": 331,
      "som": 332,
      ". The ": 333,
      "pp": 334,
      "this ": 335,
      "ver": 336,
      "ul": 337,
      "ent ": 338,
      "ow ": 339,
      "ould ": 340,
      "you ": 341,
      "ter": 342,
      " that ": 343,
      "e, ": 344,
      "in the ": 345,
      "rom": 346,
      "ag": 347,
      "ough": 348,
      "per": 349,
      "so ": 350,
      "\" ": 351,
      "ear": 352,
      "ati": 353,
      "ts ": 354,
      "film": 355,
      "con": 356,
      "ay ": 357,
      "by ": 358,
      "all": 359,
      "..": 360,
      "os": 361,
      "wor": 362,
      "ust ": 363,
      "ce ": 364,
      "hi": 365,
      "tr": 366,
      "ew": 367,
      "ca": 368,
      "tim": 369,
      "ta": 370,
      "like ": 371,
      "from": 372,
      "man": 373,
      ". A": 374,
      "s, ": 375,
      "ers ": 376,
      "The ": 377,
      "ic ": 378,
      "who ": 379,
      "do": 380,
      "vi": 381,
      "g ": 382,
      "qu": 383,
      "all ": 384,
      ") ": 385,
      "oun": 386,
      "sp": 387,
      "et": 388,
      "ad ": 389,
      "pre": 390,
      "n't ": 391,
      "char": 392,
      "mor": 393,
      "stor": 394,
      "mo": 395,
      "her ": 396,
      "id": 397,
      "just ": 398,
      "has ": 399,
      "about ": 400,
      "au": 401,
      "ood ": 402,
      "ill ": 403,
      ", the ": 404,
      "end": 405,
      ", but ": 406,
      "ot": 407,
      "e. ": 408,
      "e of ": 409,
      "im": 410,
      "ell": 411,
      "rec": 412,
      "and": 413,
      "op": 414,
      "ei": 415,
      "ut": 416,
      "pro": 417,
      "wat": 418,
      "charact": 419,
      "par": 420,
      "to the ": 421,
      "y, ": 422,
      "some ": 423,
      "der": 424,
      "very ": 425,
      "um": 426,
      "aw": 427,
      "ter ": 428,
      "ever": 429,
      "de ": 430,
      "ep": 431,
      "ever ": 432,
      ". I ": 433,
      "fin": 434,
      "oc": 435,
      "ely ": 436,
      "ill": 437,
      "cl": 438,
      "ff": 439,
      "gu": 440,
      "is a ": 441,
      "est": 442,
      "what ": 443,
      "more ": 444,
      "est ": 445,
      "ar ": 446,
      "tw": 447,
      "ght ": 448,
      "ed to ": 449,
      "from ": 450,
      "other ": 451,
      "ous ": 452,
      ". Th": 453,
      "would ": 454,
      "king ": 455,
      "whi": 456,
      "! ": 457,
      "ess ": 458,
      "ea": 459,
      "loo": 460,
      "gre": 461,
      "good ": 462,
      "kn": 463,
      "- ": 464,
      "my ": 465,
      "e's ": 466,
      "eir ": 467,
      "pe": 468,
      "scen": 469,
      "ob": 470,
      "only ": 471,
      "get ": 472,
      "tion": 473,
      "it's ": 474,
      "most ": 475,
      "Wh": 476,
      "e and ": 477,
      "gi": 478,
      "had ": 479,
      "? ": 480,
      "really ": 481,
      "tion ": 482,
      "itt": 483,
      "which ": 484,
      "min": 485,
      "up ": 486,
      "some": 487,
      "uc": 488,
      "po": 489,
      "ut ": 490,
      "fa": 491,
      "me": 492,
      "use ": 493,
      "were ": 494,
      "s. ": 495,
      "mu": 496,
      "can ": 497,
      "thing ": 498,
      "sel": 499,
      "ough ": 500,
      "they ": 501,
      "no ": 502,
      "ks ": 503,
      "see ": 504,
      "pr": 505,
      "ew ": 506,
      "watch": 507,
      "she ": 508,
      "app": 509,
      "ish": 510,
      "ant ": 511,
      "fe": 512,
      "int": 513,
      "ing the ": 514,
      "bl": 515,
      "ation": 516,
      "its ": 517,
      "ate ": 518,
      "ple ": 519,
      "able ": 520,
      "ig": 521,
      ". It ": 522,
      "own ": 523,
      "ant": 524,
      "lov": 525,
      "even ": 526,
      "her": 527,
      "ite ": 528,
      "th ": 529,
      "ack ": 530,
      "ess": 531,
      "story ": 532,
      ", th": 533,
      "el ": 534,
      "on't ": 535,
      "to be ": 536,
      "ity ": 537,
      "ell ": 538,
      "a l": 539,
      "go": 540,
      "me ": 541,
      "i ": 542,
      "cre": 543,
      "end ": 544,
      "if ": 545,
      "ame ": 546,
      "when ": 547,
      ". H": 548,
      "peo": 549,
      "fir": 550,
      ". S": 551,
      "s and ": 552,
      "str": 553,
      "se ": 554,
      "eri": 555,
      "been ": 556,
      "on the ": 557,
      "ed by ": 558,
      "dis": 559,
      "ure ": 560,
      "ph": 561,
      "beca": 562,
      "ation ": 563,
      "over": 564,
      "direc": 565,
      "ain": 566,
      "will ": 567,
      "fu": 568,
      "a b": 569,
      "fun": 570,
      "ound ": 571,
      "kes ": 572,
      "up": 573,
      "od": 574,
      ": ": 575,
      "play": 576,
      "much ": 577,
      "tt": 578,
      "any ": 579,
      "ght": 580,
      "af": 581,
      "ing to ": 582,
      "if": 583,
      "we ": 584,
      "gr": 585,
      "make ": 586,
      "fl": 587,
      "I'": 588,
      ". B": 589,
      "em ": 590,
      "tra": 591,
      "ose ": 592,
      "because ": 593,
      "in a ": 594,
      "wr": 595,
      ". This ": 596,
      "our": 597,
      "ful ": 598,
      "time ": 599,
      "' ": 600,
      "inter": 601,
      "for the ": 602,
      "way": 603,
      "and the ": 604,
      "eli": 605,
      "star": 606,
      "ect": 607,
      "re ": 608,
      "could ": 609,
      "ther": 610,
      "ong ": 611,
      "es, ": 612,
      "with the ": 613,
      "ful": 614,
      "oy": 615,
      "first ": 616,
      "Ch": 617,
      "ang": 618,
      "any": 619,
      "great ": 620,
      "et ": 621,
      "dn't ": 622,
      "don't ": 623,
      "This ": 624,
      "ast": 625,
      "made ": 626,
      "iti": 627,
      "ence ": 628,
      "also ": 629,
      "ack": 630,
      "people ": 631,
      "ast ": 632,
      "enc": 633,
      "ous": 634,
      "how ": 635,
      "St": 636,
      "ly": 637,
      "ther ": 638,
      "t's ": 639,
      "ey": 640,
      "s of ": 641,
      "ves ": 642,
      "ard": 643,
      "where ": 644,
      "year": 645,
      "An": 646,
      "direct": 647,
      "do ": 648,
      "ure": 649,
      "ing, ": 650,
      "ard ": 651,
      "so": 652,
      "id ": 653,
      "is the ": 654,
      "ight ": 655,
      "at the ": 656,
      "anc": 657,
      "movie": 658,
      "way ": 659,
      "ese ": 660,
      "ist": 661,
      "comm": 662,
      " their ": 663,
      "ud": 664,
      "og": 665,
      "old ": 666,
      "man ": 667,
      "br": 668,
      "ually ": 669,
      "out": 670,
      "hor": 671,
      "att": 672,
      "a f": 673,
      "ble ": 674,
      "it was ": 675,
      "ile ": 676,
      ". An": 677,
      "many ": 678,
      "ood": 679,
      "ittle ": 680,
      "ated ": 681,
      "ong": 682,
      "tur": 683,
      "ical ": 684,
      "show": 685,
      "ice ": 686,
      "ass": 687,
      "s to ": 688,
      "19": 689,
      "des": 690,
      "him ": 691,
      "a s": 692,
      "ne": 693,
      "dr": 694,
      "ked ": 695,
      "never ": 696,
      "s the ": 697,
      "lin": 698,
      ".<br /><br />The ": 699,
      "lif": 700,
      "Th": 701,
      "into ": 702,
      "too ": 703,
      "exc": 704,
      "pres": 705,
      "tal": 706,
      "bet": 707,
      "two ": 708,
      "a c": 709,
      "mar": 710,
      "being ": 711,
      "thr": 712,
      "...": 713,
      "view": 714,
      "from the ": 715,
      "actor": 716,
      "ving ": 717,
      "can": 718,
      "bad ": 719,
      "am ": 720,
      "tain": 721,
      " thin": 722,
      "off": 723,
      "por": 724,
      "age ": 725,
      "in this ": 726,
      ", I ": 727,
      " they ": 728,
      "perfor": 729,
      "fac": 730,
      "well ": 731,
      "as the ": 732,
      "bi": 733,
      "did ": 734,
      "duc": 735,
      "seem": 736,
      "en the ": 737,
      "ap": 738,
      "; ": 739,
      "does ": 740,
      "your ": 741,
      "it is ": 742,
      "0 ": 743,
      "ings ": 744,
      "ble": 745,
      "ect ": 746,
      "ole ": 747,
      "car": 748,
      "mer": 749,
      "there ": 750,
      "characters ": 751,
      "movies ": 752,
      "ary ": 753,
      "ge ": 754,
      "our ": 755,
      "sur": 756,
      "eci": 757,
      "ish ": 758,
      "mon": 759,
      "ke": 760,
      "as a ": 761,
      "character ": 762,
      "best ": 763,
      "fri": 764,
      "of th": 765,
      "ing and ": 766,
      "him": 767,
      "fi": 768,
      "funn": 769,
      "der ": 770,
      "seri": 771,
      "happ": 772,
      "real": 773,
      "enti": 774,
      "pos": 775,
      "plot ": 776,
      "part": 777,
      "does": 778,
      "tru": 779,
      "us ": 780,
      "sa": 781,
      "beli": 782,
      "ents ": 783,
      "augh": 784,
      "ick": 785,
      "self ": 786,
      "Jo": 787,
      "should ": 788,
      "son": 789,
      "under": 790,
      "mis": 791,
      "he": 792,
      "dec": 793,
      "t of ": 794,
      "one of the ": 795,
      "compl": 796,
      "gin": 797,
      "ict": 798,
      "gen": 799,
      "still ": 800,
      "ily ": 801,
      "ance ": 802,
      "performan": 803,
      "tri": 804,
      "own": 805,
      ". And ": 806,
      "such ": 807,
      "fam": 808,
      "love ": 809,
      ", this ": 810,
      "sl": 811,
      "ann": 812,
      "il ": 813,
      "every": 814,
      "cr": 815,
      "er, ": 816,
      "come ": 817,
      "scre": 818,
      "oll": 819,
      "gl": 820,
      "gir": 821,
      "less ": 822,
      "ion": 823,
      "wom": 824,
      "iz": 825,
      "es to ": 826,
      "ound": 827,
      "res": 828,
      "hear": 829,
      "go ": 830,
      "ll ": 831,
      "after ": 832,
      "sim": 833,
      "ed the ": 834,
      "ought ": 835,
      ". It's ": 836,
      "say ": 837,
      "of a ": 838,
      ". Wh": 839,
      "ably ": 840,
      "kin": 841,
      "kill": 842,
      "y and ": 843,
      "rip": 844,
      "doesn't ": 845,
      ". M": 846,
      "mus": 847,
      " and ": 848,
      "interest": 849,
      "acting ": 850,
      "seen ": 851,
      "mat": 852,
      "enj": 853,
      "believ": 854,
      "we": 855,
      "with a ": 856,
      ". But ": 857,
      "films ": 858,
      "mem": 859,
      "bo": 860,
      "this movie ": 861,
      "pi": 862,
      "at's ": 863,
      "ertain": 864,
      "te": 865,
      "makes ": 866,
      "ari": 867,
      ". O": 868,
      "their ": 869,
      "es and ": 870,
      "ber": 871,
      "ster": 872,
      "than ": 873,
      "e-": 874,
      ". W": 875,
      "ick ": 876,
      "didn't ": 877,
      "son ": 878,
      "E ": 879,
      "orig": 880,
      "A ": 881,
      "off ": 882,
      "origin": 883,
      "over ": 884,
      "ste": 885,
      "arr": 886,
      "inc": 887,
      "x ": 888,
      "befor": 889,
      "know ": 890,
      "real ": 891,
      "show ": 892,
      "illi": 893,
      "eas": 894,
      "eff": 895,
      "find ": 896,
      "of this ": 897,
      "bor": 898,
      "ath": 899,
      "back ": 900,
      "ual ": 901,
      "well": 902,
      "have been ": 903,
      "diff": 904,
      ". N": 905,
      "yp": 906,
      "ain ": 907,
      "icul": 908,
      "youn": 909,
      "sion ": 910,
      "exp": 911,
      "something ": 912,
      "scene ": 913,
      "supp": 914,
      "actually ": 915,
      "rel": 916,
      "!!": 917,
      "ru": 918,
      "you'": 919,
      "all the ": 920,
      "ort": 921,
      "sen": 922,
      "produc": 923,
      "while ": 924,
      "), ": 925,
      "**": 926,
      "noth": 927,
      "know": 928,
      "red ": 929,
      "ven": 930,
      "not": 931,
      "acc": 932,
      "ide": 933,
      "sion": 934,
      "to see ": 935,
      "ash": 936,
      "hel": 937,
      "es of ": 938,
      "won": 939,
      "same ": 940,
      "minut": 941,
      "ers": 942,
      "ist ": 943,
      "ni": 944,
      "om ": 945,
      "high": 946,
      "sin": 947,
      "sub": 948,
      "co": 949,
      "story": 950,
      "little ": 951,
      "Al": 952,
      "ing th": 953,
      "got ": 954,
      "worl": 955,
      "quite ": 956,
      "inv": 957,
      "reas": 958,
      "horr": 959,
      "look ": 960,
      "d, ": 961,
      "ds ": 962,
      "watch ": 963,
      "du": 964,
      "plac": 965,
      "again": 966,
      "I was ": 967,
      "tty ": 968,
      "ed and ": 969,
      "--": 970,
      "out of ": 971,
      "ve": 972,
      "comp": 973,
      "want ": 974,
      "ing that ": 975,
      "why ": 976,
      "cin": 977,
      "ment ": 978,
      "is not ": 979,
      "writ": 980,
      "every ": 981,
      "pris": 982,
      "how": 983,
      "scrip": 984,
      "ed, ": 985,
      "sy": 986,
      "comed": 987,
      ". There ": 988,
      "twe": 989,
      "av": 990,
      "was": 991,
      "pretty ": 992,
      ", and the ": 993,
      "day": 994,
      "other": 995,
      "ning ": 996,
      "can't ": 997,
      "D ": 998,
      "that the ": 999,
      "comes ": 1000,
      "betwe": 1001,
      "scenes ": 1002,
      "You": 1003,
      "read": 1004,
      "I'm ": 1005,
      "meric": 1006,
      ".<br /><br />I": 1007,
      "ways ": 1008,
      "for a ": 1009,
      "give ": 1010,
      "ak": 1011,
      "10": 1012,
      "Americ": 1013,
      "thin": 1014,
      " than ": 1015,
      "life ": 1016,
      "chil": 1017,
      "gets ": 1018,
      "take ": 1019,
      "sol": 1020,
      "I have ": 1021,
      "hu": 1022,
      "another ": 1023,
      "d of ": 1024,
      "ree ": 1025,
      ". F": 1026,
      "one": 1027,
      "able": 1028,
      "ment": 1029,
      "better ": 1030,
      "film is ": 1031,
      "boo": 1032,
      "emp": 1033,
      "saw": 1034,
      "expl": 1035,
      "ed in ": 1036,
      "self": 1037,
      ". <br /><br />": 1038,
      ". He ": 1039,
      "& ": 1040,
      "S ": 1041,
      "Br": 1042,
      "cont": 1043,
      "ing a ": 1044,
      "ity": 1045,
      "work ": 1046,
      "lo": 1047,
      "movie, ": 1048,
      "may ": 1049,
      "esp": 1050,
      "beau": 1051,
      "good": 1052,
      "cam": 1053,
      "if you ": 1054,
      "before ": 1055,
      "ome ": 1056,
      "cast ": 1057,
      "sequ": 1058,
      "friend": 1059,
      "my": 1060,
      "men": 1061,
      "about the ": 1062,
      "oth ": 1063,
      "feel": 1064,
      "movie is ": 1065,
      "young ": 1066,
      "tre": 1067,
      "differ": 1068,
      "part ": 1069,
      "around ": 1070,
      "laugh": 1071,
      "turn": 1072,
      "ne ": 1073,
      "s are ": 1074,
      "try": 1075,
      "complet": 1076,
      "say": 1077,
      "lat": 1078,
      "mom": 1079,
      "then ": 1080,
      "too": 1081,
      "bad": 1082,
      "right ": 1083,
      "a lot ": 1084,
      "without ": 1085,
      "shi": 1086,
      "lea": 1087,
      "poin": 1088,
      "ven ": 1089,
      "isn't ": 1090,
      " think ": 1091,
      "raph": 1092,
      ". E": 1093,
      "eat": 1094,
      "stand": 1095,
      "happen": 1096,
      "appear": 1097,
      "hum": 1098,
      "ously ": 1099,
      "almost ": 1100,
      "cap": 1101,
      "must ": 1102,
      "ach": 1103,
      ". If ": 1104,
      "see": 1105,
      "bas": 1106,
      "day ": 1107,
      "no": 1108,
      "ically ": 1109,
      "rol": 1110,
      "ps ": 1111,
      "ted ": 1112,
      "ion ": 1113,
      ". D": 1114,
      "whole ": 1115,
      "ber ": 1116,
      "always ": 1117,
      "TV": 1118,
      "cour": 1119,
      "prob": 1120,
      "ef": 1121,
      "years ": 1122,
      "peri": 1123,
      "might ": 1124,
      "Joh": 1125,
      "audi": 1126,
      "new ": 1127,
      "ing this ": 1128,
      "ouldn't ": 1129,
      "Mar": 1130,
      "fr": 1131,
      "was a ": 1132,
      "nothing ": 1133,
      "director ": 1134,
      "times ": 1135,
      ". A ": 1136,
      "TH": 1137,
      "fort": 1138,
      "run": 1139,
      "action ": 1140,
      "suc": 1141,
      "here ": 1142,
      "prov": 1143,
      "dev": 1144,
      "least ": 1145,
      "ry ": 1146,
      "T ": 1147,
      "I've ": 1148,
      "vis": 1149,
      "enjoy": 1150,
      "In": 1151,
      "jo": 1152,
      "ine ": 1153,
      "You ": 1154,
      "horror ": 1155,
      "unt": 1156,
      "ans": 1157,
      "piec": 1158,
      "probably ": 1159,
      "rist": 1160,
      "mak": 1161,
      "entertain": 1162,
      "girl": 1163,
      "lear": 1164,
      "original ": 1165,
      ". In ": 1166,
      "pol": 1167,
      "ept ": 1168,
      "sor": 1169,
      "enough ": 1170,
      "ating ": 1171,
      "ima": 1172,
      "both ": 1173,
      "form": 1174,
      "he's ": 1175,
      "kid": 1176,
      ". Al": 1177,
      "dra": 1178,
      "s that ": 1179,
      "work": 1180,
      "dial": 1181,
      "play ": 1182,
      "epis": 1183,
      "film, ": 1184,
      "... ": 1185,
      "wonder": 1186,
      "performanc": 1187,
      "ir ": 1188,
      "down ": 1189,
      "cra": 1190,
      ") and ": 1191,
      "But ": 1192,
      "movie. ": 1193,
      "col": 1194,
      "ecially ": 1195,
      "ingly ": 1196,
      "\"The ": 1197,
      "by the ": 1198,
      "fact ": 1199,
      "t, ": 1200,
      "found ": 1201,
      "hop": 1202,
      "perf": 1203,
      "hand": 1204,
      "on a ": 1205,
      "beauti": 1206,
      "each ": 1207,
      "s a ": 1208,
      "e.<br /><br />": 1209,
      "actors ": 1210,
      ". P": 1211,
      "terri": 1212,
      "fully ": 1213,
      "cor": 1214,
      "done ": 1215,
      "e to ": 1216,
      "b ": 1217,
      "back": 1218,
      "ER": 1219,
      "though ": 1220,
      ". They ": 1221,
      "last ": 1222,
      " thr": 1223,
      "sex": 1224,
      "job": 1225,
      "Fr": 1226,
      "ten ": 1227,
      "into the ": 1228,
      "ans ": 1229,
      "this film ": 1230,
      "ects ": 1231,
      "better": 1232,
      "ty ": 1233,
      "class": 1234,
      "DV": 1235,
      "since ": 1236,
      "a few ": 1237,
      "e is ": 1238,
      "them": 1239,
      "character": 1240,
      "Hol": 1241,
      "anim": 1242,
      "es the ": 1243,
      "ently ": 1244,
      "hal": 1245,
      "war": 1246,
      "a good ": 1247,
      "possi": 1248,
      "Mi": 1249,
      "e that ": 1250,
      "Un": 1251,
      "bre": 1252,
      "er and ": 1253,
      "main ": 1254,
      "ep ": 1255,
      "se, ": 1256,
      "ed with ": 1257,
      "proble": 1258,
      "t to ": 1259,
      "age": 1260,
      "s, and ": 1261,
      "sch": 1262,
      "worst ": 1263,
      "great": 1264,
      "loc": 1265,
      "toge": 1266,
      "funny ": 1267,
      "far ": 1268,
      "going ": 1269,
      "typ": 1270,
      "e the ": 1271,
      "person": 1272,
      "tive ": 1273,
      "through": 1274,
      "pu": 1275,
      "looks ": 1276,
      "e, but ": 1277,
      "begin": 1278,
      "bud": 1279,
      "ately ": 1280,
      "expect": 1281,
      "especially ": 1282,
      "bly ": 1283,
      "put ": 1284,
      "early ": 1285,
      "nam": 1286,
      ".<br /><br />I ": 1287,
      "consi": 1288,
      "seems ": 1289,
      "e.": 1290,
      "now ": 1291,
      "ros": 1292,
      "sm": 1293,
      "wast": 1294,
      "2 ": 1295,
      "came ": 1296,
      "was the ": 1297,
      "anything ": 1298,
      "screen": 1299,
      "ug": 1300,
      "looking ": 1301,
      "them ": 1302,
      "Car": 1303,
      "opp": 1304,
      "ative ": 1305,
      "would be ": 1306,
      "he is ": 1307,
      "speci": 1308,
      "fav": 1309,
      "tell": 1310,
      "surpris": 1311,
      "it, ": 1312,
      "hard ": 1313,
      "y to ": 1314,
      "is, ": 1315,
      "cinem": 1316,
      "a little ": 1317,
      "tit": 1318,
      "gor": 1319,
      "ust": 1320,
      "cri": 1321,
      "00": 1322,
      "feel ": 1323,
      "wasn't ": 1324,
      "ali": 1325,
      "secon": 1326,
      "recomm": 1327,
      "sty": 1328,
      "ici": 1329,
      "\", ": 1330,
      ", they ": 1331,
      "conc": 1332,
      " there ": 1333,
      "ved ": 1334,
      "foll": 1335,
      "takes ": 1336,
      "inn": 1337,
      "making ": 1338,
      "cas": 1339,
      "incl": 1340,
      ". L": 1341,
      "cli": 1342,
      "ody ": 1343,
      "ind": 1344,
      "between ": 1345,
      "away ": 1346,
      "bro": 1347,
      "of his ": 1348,
      "performance ": 1349,
      "ting ": 1350,
      "set ": 1351,
      "rid": 1352,
      "dialo": 1353,
      "wa": 1354,
      "lyw": 1355,
      "s in ": 1356,
      "kind of ": 1357,
      "ise ": 1358,
      "watching ": 1359,
      "ft ": 1360,
      "ool ": 1361,
      "old": 1362,
      "hou": 1363,
      "guy ": 1364,
      "seem ": 1365,
      "s, but ": 1366,
      "En": 1367,
      "cha": 1368,
      "cast": 1369,
      "different ": 1370,
      "TV ": 1371,
      ", that ": 1372,
      "John ": 1373,
      "Ar": 1374,
      " think": 1375,
      "oy ": 1376,
      "ies ": 1377,
      "sure ": 1378,
      "ere's ": 1379,
      ". In": 1380,
      "obvi": 1381,
      "after": 1382,
      "script ": 1383,
      "thing": 1384,
      "conv": 1385,
      "trying to ": 1386,
      "h ": 1387,
      "portra": 1388,
      "gn": 1389,
      "Rob": 1390,
      "mur": 1391,
      "dep": 1392,
      "ply ": 1393,
      "excell": 1394,
      "stu": 1395,
      "ama": 1396,
      "call": 1397,
      "ly, ": 1398,
      "side ": 1399,
      ". I'": 1400,
      "at least ": 1401,
      "sk": 1402,
      "Christ": 1403,
      "e. The ": 1404,
      "Bl": 1405,
      "coun": 1406,
      "American ": 1407,
      "invol": 1408,
      "gett": 1409,
      "dur": 1410,
      "feat": 1411,
      "anyone ": 1412,
      "lead": 1413,
      "ending ": 1414,
      " thought ": 1415,
      "down": 1416,
      "add": 1417,
      "wif": 1418,
      "e, and ": 1419,
      "eng": 1420,
      "s.<br /><br />": 1421,
      "oint": 1422,
      "music ": 1423,
      "dre": 1424,
      "ale ": 1425,
      "eith": 1426,
      " this movie ": 1427,
      "pri": 1428,
      "to make ": 1429,
      "woman ": 1430,
      "val": 1431,
      "deli": 1432,
      "remem": 1433,
      "ality ": 1434,
      "defin": 1435,
      "mean": 1436,
      "pa": 1437,
      "yet ": 1438,
      "vo": 1439,
      "someone ": 1440,
      "like the ": 1441,
      "even": 1442,
      "light": 1443,
      "plot": 1444,
      "ever, ": 1445,
      "family ": 1446,
      "seen": 1447,
      "ed by the ": 1448,
      "s. The ": 1449,
      "usp": 1450,
      "long ": 1451,
      "doc": 1452,
      "'re ": 1453,
      "ster ": 1454,
      ". C": 1455,
      "succ": 1456,
      "read ": 1457,
      "o, ": 1458,
      "attemp": 1459,
      "disapp": 1460,
      "5 ": 1461,
      "worth ": 1462,
      "stup": 1463,
      "ga": 1464,
      "chang": 1465,
      "goes ": 1466,
      "world ": 1467,
      "fortun": 1468,
      "having ": 1469,
      "point": 1470,
      "gener": 1471,
      ", a ": 1472,
      "pow": 1473,
      "stand ": 1474,
      "fre": 1475,
      "director": 1476,
      "Hollyw": 1477,
      "Y ": 1478,
      "ants ": 1479,
      "girl ": 1480,
      "IN": 1481,
      "nat": 1482,
      "in his ": 1483,
      "pac": 1484,
      "want": 1485,
      "solut": 1486,
      "though": 1487,
      "point ": 1488,
      "y's ": 1489,
      "ed to be ": 1490,
      "want to ": 1491,
      "camer": 1492,
      " them": 1493,
      "ying ": 1494,
      "sha": 1495,
      "oci": 1496,
      "ci": 1497,
      "peopl": 1498,
      "a great ": 1499,
      "simply ": 1500,
      "vide": 1501,
      "ser": 1502,
      "tot": 1503,
      "emo": 1504,
      "10 ": 1505,
      "dd": 1506,
      "dar": 1507,
      "disappoint": 1508,
      "ten": 1509,
      "interesting ": 1510,
      "ord": 1511,
      "De": 1512,
      "itu": 1513,
      "lec": 1514,
      "Le": 1515,
      "num": 1516,
      "like a ": 1517,
      "completely ": 1518,
      ", it ": 1519,
      "you're ": 1520,
      "follow": 1521,
      "dist": 1522,
      "movies": 1523,
      "big ": 1524,
      "sci": 1525,
      "particul": 1526,
      "sound": 1527,
      "special ": 1528,
      "watched ": 1529,
      "susp": 1530,
      "decid": 1531,
      "Re": 1532,
      "rather ": 1533,
      "s.": 1534,
      "let ": 1535,
      "left ": 1536,
      "And ": 1537,
      "dri": 1538,
      "lik": 1539,
      "used ": 1540,
      "\" and ": 1541,
      "fan": 1542,
      "comedy ": 1543,
      "more than ": 1544,
      "It ": 1545,
      ". G": 1546,
      "ock": 1547,
      "a lot of ": 1548,
      "ort ": 1549,
      "es that ": 1550,
      "absolut": 1551,
      "exam": 1552,
      "horri": 1553,
      "have to ": 1554,
      "rest ": 1555,
      ". It is ": 1556,
      "leas": 1557,
      "on, ": 1558,
      "w ": 1559,
      "inste": 1560,
      "things ": 1561,
      "-- ": 1562,
      "he was ": 1563,
      "resp": 1564,
      "role ": 1565,
      "sing": 1566,
      ", there ": 1567,
      "AN": 1568,
      "ie ": 1569,
      "gra": 1570,
      "disc": 1571,
      "guy": 1572,
      "ograph": 1573,
      "need": 1574,
      " those ": 1575,
      "that": 1576,
      "may": 1577,
      "Par": 1578,
      "these ": 1579,
      "es are ": 1580,
      "action": 1581,
      "dram": 1582,
      "version ": 1583,
      "viol": 1584,
      "sul": 1585,
      "ind ": 1586,
      "y of ": 1587,
      "a bit ": 1588,
      "fel": 1589,
      "out the ": 1590,
      "ness ": 1591,
      "super": 1592,
      "famil": 1593,
      "What ": 1594,
      "hil": 1595,
      "is that ": 1596,
      "devel": 1597,
      "ank": 1598,
      "pict": 1599,
      "....": 1600,
      "ate": 1601,
      "hom": 1602,
      "Cl": 1603,
      "amaz": 1604,
      "truly ": 1605,
      "wal": 1606,
      "mi": 1607,
      ", who ": 1608,
      "ts of ": 1609,
      "itely ": 1610,
      "actor ": 1611,
      "ext ": 1612,
      "beautiful ": 1613,
      "through ": 1614,
      "main": 1615,
      "would have ": 1616,
      "che": 1617,
      "dialogu": 1618,
      "shot ": 1619,
      "az": 1620,
      "ool": 1621,
      "deser": 1622,
      "ken ": 1623,
      "now": 1624,
      "e. I ": 1625,
      "money ": 1626,
      "is an ": 1627,
      "tiv": 1628,
      ".\" ": 1629,
      "itch": 1630,
      "Ri": 1631,
      "nor": 1632,
      "als ": 1633,
      "has a ": 1634,
      "ally": 1635,
      "once ": 1636,
      "recommend ": 1637,
      "rac": 1638,
      "again ": 1639,
      "open": 1640,
      "dem": 1641,
      "believe ": 1642,
      "saw ": 1643,
      "nice ": 1644,
      "3 ": 1645,
      "gives ": 1646,
      "act ": 1647,
      "air": 1648,
      ". If you ": 1649,
      "writt": 1650,
      "review": 1651,
      "fun ": 1652,
      "some of the ": 1653,
      "imagin": 1654,
      "There ": 1655,
      "Di": 1656,
      "when": 1657,
      "wea": 1658,
      "experi": 1659,
      "fail": 1660,
      "includ": 1661,
      "impres": 1662,
      "that's ": 1663,
      "pleas": 1664,
      "bar": 1665,
      "reason ": 1666,
      "op ": 1667,
      "ner": 1668,
      ", as ": 1669,
      " these ": 1670,
      "spo": 1671,
      "everyone ": 1672,
      "series ": 1673,
      "said ": 1674,
      "second ": 1675,
      "able to ": 1676,
      "favor": 1677,
      "ig ": 1678,
      "enn": 1679,
      "portray": 1680,
      "felt ": 1681,
      "ref": 1682,
      "nec": 1683,
      "excellent ": 1684,
      "which is ": 1685,
      "true ": 1686,
      "sive ": 1687,
      "actres": 1688,
      "cent": 1689,
      "cul": 1690,
      "\"S": 1691,
      "a and ": 1692,
      ". As ": 1693,
      "spir": 1694,
      " than": 1695,
      "poor ": 1696,
      "a, ": 1697,
      "one of ": 1698,
      "ney ": 1699,
      "ue ": 1700,
      ".<br /><br />A": 1701,
      "suppos": 1702,
      "gg": 1703,
      "high ": 1704,
      "scar": 1705,
      "art": 1706,
      "DVD ": 1707,
      "reason": 1708,
      "Da": 1709,
      ".<br /><br />This ": 1710,
      "credi": 1711,
      "adv": 1712,
      "over the ": 1713,
      "head ": 1714,
      "screen ": 1715,
      "emotion": 1716,
      "a movie ": 1717,
      "ates ": 1718,
      "audience ": 1719,
      "(and ": 1720,
      "enjoy ": 1721,
      "job ": 1722,
      "1 ": 1723,
      "atic ": 1724,
      "effects ": 1725,
      "develop": 1726,
      "tain ": 1727,
      "become ": 1728,
      "pul": 1729,
      "sever": 1730,
      "ane ": 1731,
      "with his ": 1732,
      "place ": 1733,
      "ition": 1734,
      "himself ": 1735,
      "who": 1736,
      "ond ": 1737,
      "fall": 1738,
      "mind": 1739,
      "everything ": 1740,
      "childr": 1741,
      "men ": 1742,
      "Li": 1743,
      "shows ": 1744,
      "plays ": 1745,
      "ented ": 1746,
      "has been ": 1747,
      ". J": 1748,
      "to get ": 1749,
      "ith ": 1750,
      "medi": 1751,
      "Gre": 1752,
      "oot": 1753,
      "ship ": 1754,
      "tor": 1755,
      "going to ": 1756,
      "entire ": 1757,
      "help ": 1758,
      "ost ": 1759,
      "al, ": 1760,
      "liked ": 1761,
      "minutes ": 1762,
      "time": 1763,
      "relation": 1764,
      "full ": 1765,
      "friend ": 1766,
      "think ": 1767,
      "Sh": 1768,
      "couldn't ": 1769,
      "quest": 1770,
      "certain": 1771,
      "k, ": 1772,
      "tast": 1773,
      "extre": 1774,
      "ian ": 1775,
      "right": 1776,
      "turn ": 1777,
      "ally, ": 1778,
      "iting ": 1779,
      "led ": 1780,
      "dou": 1781,
      "went ": 1782,
      "cred": 1783,
      "na": 1784,
      "I don't ": 1785,
      "ition ": 1786,
      "you can ": 1787,
      "against ": 1788,
      "THE ": 1789,
      "port": 1790,
      "head": 1791,
      "boy": 1792,
      "line ": 1793,
      "Hollywood ": 1794,
      "s (": 1795,
      "idea ": 1796,
      "body ": 1797,
      "episo": 1798,
      "sed": 1799,
      "maybe ": 1800,
      ".<br /><br />S": 1801,
      "ement ": 1802,
      "half ": 1803,
      "s of the ": 1804,
      "the film ": 1805,
      "ere": 1806,
      "I am ": 1807,
      "My ": 1808,
      "cur": 1809,
      "top ": 1810,
      "together ": 1811,
      ". She ": 1812,
      "stra": 1813,
      "mid": 1814,
      "to a ": 1815,
      "releas": 1816,
      "few ": 1817,
      "definitely ": 1818,
      "mind ": 1819,
      "life": 1820,
      "eor": 1821,
      "mess": 1822,
      "ton": 1823,
      "bur": 1824,
      "have a ": 1825,
      "year ": 1826,
      "budget ": 1827,
      "absolutely ": 1828,
      "non": 1829,
      "when the ": 1830,
      "long": 1831,
      "ward ": 1832,
      "who is ": 1833,
      "ed that ": 1834,
      "dy ": 1835,
      "soci": 1836,
      "ank ": 1837,
      "father ": 1838,
      "care": 1839,
      "ument": 1840,
      "sych": 1841,
      "the movie ": 1842,
      "less": 1843,
      "tou": 1844,
      "alread": 1845,
      "getting ": 1846,
      "He ": 1847,
      "ond": 1848,
      "of cour": 1849,
      "becomes ": 1850,
      "human ": 1851,
      "stre": 1852,
      "er's ": 1853,
      "Char": 1854,
      "les ": 1855,
      "mp": 1856,
      "art ": 1857,
      ". How": 1858,
      "ath ": 1859,
      "in my ": 1860,
      "what": 1861,
      "ock ": 1862,
      "inten": 1863,
      ". You ": 1864,
      "land": 1865,
      "en't ": 1866,
      "and a ": 1867,
      ". It was ": 1868,
      "arly ": 1869,
      "live ": 1870,
      "te ": 1871,
      "certainly ": 1872,
      "ear ": 1873,
      "pred": 1874,
      "pur": 1875,
      "Engl": 1876,
      "funny": 1877,
      "ern": 1878,
      "will be ": 1879,
      "hon": 1880,
      "view ": 1881,
      "realiz": 1882,
      "black ": 1883,
      "e\" ": 1884,
      "sed ": 1885,
      "liv": 1886,
      "consider": 1887,
      "uni": 1888,
      "conf": 1889,
      "ends ": 1890,
      "memor": 1891,
      "0's ": 1892,
      "Mc": 1893,
      "one of th": 1894,
      "instead ": 1895,
      "daugh": 1896,
      "en, ": 1897,
      "beh": 1898,
      "fact": 1899,
      "fter ": 1900,
      "brilli": 1901,
      "nov": 1902,
      "I had ": 1903,
      "ON": 1904,
      "ic, ": 1905,
      "ass ": 1906,
      "y-": 1907,
      "roc": 1908,
      "into a ": 1909,
      "'ve ": 1910,
      "s\" ": 1911,
      "keep": 1912,
      "ed on ": 1913,
      "uck": 1914,
      "im ": 1915,
      "several ": 1916,
      "sing ": 1917,
      "hard": 1918,
      "light ": 1919,
      "haps ": 1920,
      "worth": 1921,
      "sens": 1922,
      "to this ": 1923,
      " that": 1924,
      "later ": 1925,
      "aff": 1926,
      "/10": 1927,
      "this is ": 1928,
      "production ": 1929,
      "ombi": 1930,
      "200": 1931,
      "Be": 1932,
      "night ": 1933,
      "often ": 1934,
      "ing of ": 1935,
      "book ": 1936,
      "ited ": 1937,
      "much": 1938,
      "can be ": 1939,
      "ple of ": 1940,
      "given ": 1941,
      "does not ": 1942,
      "else ": 1943,
      "scor": 1944,
      "mil": 1945,
      "s' ": 1946,
      "tell ": 1947,
      "elli": 1948,
      ".<br /><br />O": 1949,
      "wonderful ": 1950,
      "chael ": 1951,
      "Mr": 1952,
      "vill": 1953,
      "ames ": 1954,
      " them ": 1955,
      "bit ": 1956,
      "psych": 1957,
      "ation of ": 1958,
      "fact that ": 1959,
      "atch": 1960,
      "sil": 1961,
      "video ": 1962,
      "ism ": 1963,
      "ey're ": 1964,
      "for this ": 1965,
      "called ": 1966,
      "manag": 1967,
      "etc": 1968,
      "totally ": 1969,
      "4 ": 1970,
      "olog": 1971,
      "understand ": 1972,
      "annoy": 1973,
      "Sp": 1974,
      "forc": 1975,
      "classic ": 1976,
      "moment": 1977,
      "!<br /><br />": 1978,
      "allow": 1979,
      "y is ": 1980,
      "ations ": 1981,
      "wants ": 1982,
      "list": 1983,
      ", but the ": 1984,
      ". This is ": 1985,
      "written ": 1986,
      "cou": 1987,
      "sett": 1988,
      "as well ": 1989,
      "all, ": 1990,
      "this": 1991,
      "at a ": 1992,
      "perfect ": 1993,
      "ird ": 1994,
      "I can ": 1995,
      "buil": 1996,
      "use of ": 1997,
      ". There are ": 1998,
      "arious ": 1999,
      "pop": 2000,
      "contin": 2001,
      "gave ": 2002,
      "tea": 2003,
      "import": 2004,
      "should be ": 2005,
      "prom": 2006,
      "NO": 2007,
      "next ": 2008,
      "ost": 2009,
      "sw": 2010,
      "ded": 2011,
      "they are ": 2012,
      "women ": 2013,
      "clear": 2014,
      "short ": 2015,
      "I think ": 2016,
      "ility ": 2017,
      "hour": 2018,
      "ism": 2019,
      "graph": 2020,
      "although ": 2021,
      "song": 2022,
      ",\" ": 2023,
      "ert ": 2024,
      "ective ": 2025,
      "lev": 2026,
      "film that ": 2027,
      "New ": 2028,
      "star ": 2029,
      "ide ": 2030,
      "keep ": 2031,
      "problem": 2032,
      ". That ": 2033,
      "Con": 2034,
      "sum": 2035,
      "known ": 2036,
      "grou": 2037,
      "les": 2038,
      "pain": 2039,
      "such a ": 2040,
      "already ": 2041,
      "ding ": 2042,
      "sh ": 2043,
      "asp": 2044,
      "your": 2045,
      "gun": 2046,
      "vel": 2047,
      "reg": 2048,
      "adm": 2049,
      "a very ": 2050,
      "cu": 2051,
      "made": 2052,
      "audienc": 2053,
      "played ": 2054,
      "itic": 2055,
      "starts ": 2056,
      "Ger": 2057,
      "RE": 2058,
      "omin": 2059,
      "episod": 2060,
      "night": 2061,
      "cop": 2062,
      "antly ": 2063,
      "won't ": 2064,
      "ori": 2065,
      "spea": 2066,
      "style ": 2067,
      "leg": 2068,
      "qui": 2069,
      "rap": 2070,
      "story is ": 2071,
      "than": 2072,
      "hero": 2073,
      "person ": 2074,
      "reli": 2075,
      ", then ": 2076,
      "world": 2077,
      "situ": 2078,
      "tor ": 2079,
      "es, and ": 2080,
      "cut": 2081,
      "mark": 2082,
      "AL": 2083,
      "of their ": 2084,
      "ement": 2085,
      "care ": 2086,
      "it a ": 2087,
      "a's ": 2088,
      "either ": 2089,
      "ling ": 2090,
      "maj": 2091,
      "prof": 2092,
      "Well": 2093,
      "event": 2094,
      "bra": 2095,
      "Brit": 2096,
      "document": 2097,
      "(the ": 2098,
      "Se": 2099,
      "wer": 2100,
      "in 19": 2101,
      "movie was ": 2102,
      "final ": 2103,
      "lead ": 2104,
      "Michael ": 2105,
      "ake ": 2106,
      "she's ": 2107,
      "help": 2108,
      "finally ": 2109,
      "extrem": 2110,
      "convinc": 2111,
      ". I'm ": 2112,
      "stupid ": 2113,
      "It's ": 2114,
      "tel": 2115,
      ". R": 2116,
      "fas": 2117,
      "those ": 2118,
      "in their ": 2119,
      "that is ": 2120,
      "usb": 2121,
      "along ": 2122,
      "using ": 2123,
      "mention": 2124,
      "house ": 2125,
      "thing that ": 2126,
      "poor": 2127,
      "ridicul": 2128,
      "bb": 2129,
      "inst": 2130,
      "tech": 2131,
      "turns ": 2132,
      "problem ": 2133,
      "so much ": 2134,
      ". At ": 2135,
      " ": 2136,
      "one, ": 2137,
      "cinemat": 2138,
      "three ": 2139,
      "ing, and ": 2140,
      "ire ": 2141,
      "lost ": 2142,
      "incredi": 2143,
      "desp": 2144,
      "behind ": 2145,
      "ott": 2146,
      "try ": 2147,
      "vid ": 2148,
      "sequenc": 2149,
      "natur": 2150,
      "How": 2151,
      "e, the ": 2152,
      "start ": 2153,
      "ed in the ": 2154,
      "struc": 2155,
      "others ": 2156,
      "husb": 2157,
      "stud": 2158,
      "with this ": 2159,
      "danc": 2160,
      "fem": 2161,
      "simil": 2162,
      "low": 2163,
      "marri": 2164,
      "ery ": 2165,
      "ator": 2166,
      "you'll ": 2167,
      "title ": 2168,
      "hol": 2169,
      "Sc": 2170,
      ", it's ": 2171,
      "most": 2172,
      "amp": 2173,
      "teen": 2174,
      "on and ": 2175,
      "sid": 2176,
      "works ": 2177,
      "could have ": 2178,
      "cannot ": 2179,
      "predict": 2180,
      "until ": 2181,
      "ets ": 2182,
      "ff ": 2183,
      "of the film ": 2184,
      "from a ": 2185,
      "ok": 2186,
      "realist": 2187,
      "ture": 2188,
      "it and ": 2189,
      "is no ": 2190,
      "at all": 2191,
      "master": 2192,
      "did not ": 2193,
      "opin": 2194,
      ". Not ": 2195,
      "vic": 2196,
      "as it ": 2197,
      "cle": 2198,
      "ject ": 2199,
      "guess ": 2200,
      "Su": 2201,
      "ook": 2202,
      "seeing ": 2203,
      "camera ": 2204,
      "far": 2205,
      "piece of ": 2206,
      "ris": 2207,
      "to do ": 2208,
      "acting is ": 2209,
      "I'd ": 2210,
      "aim": 2211,
      "sort of ": 2212,
      "coming ": 2213,
      "murder": 2214,
      "low ": 2215,
      "as an ": 2216,
      "stat": 2217,
      "to say ": 2218,
      "vers": 2219,
      "looked ": 2220,
      "resul": 2221,
      ". What ": 2222,
      "ys": 2223,
      ", he ": 2224,
      "favorite ": 2225,
      "um ": 2226,
      "home ": 2227,
      "die ": 2228,
      "appar": 2229,
      "Mor": 2230,
      "es in ": 2231,
      "strang": 2232,
      ". We ": 2233,
      "death ": 2234,
      "s, the ": 2235,
      "ing. The ": 2236,
      "ach ": 2237,
      "hea": 2238,
      "playing ": 2239,
      "there are ": 2240,
      "feature": 2241,
      ", which ": 2242,
      ". (": 2243,
      "AR": 2244,
      "sound ": 2245,
      "or the ": 2246,
      "compar": 2247,
      "fron": 2248,
      "Col": 2249,
      "film's ": 2250,
      "K ": 2251,
      "yn": 2252,
      "and, ": 2253,
      "new": 2254,
      "vir": 2255,
      "If ": 2256,
      "possible ": 2257,
      "ef ": 2258,
      "od ": 2259,
      "rat": 2260,
      "sex ": 2261,
      "Richar": 2262,
      "big": 2263,
      "ome": 2264,
      "it to ": 2265,
      "so many ": 2266,
      "extremely ": 2267,
      "ended ": 2268,
      "where the ": 2269,
      "chea": 2270,
      "appro": 2271,
      "wife ": 2272,
      "particularly ": 2273,
      "atel": 2274,
      "remember ": 2275,
      "foc": 2276,
      "When ": 2277,
      "on this ": 2278,
      "get": 2279,
      "school ": 2280,
      "I thought ": 2281,
      "tow": 2282,
      "are the ": 2283,
      "moder": 2284,
      "doub": 2285,
      "characters": 2286,
      "fine ": 2287,
      "er is ": 2288,
      "oto": 2289,
      "O ": 2290,
      "e. S": 2291,
      "power": 2292,
      "think": 2293,
      "Jap": 2294,
      "played by ": 2295,
      "suff": 2296,
      "quality ": 2297,
      "a bad ": 2298,
      "In ": 2299,
      "ular ": 2300,
      "seems to ": 2301,
      "she is ": 2302,
      "z ": 2303,
      "Qu": 2304,
      "bel": 2305,
      "I would ": 2306,
      "ley ": 2307,
      "which": 2308,
      "rest of the ": 2309,
      "IL": 2310,
      "ST": 2311,
      "ots ": 2312,
      "ward": 2313,
      "terrible ": 2314,
      "mother ": 2315,
      "name ": 2316,
      "doing ": 2317,
      "music": 2318,
      "evil ": 2319,
      "seas": 2320,
      "fair": 2321,
      "decent ": 2322,
      " that the ": 2323,
      "dest": 2324,
      "ould": 2325,
      "0s ": 2326,
      "fic": 2327,
      "like this ": 2328,
      "hard to ": 2329,
      "El": 2330,
      "a cou": 2331,
      "Willi": 2332,
      "la": 2333,
      "s. I ": 2334,
      "wouldn't ": 2335,
      "es. The ": 2336,
      "OR": 2337,
      "G ": 2338,
      "t and ": 2339,
      "except ": 2340,
      "ident": 2341,
      "cinematograph": 2342,
      "(19": 2343,
      "ham": 2344,
      "dead ": 2345,
      "expect ": 2346,
      "an, ": 2347,
      "itself ": 2348,
      "\"D": 2349,
      "acks ": 2350,
      "whose ": 2351,
      "support": 2352,
      "lives ": 2353,
      "perfect": 2354,
      "! The ": 2355,
      "kids ": 2356,
      "beg": 2357,
      "k and ": 2358,
      "touch": 2359,
      "rit": 2360,
      "exist": 2361,
      "exact": 2362,
      "sat": 2363,
      "adul": 2364,
      "time, ": 2365,
      "Ni": 2366,
      "fut": 2367,
      "war ": 2368,
      "during the ": 2369,
      "gar": 2370,
      " this": 2371,
      "as well": 2372,
      "to watch": 2373,
      "usual ": 2374,
      "\"B": 2375,
      "ton ": 2376,
      "ity, ": 2377,
      "lim": 2378,
      "wee": 2379,
      "ner ": 2380,
      "sign": 2381,
      "clich": 2382,
      "theat": 2383,
      "bul": 2384,
      "small ": 2385,
      "zombi": 2386,
      "about a ": 2387,
      "mos": 2388,
      "\" is ": 2389,
      "ack of ": 2390,
      "los": 2391,
      "book": 2392,
      "after the ": 2393,
      "Gr": 2394,
      "cho": 2395,
      "ough the ": 2396,
      "highly ": 2397,
      "Sha": 2398,
      "win": 2399,
      " though ": 2400,
      "evis": 2401,
      "Geor": 2402,
      "ed a ": 2403,
      "he has ": 2404,
      "and his ": 2405,
      "chec": 2406,
      "ace ": 2407,
      "atten": 2408,
      "obviously ": 2409,
      "suspen": 2410,
      "led": 2411,
      "acros": 2412,
      "ove ": 2413,
      "did": 2414,
      "Mo": 2415,
      "mist": 2416,
      "ony ": 2417,
      "reci": 2418,
      "effect": 2419,
      "of them ": 2420,
      "fight ": 2421,
      "ver ": 2422,
      "loved ": 2423,
      "leave ": 2424,
      "episode ": 2425,
      "narr": 2426,
      "ers and ": 2427,
      "gam": 2428,
      "human": 2429,
      "unch ": 2430,
      "deta": 2431,
      "IM": 2432,
      "eed": 2433,
      ". So ": 2434,
      "dum": 2435,
      "photo": 2436,
      "Ro": 2437,
      "Not ": 2438,
      "boy ": 2439,
      ", or ": 2440,
      "pic": 2441,
      "out of the ": 2442,
      "Robert ": 2443,
      "u ": 2444,
      "hour ": 2445,
      "ing in ": 2446,
      "father": 2447,
      "told ": 2448,
      "rely ": 2449,
      "ellig": 2450,
      "Mon": 2451,
      "tion of ": 2452,
      "tries to ": 2453,
      "EN": 2454,
      "somewhat ": 2455,
      "most of the ": 2456,
      "white ": 2457,
      "exactly ": 2458,
      "itive ": 2459,
      "continu": 2460,
      "despite ": 2461,
      "ker ": 2462,
      ". His ": 2463,
      "cost": 2464,
      "filmmak": 2465,
      "such as ": 2466,
      "arti": 2467,
      "obvious ": 2468,
      ") is ": 2469,
      "usually ": 2470,
      "together": 2471,
      "necess": 2472,
      "thought ": 2473,
      "best": 2474,
      "ash ": 2475,
      "ail": 2476,
      "lan": 2477,
      "took ": 2478,
      "rest": 2479,
      "ee": 2480,
      " this film ": 2481,
      "James ": 2482,
      "acting": 2483,
      ", but it ": 2484,
      "wrong ": 2485,
      "* ": 2486,
      "try to ": 2487,
      "wrong": 2488,
      "romant": 2489,
      "del": 2490,
      "rent ": 2491,
      "lie ": 2492,
      "do not ": 2493,
      ". One ": 2494,
      "midd": 2495,
      "\"H": 2496,
      "ses ": 2497,
      "sist": 2498,
      "mean ": 2499,
      ". When ": 2500,
      "picture": 2501,
      "late ": 2502,
      "atmos": 2503,
      "awful ": 2504,
      "strong ": 2505,
      "save ": 2506,
      "brea": 2507,
      "question": 2508,
      "pot": 2509,
      "ur ": 2510,
      "but the ": 2511,
      "ger ": 2512,
      "contr": 2513,
      "past ": 2514,
      ", you ": 2515,
      "red": 2516,
      "urb": 2517,
      "well-": 2518,
      "For": 2519,
      "vol": 2520,
      ". Y": 2521,
      "story, ": 2522,
      "nic": 2523,
      "pass": 2524,
      "ers, ": 2525,
      "complete ": 2526,
      "ship": 2527,
      "intellig": 2528,
      "a big ": 2529,
      "there's ": 2530,
      "in an ": 2531,
      "mas": 2532,
      "creat": 2533,
      "ones ": 2534,
      "is just ": 2535,
      "sometimes ": 2536,
      "selves ": 2537,
      "air ": 2538,
      "iv": 2539,
      "people who ": 2540,
      "to have ": 2541,
      "for his ": 2542,
      "this one ": 2543,
      "****": 2544,
      "characters are ": 2545,
      "televis": 2546,
      "fan ": 2547,
      "whe": 2548,
      "ghts ": 2549,
      "success": 2550,
      "group ": 2551,
      "8 ": 2552,
      "it.": 2553,
      "Per": 2554,
      "hun": 2555,
      "present": 2556,
      "child": 2557,
      "Wor": 2558,
      "ani": 2559,
      "ever seen": 2560,
      "valu": 2561,
      "dul": 2562,
      "experienc": 2563,
      "close ": 2564,
      "face ": 2565,
      "har": 2566,
      "ky ": 2567,
      "shoo": 2568,
      "y, and ": 2569,
      "ang ": 2570,
      "come": 2571,
      "sense ": 2572,
      "a th": 2573,
      "s in the ": 2574,
      "and I ": 2575,
      "que ": 2576,
      "Ac": 2577,
      "taken ": 2578,
      "Ed": 2579,
      "ub": 2580,
      "to watch ": 2581,
      "ed as ": 2582,
      "appreci": 2583,
      "town ": 2584,
      "chas": 2585,
      "ic and ": 2586,
      "finds ": 2587,
      "number ": 2588,
      "Dis": 2589,
      "One ": 2590,
      "ean ": 2591,
      "pret": 2592,
      "here": 2593,
      "s with ": 2594,
      "between the ": 2595,
      "perhaps ": 2596,
      "ming ": 2597,
      "Mat": 2598,
      "wood": 2599,
      "when he ": 2600,
      "heard ": 2601,
      "Bar": 2602,
      "escap": 2603,
      "enjoyed ": 2604,
      "DVD": 2605,
      "David ": 2606,
      "times": 2607,
      "humor": 2608,
      "War": 2609,
      "s)": 2610,
      "ing his ": 2611,
      "slow": 2612,
      "ger": 2613,
      "ude ": 2614,
      "uses ": 2615,
      "wanted to ": 2616,
      "cut ": 2617,
      "heart": 2618,
      "could be ": 2619,
      "unn": 2620,
      "stri": 2621,
      "the same ": 2622,
      "Yor": 2623,
      ", but I ": 2624,
      "iter": 2625,
      "but": 2626,
      "flick": 2627,
      "Wal": 2628,
      "soon ": 2629,
      "rather": 2630,
      "s. S": 2631,
      "comment": 2632,
      "'t": 2633,
      "s for ": 2634,
      "al and ": 2635,
      "movie that ": 2636,
      "Pau": 2637,
      "land ": 2638,
      "side": 2639,
      "twist": 2640,
      "about this ": 2641,
      "moments ": 2642,
      "deliver": 2643,
      "materi": 2644,
      "Com": 2645,
      "Man": 2646,
      "parts ": 2647,
      "they were ": 2648,
      "remember": 2649,
      "eal": 2650,
      "aren't ": 2651,
      "prot": 2652,
      "draw": 2653,
      "ific": 2654,
      "difficul": 2655,
      "children ": 2656,
      "!! ": 2657,
      "lar": 2658,
      "dies ": 2659,
      "trans": 2660,
      "is so ": 2661,
      "taking ": 2662,
      " then ": 2663,
      "huge ": 2664,
      "through the ": 2665,
      "mostly ": 2666,
      "British ": 2667,
      "law": 2668,
      "eless ": 2669,
      "shown ": 2670,
      "roduc": 2671,
      "Unfortun": 2672,
      "just": 2673,
      "ess, ": 2674,
      "whil": 2675,
      "death": 2676,
      "sear": 2677,
      "if the ": 2678,
      "y the ": 2679,
      "is very ": 2680,
      "today": 2681,
      "ema": 2682,
      "turned ": 2683,
      "run ": 2684,
      "performances ": 2685,
      "half": 2686,
      "ing.": 2687,
      "explo": 2688,
      "Lu": 2689,
      "ince ": 2690,
      "ertain ": 2691,
      "secre": 2692,
      "sle": 2693,
      "not the ": 2694,
      "OU": 2695,
      "dam": 2696,
      "s as ": 2697,
      "could have been ": 2698,
      "worse ": 2699,
      "dro": 2700,
      "to re": 2701,
      "Japan": 2702,
      "get the ": 2703,
      ", so ": 2704,
      "talking ": 2705,
      "aver": 2706,
      "per ": 2707,
      "err": 2708,
      "previ": 2709,
      "scenes": 2710,
      "uck ": 2711,
      "Bur": 2712,
      "ign": 2713,
      "opening ": 2714,
      ". There's ": 2715,
      "fight": 2716,
      "'ll ": 2717,
      "ive ": 2718,
      "irst ": 2719,
      "to be a ": 2720,
      "ground ": 2721,
      "supporting ": 2722,
      "adap": 2723,
      "version": 2724,
      "ba": 2725,
      "antas": 2726,
      "athet": 2727,
      "7 ": 2728,
      "order ": 2729,
      "me, ": 2730,
      ". All ": 2731,
      ". I was ": 2732,
      "ing thr": 2733,
      "For ": 2734,
      "to his ": 2735,
      "on his ": 2736,
      "publ": 2737,
      "an un": 2738,
      "word": 2739,
      "of these ": 2740,
      "major ": 2741,
      "o and ": 2742,
      "e of a ": 2743,
      "We ": 2744,
      "foot": 2745,
      "ary": 2746,
      "see the ": 2747,
      "voic": 2748,
      "when they ": 2749,
      "about": 2750,
      "what the ": 2751,
      "flaw": 2752,
      "modern ": 2753,
      "), and ": 2754,
      "ed for ": 2755,
      "I saw": 2756,
      "look": 2757,
      "one of the most ": 2758,
      "attr": 2759,
      "f cour": 2760,
      "wonder ": 2761,
      "polit": 2762,
      "I think": 2763,
      "bit": 2764,
      "const": 2765,
      "critic": 2766,
      "?<br /><br />": 2767,
      ". After ": 2768,
      "ept": 2769,
      "viewer ": 2770,
      "of the movie ": 2771,
      "important ": 2772,
      "s who ": 2773,
      "will": 2774,
      "bey": 2775,
      "aybe ": 2776,
      "direction ": 2777,
      "6 ": 2778,
      "aur": 2779,
      "a is ": 2780,
      "short": 2781,
      "had a ": 2782,
      "easily ": 2783,
      "comedy": 2784,
      "myself ": 2785,
      "Harr": 2786,
      "with her ": 2787,
      "based ": 2788,
      "put": 2789,
      "ses": 2790,
      "ext": 2791,
      "awful": 2792,
      "plan": 2793,
      "you are ": 2794,
      "would have been ": 2795,
      "because the ": 2796,
      "ject": 2797,
      "trou": 2798,
      "creep": 2799,
      "supposed to be ": 2800,
      "clearly ": 2801,
      "start": 2802,
      "ven't ": 2803,
      "musical ": 2804,
      "Richard ": 2805,
      ".<br /><br />It ": 2806,
      "dream": 2807,
      "Ju": 2808,
      "sexual ": 2809,
      "chees": 2810,
      "Har": 2811,
      ". For ": 2812,
      "batt": 2813,
      "actual ": 2814,
      "This is ": 2815,
      "Bro": 2816,
      "in which ": 2817,
      ".<br /><br />T": 2818,
      "ent, ": 2819,
      "watching this ": 2820,
      "named ": 2821,
      "dian ": 2822,
      "qual": 2823,
      ". This movie ": 2824,
      "Pe": 2825,
      "Pet": 2826,
      "cat": 2827,
      "zy ": 2828,
      "issu": 2829,
      "set": 2830,
      "too much ": 2831,
      "enough": 2832,
      "eigh": 2833,
      "child ": 2834,
      "running ": 2835,
      "relationship ": 2836,
      "cliché": 2837,
      "bin": 2838,
      "bers ": 2839,
      "mag": 2840,
      "that I ": 2841,
      "very": 2842,
      "ational ": 2843,
      "ench ": 2844,
      ". K": 2845,
      "in her ": 2846,
      "moment ": 2847,
      "auth": 2848,
      "On": 2849,
      "one. ": 2850,
      "away": 2851,
      "kill ": 2852,
      "atr": 2853,
      "non-": 2854,
      "Pr": 2855,
      "ball ": 2856,
      "living ": 2857,
      "nearly ": 2858,
      "at all ": 2859,
      "jum": 2860,
      "chance ": 2861,
      "Gu": 2862,
      "a (": 2863,
      "stop ": 2864,
      "it has ": 2865,
      "let": 2866,
      "story of ": 2867,
      "up the ": 2868,
      "I'll ": 2869,
      "hope ": 2870,
      "Jack": 2871,
      "re-": 2872,
      "haven't ": 2873,
      "self-": 2874,
      "learn": 2875,
      "sem": 2876,
      "comic ": 2877,
      "s) ": 2878,
      "imp": 2879,
      "she was ": 2880,
      "kind": 2881,
      "New Yor": 2882,
      "involv": 2883,
      "quick": 2884,
      "killer ": 2885,
      "norm": 2886,
      "track ": 2887,
      "exampl": 2888,
      "word ": 2889,
      "horrible ": 2890,
      "bloo": 2891,
      "you will ": 2892,
      "laugh ": 2893,
      "similar ": 2894,
      "hit ": 2895,
      "interest ": 2896,
      "amazing ": 2897,
      "kid ": 2898,
      "off the ": 2899,
      "room ": 2900,
      "ished ": 2901,
      "famous ": 2902,
      "fall ": 2903,
      "rated ": 2904,
      "under ": 2905,
      "ativ": 2906,
      "should have ": 2907,
      "matter ": 2908,
      "sad": 2909,
      "st-": 2910,
      ". To ": 2911,
      "humor ": 2912,
      "an's ": 2913,
      "descri": 2914,
      "English ": 2915,
      "flu": 2916,
      "police ": 2917,
      "mel": 2918,
      "ated": 2919,
      ". In the ": 2920,
      "ah": 2921,
      "e) ": 2922,
      "!!!!": 2923,
      "beginning ": 2924,
      "stupid": 2925,
      "carto": 2926,
      ". While ": 2927,
      "not a ": 2928,
      "premis": 2929,
      "Rus": 2930,
      "ous, ": 2931,
      "explain": 2932,
      "\"L": 2933,
      "kept ": 2934,
      "in that ": 2935,
      " things ": 2936,
      "ities ": 2937,
      "picture ": 2938,
      "beyond ": 2939,
      "anti": 2940,
      "else": 2941,
      "script": 2942,
      "way, ": 2943,
      "full of ": 2944,
      "have the ": 2945,
      "excep": 2946,
      "busin": 2947,
      ". On": 2948,
      "Fre": 2949,
      "o-": 2950,
      "swe": 2951,
      "s were ": 2952,
      "as he ": 2953,
      "working ": 2954,
      "typical ": 2955,
      "eve ": 2956,
      "lines ": 2957,
      "hy": 2958,
      "time. ": 2959,
      "enough to ": 2960,
      "room": 2961,
      "we are ": 2962,
      "avo": 2963,
      "ual": 2964,
      "got": 2965,
      "lack of ": 2966,
      "not only ": 2967,
      "Paul ": 2968,
      "with an ": 2969,
      "expres": 2970,
      "e and the ": 2971,
      "game ": 2972,
      "ial ": 2973,
      "effor": 2974,
      "\"C": 2975,
      "ty": 2976,
      "ed to the ": 2977,
      "brought ": 2978,
      "may be ": 2979,
      "fur": 2980,
      "ran": 2981,
      "ing their ": 2982,
      "spoil": 2983,
      "VER": 2984,
      "house": 2985,
      "Bra": 2986,
      "a film ": 2987,
      "shot": 2988,
      "seemed ": 2989,
      "). The ": 2990,
      "ring ": 2991,
      "horror": 2992,
      "advent": 2993,
      "car ": 2994,
      "reve": 2995,
      "who has ": 2996,
      "ester": 2997,
      "survi": 2998,
      "ential ": 2999,
      "ture ": 3000,
      "orr": 3001,
      "case ": 3002,
      "pped ": 3003,
      "at the end ": 3004,
      "??": 3005,
      "C ": 3006,
      "when I ": 3007,
      "ler ": 3008,
      "exec": 3009,
      "mer ": 3010,
      "are": 3011,
      "subt": 3012,
      "famili": 3013,
      "-f": 3014,
      "unfortun": 3015,
      ". My ": 3016,
      "romantic ": 3017,
      "F ": 3018,
      "wis": 3019,
      "stories ": 3020,
      "need to ": 3021,
      "provid": 3022,
      "techn": 3023,
      "of that ": 3024,
      "edit": 3025,
      "iller ": 3026,
      "because it ": 3027,
      "s is ": 3028,
      "it for ": 3029,
      "ose": 3030,
      "strug": 3031,
      "L ": 3032,
      "Ital": 3033,
      "ness": 3034,
      "icks ": 3035,
      "of the film": 3036,
      "not to ": 3037,
      "George ": 3038,
      "wi": 3039,
      "wit": 3040,
      "when it ": 3041,
      "five ": 3042,
      "ering ": 3043,
      "ultim": 3044,
      "earli": 3045,
      "lad": 3046,
      "need ": 3047,
      " than the ": 3048,
      "cau": 3049,
      "female ": 3050,
      "erg": 3051,
      ", is ": 3052,
      ", with ": 3053,
      "alone ": 3054,
      "ing is ": 3055,
      "daughter ": 3056,
      "liter": 3057,
      "myster": 3058,
      "den": 3059,
      "series": 3060,
      "dark ": 3061,
      "oper": 3062,
      "pun": 3063,
      "understand": 3064,
      "one of those ": 3065,
      "able and ": 3066,
      "myst": 3067,
      "God": 3068,
      "original": 3069,
      "sequence ": 3070,
      "Cor": 3071,
      "stay ": 3072,
      "sudd": 3073,
      "All": 3074,
      "\"M": 3075,
      "\"P": 3076,
      "also": 3077,
      "form ": 3078,
      "friends ": 3079,
      "special effects ": 3080,
      "utter": 3081,
      "entertaining ": 3082,
      "the best ": 3083,
      "greatest ": 3084,
      "an in": 3085,
      "sets ": 3086,
      "ements ": 3087,
      "not be ": 3088,
      "four ": 3089,
      "ons ": 3090,
      "owing ": 3091,
      "local ": 3092,
      "amoun": 3093,
      "it's a ": 3094,
      "This movie ": 3095,
      "Fil": 3096,
      "movie.": 3097,
      "middle ": 3098,
      "'d ": 3099,
      "unch of ": 3100,
      "Jack ": 3101,
      "Vi": 3102,
      "ired ": 3103,
      "remain": 3104,
      "tran": 3105,
      "ation, ": 3106,
      "himself": 3107,
      "experience ": 3108,
      "detail": 3109,
      "ing.<br /><br />": 3110,
      "became ": 3111,
      "however, ": 3112,
      "feels ": 3113,
      "jokes ": 3114,
      "eg": 3115,
      "emb": 3116,
      "either": 3117,
      "fantast": 3118,
      "sn": 3119,
      "ves": 3120,
      "film was ": 3121,
      ", and I ": 3122,
      "ax": 3123,
      "ability ": 3124,
      "that it ": 3125,
      "concl": 3126,
      ", though ": 3127,
      "studi": 3128,
      "photograph": 3129,
      "bri": 3130,
      "fig": 3131,
      "fill": 3132,
      "acting, ": 3133,
      "happy ": 3134,
      "to find ": 3135,
      "possibly ": 3136,
      "heav": 3137,
      "s: ": 3138,
      "zz": 3139,
      "ogn": 3140,
      "a couple of ": 3141,
      "artist": 3142,
      "\"T": 3143,
      "it's not ": 3144,
      "writer ": 3145,
      "documentary ": 3146,
      "ent and ": 3147,
      "clos": 3148,
      "While ": 3149,
      "genre": 3150,
      "says ": 3151,
      "Mov": 3152,
      "if they ": 3153,
      "Ex": 3154,
      "hand ": 3155,
      "t the ": 3156,
      "John": 3157,
      "en's ": 3158,
      "slow ": 3159,
      ".<br /><br />If ": 3160,
      "basically ": 3161,
      "PO": 3162,
      "voice ": 3163,
      "e: ": 3164,
      "os ": 3165,
      "I could ": 3166,
      "proc": 3167,
      "claim": 3168,
      "opinion": 3169,
      "jud": 3170,
      "ate the ": 3171,
      "waste ": 3172,
      "ram": 3173,
      "but it ": 3174,
      "beginn": 3175,
      "Eur": 3176,
      " though": 3177,
      "top": 3178,
      "9 ": 3179,
      "lot ": 3180,
      "ore ": 3181,
      "exper": 3182,
      "flash": 3183,
      "fans ": 3184,
      "tern": 3185,
      "up and ": 3186,
      "wil": 3187,
      "brilliant ": 3188,
      "cheap ": 3189,
      "I didn't ": 3190,
      "histor": 3191,
      "eph": 3192,
      "ed by a ": 3193,
      "simple ": 3194,
      "classic": 3195,
      "IMD": 3196,
      "ies": 3197,
      "shar": 3198,
      "rag": 3199,
      "started ": 3200,
      "better than ": 3201,
      "novel": 3202,
      ".) ": 3203,
      "Cha": 3204,
      "Gen": 3205,
      "ous and ": 3206,
      "tional ": 3207,
      "hero ": 3208,
      "a long ": 3209,
      "there is ": 3210,
      "? The ": 3211,
      "introduc": 3212,
      "Mari": 3213,
      "ny ": 3214,
      "na ": 3215,
      "ered ": 3216,
      "ana": 3217,
      "knew ": 3218,
      "stars ": 3219,
      "happen ": 3220,
      "I've seen ": 3221,
      "husband ": 3222,
      "ho": 3223,
      "part of the ": 3224,
      "societ": 3225,
      "made me ": 3226,
      "instead of ": 3227,
      "AT": 3228,
      "Nor": 3229,
      "up to ": 3230,
      "waste of ": 3231,
      "stuff ": 3232,
      "rather than ": 3233,
      "-th": 3234,
      "LO": 3235,
      "Tim": 3236,
      "ong the ": 3237,
      "the most ": 3238,
      "even the ": 3239,
      "deal": 3240,
      "dead": 3241,
      "man's ": 3242,
      "murder ": 3243,
      "ens": 3244,
      "costum": 3245,
      "0'": 3246,
      "wear": 3247,
      ".<br /><br />Th": 3248,
      "\" (": 3249,
      "leaves ": 3250,
      "imag": 3251,
      "sense of ": 3252,
      "e)": 3253,
      "who's ": 3254,
      "by a ": 3255,
      "violence ": 3256,
      "ters ": 3257,
      "had to ": 3258,
      "meets ": 3259,
      "drama": 3260,
      ". However, ": 3261,
      "Japanese ": 3262,
      "sit ": 3263,
      "ven the ": 3264,
      "giving ": 3265,
      "production": 3266,
      "cinema": 3267,
      "then": 3268,
      "inde": 3269,
      "197": 3270,
      "ortun": 3271,
      "yourself ": 3272,
      "what is ": 3273,
      "plot is ": 3274,
      "equ": 3275,
      "gri": 3276,
      "boring ": 3277,
      "of course ": 3278,
      "; the ": 3279,
      "stere": 3280,
      "igh": 3281,
      "ink": 3282,
      "part of ": 3283,
      "pas": 3284,
      "said": 3285,
      "honest": 3286,
      "Peter ": 3287,
      "Co": 3288,
      "was not ": 3289,
      "recogn": 3290,
      "trad": 3291,
      ". No ": 3292,
      "might be ": 3293,
      "seems to be ": 3294,
      "fol": 3295,
      "fantas": 3296,
      "had been ": 3297,
      "dres": 3298,
      "ards ": 3299,
      "rob": 3300,
      "how the ": 3301,
      "including ": 3302,
      "dly ": 3303,
      "scar ": 3304,
      "until": 3305,
      ". Some ": 3306,
      "reality ": 3307,
      "one of the best ": 3308,
      "s-": 3309,
      "strong": 3310,
      "serv": 3311,
      "apparently ": 3312,
      "Gra": 3313,
      "Sch": 3314,
      "symp": 3315,
      "gest ": 3316,
      "hav": 3317,
      "time and ": 3318,
      "Why ": 3319,
      ". Also": 3320,
      "read the ": 3321,
      "poorly ": 3322,
      "hate ": 3323,
      "of her ": 3324,
      "just a ": 3325,
      "a seri": 3326,
      "years ag": 3327,
      "dialogue ": 3328,
      ".<br /><br />B": 3329,
      "dance ": 3330,
      "oo ": 3331,
      "rup": 3332,
      "er to ": 3333,
      "usion": 3334,
      "ph ": 3335,
      "you've ": 3336,
      "strange ": 3337,
      "dy": 3338,
      "forward ": 3339,
      "as well as ": 3340,
      "wise ": 3341,
      "I found ": 3342,
      "are not ": 3343,
      ". That's ": 3344,
      "ground": 3345,
      "achi": 3346,
      "straight ": 3347,
      "on's ": 3348,
      "outh ": 3349,
      ". I don't ": 3350,
      "because of ": 3351,
      "masterpiec": 3352,
      "one's ": 3353,
      "in and ": 3354,
      "deal ": 3355,
      "ex ": 3356,
      "film and ": 3357,
      "soldi": 3358,
      "French ": 3359,
      "sad ": 3360,
      ". The only ": 3361,
      "say that ": 3362,
      "brother ": 3363,
      "events ": 3364,
      "deep": 3365,
      "write ": 3366,
      "commun": 3367,
      "lots of ": 3368,
      "ask ": 3369,
      "o's ": 3370,
      "add ": 3371,
      "occas": 3372,
      "wish ": 3373,
      "s on ": 3374,
      "- the ": 3375,
      "bal": 3376,
      "bab": 3377,
      "! I ": 3378,
      "appear ": 3379,
      "previous ": 3380,
      "nor ": 3381,
      "198": 3382,
      "excit": 3383,
      "IS ": 3384,
      "sy ": 3385,
      "back to ": 3386,
      "spect": 3387,
      "otyp": 3388,
      "How ": 3389,
      "pil": 3390,
      "slight": 3391,
      ", this is ": 3392,
      "innoc": 3393,
      "disturb": 3394,
      "satis": 3395,
      "as they ": 3396,
      "compet": 3397,
      "villain": 3398,
      "with some ": 3399,
      ". The film ": 3400,
      "sense": 3401,
      "minutes": 3402,
      "each other ": 3403,
      "respon": 3404,
      "!\" ": 3405,
      "20 ": 3406,
      "Dr": 3407,
      "ange": 3408,
      "Ear": 3409,
      "Ir": 3410,
      "M ": 3411,
      "ean": 3412,
      "ld ": 3413,
      "le, ": 3414,
      "itting ": 3415,
      "way to ": 3416,
      "level": 3417,
      "attention ": 3418,
      "one-": 3419,
      "Stre": 3420,
      "bring ": 3421,
      "bod": 3422,
      "key ": 3423,
      "in the first ": 3424,
      "blood ": 3425,
      "a sm": 3426,
      " through ": 3427,
      "school": 3428,
      "television ": 3429,
      "talk ": 3430,
      "teach": 3431,
      "jour": 3432,
      "nud": 3433,
      "s and the ": 3434,
      "NOT ": 3435,
      ". This is a ": 3436,
      "stuff": 3437,
      "Oscar ": 3438,
      "hold ": 3439,
      "plent": 3440,
      ". There is ": 3441,
      "discover": 3442,
      "stereotyp": 3443,
      "rigu": 3444,
      "...<br /><br />": 3445,
      "meant ": 3446,
      "heart ": 3447,
      "Just ": 3448,
      "y\" ": 3449,
      "fairly ": 3450,
      "Europ": 3451,
      "US": 3452,
      "various ": 3453,
      "Wil": 3454,
      "inf": 3455,
      "rais": 3456,
      "stry ": 3457,
      "phys": 3458,
      "chem": 3459,
      "make": 3460,
      "gres": 3461,
      "change ": 3462,
      "No ": 3463,
      "empl": 3464,
      "likely ": 3465,
      "Ha": 3466,
      "revol": 3467,
      "agree ": 3468,
      ". Then ": 3469,
      "killed ": 3470,
      "seem to ": 3471,
      "Du": 3472,
      "gha": 3473,
      "minute ": 3474,
      "Em": 3475,
      "they're ": 3476,
      "in S": 3477,
      "flick ": 3478,
      "incredibly ": 3479,
      "first": 3480,
      "adapt": 3481,
      "a B": 3482,
      "stal": 3483,
      "contain": 3484,
      "history ": 3485,
      "mach": 3486,
      "Direc": 3487,
      "as I ": 3488,
      "ook ": 3489,
      "neg": 3490,
      "in this movie ": 3491,
      "figure ": 3492,
      "As ": 3493,
      "song ": 3494,
      "wish": 3495,
      "arm": 3496,
      "itself": 3497,
      "emotional ": 3498,
      "call ": 3499,
      "a S": 3500,
      "ing for ": 3501,
      "tells ": 3502,
      "s? ": 3503,
      "cinema ": 3504,
      "even though ": 3505,
      "drama ": 3506,
      "Bri": 3507,
      "wro": 3508,
      "scary ": 3509,
      "ed, and ": 3510,
      "embarr": 3511,
      "out of 10": 3512,
      "able, ": 3513,
      "eventually ": 3514,
      "hot": 3515,
      "gest": 3516,
      "much more ": 3517,
      "desper": 3518,
      "ah ": 3519,
      "and it ": 3520,
      "of all ": 3521,
      "herself ": 3522,
      "religi": 3523,
      "in-": 3524,
      "used to ": 3525,
      "otic ": 3526,
      "! ! ": 3527,
      "direction": 3528,
      "involved ": 3529,
      ": the ": 3530,
      "there": 3531,
      "fiel": 3532,
      "know what ": 3533,
      "writing ": 3534,
      "treat": 3535,
      "happens ": 3536,
      "personal ": 3537,
      "There are ": 3538,
      "Don": 3539,
      "Mac": 3540,
      ". St": 3541,
      "novel ": 3542,
      "First ": 3543,
      "Gi": 3544,
      "een ": 3545,
      "agon": 3546,
      "spec": 3547,
      "fast ": 3548,
      "dramatic ": 3549,
      "Or": 3550,
      "gone ": 3551,
      "knows ": 3552,
      "mix": 3553,
      "watch it ": 3554,
      "langu": 3555,
      "Er": 3556,
      "milli": 3557,
      "<br /><br />The ": 3558,
      " that is ": 3559,
      "believable ": 3560,
      "near": 3561,
      "you have ": 3562,
      "sequel": 3563,
      "feature ": 3564,
      "group of ": 3565,
      "ung": 3566,
      "shots ": 3567,
      "meet ": 3568,
      "talent": 3569,
      "consist": 3570,
      "hur": 3571,
      "I can't ": 3572,
      "here, ": 3573,
      "hilarious ": 3574,
      "rent": 3575,
      "in the film ": 3576,
      "ity and ": 3577,
      "man who ": 3578,
      "cir": 3579,
      "ire": 3580,
      "ator ": 3581,
      "ed. The ": 3582,
      "in the movie ": 3583,
      "money": 3584,
      "guys ": 3585,
      "Jer": 3586,
      "vil": 3587,
      "ade ": 3588,
      "films, ": 3589,
      "up with ": 3590,
      "if it ": 3591,
      "in this film": 3592,
      "promis": 3593,
      "Pl": 3594,
      "gang": 3595,
      "ench": 3596,
      "to their ": 3597,
      "ignor": 3598,
      "This is a ": 3599,
      "present ": 3600,
      "CH": 3601,
      "a-": 3602,
      "ed me ": 3603,
      "trage": 3604,
      ". Even ": 3605,
      "doubt ": 3606,
      "fic ": 3607,
      "ession": 3608,
      "accur": 3609,
      "hardly ": 3610,
      "tu": 3611,
      "genre ": 3612,
      "animation ": 3613,
      "spl": 3614,
      "buy ": 3615,
      "invest": 3616,
      "pit": 3617,
      "es a ": 3618,
      "worked ": 3619,
      "overall ": 3620,
      "Franc": 3621,
      "hell ": 3622,
      "as much ": 3623,
      "I just ": 3624,
      "no one ": 3625,
      "comments ": 3626,
      "feeling ": 3627,
      "silly ": 3628,
      "situation": 3629,
      "she": 3630,
      "subject ": 3631,
      "whether ": 3632,
      "Don't ": 3633,
      "dang": 3634,
      "s it ": 3635,
      "whom ": 3636,
      "rate ": 3637,
      "make it ": 3638,
      "destro": 3639,
      "y, the ": 3640,
      "d and ": 3641,
      "his own ": 3642,
      ". Its ": 3643,
      "particular ": 3644,
      "occasion": 3645,
      "ing, but ": 3646,
      "in its ": 3647,
      "man, ": 3648,
      "crap": 3649,
      "level ": 3650,
      "ately, ": 3651,
      "Ma": 3652,
      "er (": 3653,
      "an and ": 3654,
      "s\"": 3655,
      "has": 3656,
      "agu": 3657,
      "political ": 3658,
      "idi": 3659,
      "town": 3660,
      "e (": 3661,
      "repe": 3662,
      "it is a ": 3663,
      "I'm not ": 3664,
      "during ": 3665,
      "attempts ": 3666,
      "total ": 3667,
      "pay ": 3668,
      "inform": 3669,
      "remin": 3670,
      ". These ": 3671,
      "ously": 3672,
      "underst": 3673,
      "somehow ": 3674,
      "serious ": 3675,
      ". And the ": 3676,
      " that's ": 3677,
      "very good ": 3678,
      ".<br /><br />It's ": 3679,
      "mysteri": 3680,
      "\"F": 3681,
      "Ad": 3682,
      "review ": 3683,
      "omb": 3684,
      "a bunch of ": 3685,
      "talent ": 3686,
      "viewers ": 3687,
      "daughter": 3688,
      "realistic ": 3689,
      "OK": 3690,
      "erous ": 3691,
      "about it": 3692,
      "intrigu": 3693,
      "ation of the ": 3694,
      "offic": 3695,
      "around the ": 3696,
      "for some ": 3697,
      "class ": 3698,
      "soli": 3699,
      "points ": 3700,
      "looks like ": 3701,
      "Scot": 3702,
      "I really ": 3703,
      "this was ": 3704,
      "ett": 3705,
      "recei": 3706,
      "simpl": 3707,
      "-the-": 3708,
      "Sm": 3709,
      " three ": 3710,
      "es of the ": 3711,
      "expected ": 3712,
      "Mil": 3713,
      "Tom ": 3714,
      " is ": 3715,
      "Dar": 3716,
      "arri": 3717,
      "ask": 3718,
      "contri": 3719,
      "message ": 3720,
      "bir": 3721,
      "nob": 3722,
      "det": 3723,
      "all that ": 3724,
      "immedi": 3725,
      "my favorite ": 3726,
      "ing them ": 3727,
      "et, ": 3728,
      "- and ": 3729,
      "when you ": 3730,
      "refer": 3731,
      "row": 3732,
      "rich ": 3733,
      "this film": 3734,
      "create ": 3735,
      "must be ": 3736,
      "type of ": 3737,
      "average ": 3738,
      "pay": 3739,
      "y. The ": 3740,
      "plain ": 3741,
      "ING ": 3742,
      "-up ": 3743,
      "don": 3744,
      "h, ": 3745,
      "ical": 3746,
      "anyway": 3747,
      "a fan ": 3748,
      "199": 3749,
      "ordin": 3750,
      "fashi": 3751,
      "Pal": 3752,
      "around": 3753,
      "extr": 3754,
      "tak": 3755,
      "has the ": 3756,
      "terrible": 3757,
      "supposed to ": 3758,
      ". Just ": 3759,
      "begin ": 3760,
      "combin": 3761,
      "ed.": 3762,
      "Chin": 3763,
      "ridiculous ": 3764,
      "William ": 3765,
      "ror": 3766,
      "figu": 3767,
      "Vict": 3768,
      "ma ": 3769,
      "round": 3770,
      "ustr": 3771,
      "unless ": 3772,
      "augha": 3773,
      "e. But ": 3774,
      "brings ": 3775,
      "geni": 3776,
      "notic": 3777,
      "Disney ": 3778,
      "male ": 3779,
      "stage ": 3780,
      "stick ": 3781,
      "Ang": 3782,
      "characters, ": 3783,
      "leading ": 3784,
      "victim": 3785,
      "Luc": 3786,
      "indi": 3787,
      "move ": 3788,
      "usi": 3789,
      "acting was ": 3790,
      ".<br /><br />In ": 3791,
      "team ": 3792,
      "decided to ": 3793,
      "Wat": 3794,
      "stun": 3795,
      "woman": 3796,
      "embarrass": 3797,
      "\"R": 3798,
      "insp": 3799,
      "to go ": 3800,
      "that he ": 3801,
      "had the ": 3802,
      "Joe ": 3803,
      "girls ": 3804,
      "collec": 3805,
      "stay": 3806,
      "learn ": 3807,
      "year old ": 3808,
      "ight": 3809,
      "es (": 3810,
      "ance, ": 3811,
      "funni": 3812,
      ", there's ": 3813,
      "version of ": 3814,
      "what's ": 3815,
      "!) ": 3816,
      "ry": 3817,
      "the first ": 3818,
      "I saw ": 3819,
      "ending": 3820,
      "color": 3821,
      "er of ": 3822,
      "this movie": 3823,
      "phere ": 3824,
      "in order ": 3825,
      "watch this ": 3826,
      "comment ": 3827,
      "LE": 3828,
      "cool ": 3829,
      "ord ": 3830,
      " this is ": 3831,
      "195": 3832,
      "of them": 3833,
      "deserves ": 3834,
      "tly ": 3835,
      "ret": 3836,
      "ele": 3837,
      "all of the ": 3838,
      "s. But ": 3839,
      "!)": 3840,
      "ip": 3841,
      "fric": 3842,
      "attempt to ": 3843,
      "movies, ": 3844,
      "spent ": 3845,
      "e. H": 3846,
      "sible ": 3847,
      "appears ": 3848,
      "ik": 3849,
      "older ": 3850,
      "genu": 3851,
      "badly ": 3852,
      "ia ": 3853,
      "relea": 3854,
      "ing it ": 3855,
      "ing her ": 3856,
      "that are ": 3857,
      ".<br /><br />But ": 3858,
      "def": 3859,
      "believe that ": 3860,
      "writers ": 3861,
      "falls ": 3862,
      "atmosphere ": 3863,
      "e? ": 3864,
      "past": 3865,
      "ed up ": 3866,
      ", though": 3867,
      "Chr": 3868,
      "fascin": 3869,
      " there's ": 3870,
      "know that ": 3871,
      "reveal": 3872,
      "\"A": 3873,
      "(or ": 3874,
      "II": 3875,
      "ush": 3876,
      "each other": 3877,
      "lou": 3878,
      "trail": 3879,
      "beautiful": 3880,
      "apart": 3881,
      "n't": 3882,
      "illy ": 3883,
      "who are ": 3884,
      "charm": 3885,
      "iller": 3886,
      ". This film ": 3887,
      "enjoyable ": 3888,
      "opportun": 3889,
      "perfectly ": 3890,
      "ders ": 3891,
      "ed it ": 3892,
      "it. The ": 3893,
      "watching the ": 3894,
      "odd ": 3895,
      ". <br /><br />The ": 3896,
      "sudden": 3897,
      "reven": 3898,
      "moving ": 3899,
      "age of ": 3900,
      ", this movie ": 3901,
      "dialog ": 3902,
      "single ": 3903,
      "annoying ": 3904,
      "biggest ": 3905,
      "roll": 3906,
      "ung ": 3907,
      "capture": 3908,
      "caught ": 3909,
      ".S": 3910,
      "Ne": 3911,
      "ed out ": 3912,
      "pping ": 3913,
      "if you're ": 3914,
      "hear ": 3915,
      "colle": 3916,
      ". Unfortun": 3917,
      "in some ": 3918,
      "emy ": 3919,
      "eyes ": 3920,
      "tried to ": 3921,
      "actress ": 3922,
      ". However": 3923,
      "abu": 3924,
      "iness ": 3925,
      "with no ": 3926,
      "fore ": 3927,
      "recent ": 3928,
      "even more ": 3929,
      ", there are ": 3930,
      "quickly ": 3931,
      "mas ": 3932,
      "him to ": 3933,
      "Ra": 3934,
      "ution": 3935,
      "is also ": 3936,
      "bear": 3937,
      "ts and ": 3938,
      "spend ": 3939,
      "how to ": 3940,
      "cover": 3941,
      "y.": 3942,
      "above ": 3943,
      "for her ": 3944,
      "term": 3945,
      "any of the ": 3946,
      "idea": 3947,
      "compell": 3948,
      "Wood": 3949,
      "res ": 3950,
      "of an ": 3951,
      "ation and ": 3952,
      "look at ": 3953,
      "visual ": 3954,
      "crimin": 3955,
      "number of ": 3956,
      "?\" ": 3957,
      "remark": 3958,
      "sian ": 3959,
      "life, ": 3960,
      ", I was ": 3961,
      "entirely ": 3962,
      "well, ": 3963,
      "brother": 3964,
      "\"G": 3965,
      "pract": 3966,
      "at the same ": 3967,
      "match": 3968,
      "nothing to ": 3969,
      "sec": 3970,
      "hap": 3971,
      "some of ": 3972,
      "in the film": 3973,
      "umb": 3974,
      "chemi": 3975,
      "the only ": 3976,
      "close": 3977,
      "weird ": 3978,
      "pretty much ": 3979,
      ". Inste": 3980,
      "a L": 3981,
      "matter": 3982,
      ". I've ": 3983,
      "Afric": 3984,
      "chi": 3985,
      "films": 3986,
      "cloth": 3987,
      "depend": 3988,
      "keeps ": 3989,
      "admit ": 3990,
      "rand": 3991,
      "squ": 3992,
      ". V": 3993,
      "evil": 3994,
      "later": 3995,
      "break": 3996,
      "dull ": 3997,
      "mul": 3998,
      "to-": 3999,
      "all of ": 4000,
      "we have ": 4001,
      "themselves ": 4002,
      "wants to ": 4003,
      "From": 4004,
      "ins": 4005,
      "ics ": 4006,
      ". If": 4007,
      ", the film ": 4008,
      "disgu": 4009,
      "engag": 4010,
      "manages to ": 4011,
      "lam": 4012,
      "awes": 4013,
      " through": 4014,
      "week": 4015,
      "Mur": 4016,
      "wher": 4017,
      "overn": 4018,
      "Star ": 4019,
      "talented ": 4020,
      "concern": 4021,
      "powerful ": 4022,
      "future ": 4023,
      "a small ": 4024,
      "Man ": 4025,
      "Pol": 4026,
      "e\"": 4027,
      "mother": 4028,
      "wind": 4029,
      "thers ": 4030,
      "und": 4031,
      "ectiv": 4032,
      "who was ": 4033,
      "something": 4034,
      "ity of ": 4035,
      "make a ": 4036,
      "Stor": 4037,
      "though the ": 4038,
      "gotten ": 4039,
      "familiar ": 4040,
      "Fin": 4041,
      "ee ": 4042,
      "thre": 4043,
      "co-": 4044,
      "point of ": 4045,
      "former ": 4046,
      "aul": 4047,
      "esid": 4048,
      "amate": 4049,
      "ette ": 4050,
      "being a ": 4051,
      "ones": 4052,
      "the worst ": 4053,
      "deem": 4054,
      "deep ": 4055,
      "train": 4056,
      "193": 4057,
      "oppos": 4058,
      "popular ": 4059,
      "'The ": 4060,
      "pathet": 4061,
      "sal": 4062,
      "ing. I ": 4063,
      "movie and ": 4064,
      "ence, ": 4065,
      ". Any": 4066,
      "Mart": 4067,
      "memorable ": 4068,
      "weren't ": 4069,
      "natural ": 4070,
      "plenty of ": 4071,
      "Bat": 4072,
      "Fo": 4073,
      "King ": 4074,
      "fit ": 4075,
      ". I think ": 4076,
      "demon": 4077,
      "s. H": 4078,
      "Kar": 4079,
      "gn ": 4080,
      "ker": 4081,
      "I watched ": 4082,
      "here's ": 4083,
      ". Her ": 4084,
      "brut": 4085,
      "saying ": 4086,
      "LY ": 4087,
      "To ": 4088,
      "acking ": 4089,
      "elements ": 4090,
      "storylin": 4091,
      ". In fact": 4092,
      "episode": 4093,
      "profession": 4094,
      "until the ": 4095,
      "Ale": 4096,
      "Sim": 4097,
      "cle ": 4098,
      "indu": 4099,
      "chor": 4100,
      ". It is a ": 4101,
      "estern ": 4102,
      "ino ": 4103,
      "it. I ": 4104,
      "film-": 4105,
      "character, ": 4106,
      "when she ": 4107,
      "upon ": 4108,
      "positive ": 4109,
      "Gold": 4110,
      "from his ": 4111,
      "we see ": 4112,
      "standing ": 4113,
      "New York ": 4114,
      "Ru": 4115,
      "because of the ": 4116,
      "pet": 4117,
      "get a ": 4118,
      "sequel ": 4119,
      "screenplay ": 4120,
      "centr": 4121,
      "hood ": 4122,
      "y (": 4123,
      "es, but ": 4124,
      "was so ": 4125,
      "AT ": 4126,
      "IT": 4127,
      "Lou": 4128,
      "laugha": 4129,
      "yl": 4130,
      "30 ": 4131,
      "Hou": 4132,
      "Pre": 4133,
      "hot ": 4134,
      "stop": 4135,
      "es, the ": 4136,
      "ict ": 4137,
      "perform": 4138,
      "biz": 4139,
      "however ": 4140,
      "social ": 4141,
      "garb": 4142,
      "Cra": 4143,
      "War ": 4144,
      "en and ": 4145,
      "it all ": 4146,
      "with their ": 4147,
      "abl": 4148,
      "has no ": 4149,
      "very well ": 4150,
      "watch the ": 4151,
      "funny, ": 4152,
      "credits ": 4153,
      "milit": 4154,
      ").<br /><br />": 4155,
      "pure ": 4156,
      "ze ": 4157,
      ", not ": 4158,
      "sug": 4159,
      "hilari": 4160,
      "clear ": 4161,
      "achiev": 4162,
      "Mis": 4163,
      "gay ": 4164,
      "rating ": 4165,
      "entertainment ": 4166,
      "/10 ": 4167,
      "Dre": 4168,
      "ause ": 4169,
      "overs ": 4170,
      "ize ": 4171,
      "Christmas ": 4172,
      "battle ": 4173,
      "With ": 4174,
      "weak ": 4175,
      "Cap": 4176,
      "ed at ": 4177,
      "likes ": 4178,
      "for me ": 4179,
      "filmmakers ": 4180,
      "Rom": 4181,
      "ball": 4182,
      "ft": 4183,
      "ney": 4184,
      "recently ": 4185,
      "Her": 4186,
      "Lond": 4187,
      "smar": 4188,
      "ed with the ": 4189,
      "clu": 4190,
      "time to ": 4191,
      "movie. The ": 4192,
      "necessary ": 4193,
      "(as ": 4194,
      "neigh": 4195,
      "that was ": 4196,
      "story and ": 4197,
      "flo": 4198,
      "That ": 4199,
      "ER ": 4200,
      "sent ": 4201,
      "in, ": 4202,
      "ows ": 4203,
      "killing ": 4204,
      "want to see ": 4205,
      "intention": 4206,
      "successful ": 4207,
      "20": 4208,
      "Mad": 4209,
      "in any ": 4210,
      "improv": 4211,
      "Stew": 4212,
      "thinking ": 4213,
      ". Don't ": 4214,
      "fresh": 4215,
      "soundtrack ": 4216,
      "please ": 4217,
      "portrayal ": 4218,
      "AS": 4219,
      "sit": 4220,
      "use": 4221,
      "has to ": 4222,
      "over and ": 4223,
      "makers ": 4224,
      "waiting ": 4225,
      "attempt ": 4226,
      "Sun": 4227,
      "forget ": 4228,
      "what it ": 4229,
      "sorry ": 4230,
      "ian": 4231,
      "comes to ": 4232,
      "edly ": 4233,
      ". Well": 4234,
      "crap ": 4235,
      "check ": 4236,
      "slightly ": 4237,
      "met": 4238,
      "nomin": 4239,
      "for an ": 4240,
      "They ": 4241,
      "Lee ": 4242,
      "O'": 4243,
      "animated ": 4244,
      "German ": 4245,
      "ike ": 4246,
      "uri": 4247,
      "ink ": 4248,
      "or, ": 4249,
      "ance": 4250,
      "ideas ": 4251,
      "Italian ": 4252,
      "Dou": 4253,
      "anks ": 4254,
      "seen the ": 4255,
      "like": 4256,
      "grand": 4257,
      "teen ": 4258,
      "Arth": 4259,
      "barely ": 4260,
      "investig": 4261,
      "parents ": 4262,
      ". How ": 4263,
      ". It's a ": 4264,
      "before the ": 4265,
      "bought ": 4266,
      "tear": 4267,
      "seriously ": 4268,
      "scream": 4269,
      "suddenly ": 4270,
      "Cin": 4271,
      "es his ": 4272,
      "this is a ": 4273,
      "\" is a ": 4274,
      "it was a ": 4275,
      "slas": 4276,
      "espite ": 4277,
      "ength ": 4278,
      "Gar": 4279,
      "ck": 4280,
      "hang": 4281,
      "lab": 4282,
      "wed": 4283,
      "I will ": 4284,
      "allow ": 4285,
      "Any": 4286,
      "score ": 4287,
      "convincing ": 4288,
      "(which ": 4289,
      "gag": 4290,
      "for their ": 4291,
      "sister ": 4292,
      "depres": 4293,
      "design": 4294,
      "Hollywood": 4295,
      "fell": 4296,
      "ug ": 4297,
      "er-": 4298,
      "teenag": 4299,
      "ould've ": 4300,
      "Tr": 4301,
      "s! ": 4302,
      "y, but ": 4303,
      "open ": 4304,
      ". Maybe ": 4305,
      "scenes are ": 4306,
      "jok": 4307,
      "delight": 4308,
      "predictable ": 4309,
      "Pow": 4310,
      "Tar": 4311,
      "and is ": 4312,
      "common ": 4313,
      "neith": 4314,
      ". \"": 4315,
      "sembl": 4316,
      "fer": 4317,
      "s like ": 4318,
      "org": 4319,
      "absur": 4320,
      "drug": 4321,
      "popul": 4322,
      "Hen": 4323,
      "inside ": 4324,
      "conven": 4325,
      "track": 4326,
      "avail": 4327,
      "based on ": 4328,
      "type ": 4329,
      "utterly ": 4330,
      "My": 4331,
      "certain ": 4332,
      "era ": 4333,
      "so that ": 4334,
      "a sing": 4335,
      "too many ": 4336,
      "kind ": 4337,
      "makes it ": 4338,
      "while the ": 4339,
      "due ": 4340,
      "camp": 4341,
      "unique ": 4342,
      "avoid ": 4343,
      "ing with ": 4344,
      "worse": 4345,
      "Who ": 4346,
      "This movie is ": 4347,
      "196": 4348,
      "down the ": 4349,
      ")<br /><br />": 4350,
      "ek ": 4351,
      "govern": 4352,
      "beha": 4353,
      "sure": 4354,
      "episodes ": 4355,
      "Juli": 4356,
      "ina ": 4357,
      "inspir": 4358,
      "character is ": 4359,
      "glad ": 4360,
      "box": 4361,
      ". All": 4362,
      "background ": 4363,
      "favour": 4364,
      "No": 4365,
      "OF ": 4366,
      "icated ": 4367,
      ". The movie ": 4368,
      "ized ": 4369,
      "due to ": 4370,
      "throughout the ": 4371,
      "superb ": 4372,
      "season": 4373,
      "search ": 4374,
      "POIL": 4375,
      "mir": 4376,
      "int ": 4377,
      "es.": 4378,
      "one is ": 4379,
      "confl": 4380,
      "from this ": 4381,
      "dog": 4382,
      "desc": 4383,
      "low-": 4384,
      "earlier ": 4385,
      "amount of ": 4386,
      "', ": 4387,
      "Ham": 4388,
      "doll": 4389,
      "upp": 4390,
      "erci": 4391,
      "ana ": 4392,
      "and then ": 4393,
      "ess. ": 4394,
      "ison ": 4395,
      ", this film ": 4396,
      "members ": 4397,
      "movie, but ": 4398,
      "question ": 4399,
      "15 ": 4400,
      "?) ": 4401,
      "both": 4402,
      "catch": 4403,
      "as good ": 4404,
      "es' ": 4405,
      "in love ": 4406,
      ".<br /><br />A ": 4407,
      "shock": 4408,
      "finish": 4409,
      "showing ": 4410,
      "good, ": 4411,
      "US ": 4412,
      "sou": 4413,
      "clima": 4414,
      "Christop": 4415,
      "imagine ": 4416,
      "sleep": 4417,
      "Bill ": 4418,
      "and un": 4419,
      "other, ": 4420,
      "et's ": 4421,
      "son's ": 4422,
      "kills ": 4423,
      "attrac": 4424,
      "Even ": 4425,
      "Jan": 4426,
      "cros": 4427,
      "fter": 4428,
      "conn": 4429,
      "end, ": 4430,
      "period ": 4431,
      " those who ": 4432,
      "sters ": 4433,
      "still": 4434,
      "chall": 4435,
      "movie's ": 4436,
      "appeal": 4437,
      "plays the ": 4438,
      "answ": 4439,
      "Bo": 4440,
      "Do": 4441,
      "vot": 4442,
      "on their ": 4443,
      "olo": 4444,
      "ury ": 4445,
      "!!! ": 4446,
      "anti-": 4447,
      "bos": 4448,
      "fli": 4449,
      "mal": 4450,
      "near ": 4451,
      "tar": 4452,
      "eless": 4453,
      "amb": 4454,
      "drun": 4455,
      "box ": 4456,
      "knowled": 4457,
      "explor": 4458,
      "If you ": 4459,
      "appropri": 4460,
      "Bec": 4461,
      "Ca": 4462,
      "den ": 4463,
      "words ": 4464,
      "uter ": 4465,
      "interesting": 4466,
      "effect ": 4467,
      "), but ": 4468,
      "Ber": 4469,
      "in fact ": 4470,
      "I love ": 4471,
      "like this": 4472,
      ". I have ": 4473,
      "where he ": 4474,
      "in this film ": 4475,
      "possible": 4476,
      "Jane ": 4477,
      "vent": 4478,
      "remake ": 4479,
      "atur": 4480,
      "that they ": 4481,
      "B ": 4482,
      "Fl": 4483,
      "me. ": 4484,
      "ron": 4485,
      "minutes of ": 4486,
      "general ": 4487,
      "career ": 4488,
      "than the ": 4489,
      "creepy ": 4490,
      "ultimately ": 4491,
      "sam": 4492,
      "as if ": 4493,
      "what was ": 4494,
      ": \"": 4495,
      "however": 4496,
      "Tom": 4497,
      "cool": 4498,
      "mou": 4499,
      "first time ": 4500,
      "under the ": 4501,
      "one of the worst ": 4502,
      "zombie ": 4503,
      "\"<br /><br />": 4504,
      "lack": 4505,
      ", S": 4506,
      "it on ": 4507,
      "or even ": 4508,
      "rol ": 4509,
      "all-": 4510,
      "over-": 4511,
      "eye ": 4512,
      "there was ": 4513,
      "family": 4514,
      "done": 4515,
      "pat": 4516,
      "t-": 4517,
      ", \"": 4518,
      ".<br /><br />N": 4519,
      "mani": 4520,
      "what they ": 4521,
      "effective ": 4522,
      ". Per": 4523,
      "generally ": 4524,
      "Angel": 4525,
      "DE": 4526,
      "Fri": 4527,
      "hyp": 4528,
      " thing": 4529,
      "outside ": 4530,
      "tort": 4531,
      ", she ": 4532,
      "a \"": 4533,
      "not even ": 4534,
      "crew ": 4535,
      "couple ": 4536,
      "Ben ": 4537,
      "OO": 4538,
      "pe ": 4539,
      "s.<br /><br />The ": 4540,
      "third ": 4541,
      "ine": 4542,
      "look like ": 4543,
      ". Every": 4544,
      "describ": 4545,
      "suggest": 4546,
      "God ": 4547,
      "ade": 4548,
      "iny ": 4549,
      "redeem": 4550,
      "he can ": 4551,
      "like to ": 4552,
      ". He's ": 4553,
      "syst": 4554,
      "Like ": 4555,
      "blood": 4556,
      "s. It ": 4557,
      "ution ": 4558,
      "es\" ": 4559,
      "was just ": 4560,
      "vid": 4561,
      "trag": 4562,
      ". Although ": 4563,
      "Of ": 4564,
      "fear": 4565,
      "inger ": 4566,
      "to take ": 4567,
      "element": 4568,
      ".<br /><br />M": 4569,
      "directed by ": 4570,
      "roles ": 4571,
      "dialog": 4572,
      "country ": 4573,
      "choic": 4574,
      "RI": 4575,
      "log": 4576,
      "ned ": 4577,
      "remind": 4578,
      "seg": 4579,
      "tired ": 4580,
      "un ": 4581,
      "parent": 4582,
      "mention ": 4583,
      "suck": 4584,
      "needs ": 4585,
      "cheesy ": 4586,
      "Best ": 4587,
      "WW": 4588,
      "osed": 4589,
      "trash": 4590,
      "a fam": 4591,
      "come to ": 4592,
      "we're ": 4593,
      "bizar": 4594,
      "cell": 4595,
      ". But the ": 4596,
      "subst": 4597,
      "as to ": 4598,
      "ties ": 4599,
      "romance ": 4600,
      "scene, ": 4601,
      "life and ": 4602,
      "respect": 4603,
      "Clar": 4604,
      "business ": 4605,
      "solid ": 4606,
      "ve, ": 4607,
      "beat": 4608,
      "two": 4609,
      "accident": 4610,
      "decides to ": 4611,
      "psycholog": 4612,
      "effort ": 4613,
      "sess": 4614,
      "into": 4615,
      "acting and ": 4616,
      "means ": 4617,
      "made it ": 4618,
      "bil": 4619,
      "bott": 4620,
      "fru": 4621,
      "rare ": 4622,
      ", because ": 4623,
      "radi": 4624,
      "termin": 4625,
      "discus": 4626,
      "medioc": 4627,
      "mb": 4628,
      "influ": 4629,
      "ens ": 4630,
      "evid": 4631,
      ", and it ": 4632,
      "ever seen ": 4633,
      "ever made": 4634,
      "son, ": 4635,
      "board ": 4636,
      ". With ": 4637,
      "public ": 4638,
      "Tw": 4639,
      "initi": 4640,
      "reach": 4641,
      "where": 4642,
      "of those ": 4643,
      "missing ": 4644,
      "whatever ": 4645,
      "Ph": 4646,
      "So ": 4647,
      "mm": 4648,
      "ed this ": 4649,
      "formul": 4650,
      "Black ": 4651,
      "shad": 4652,
      "confus": 4653,
      "historical ": 4654,
      "Bob": 4655,
      "luck": 4656,
      "agre": 4657,
      "ospit": 4658,
      "appe": 4659,
      "I have ever seen": 4660,
      "crime ": 4661,
      "focus ": 4662,
      "Christopher ": 4663,
      "EVER": 4664,
      "e! ": 4665,
      "last": 4666,
      "hair": 4667,
      "faul": 4668,
      " they are ": 4669,
      "search": 4670,
      "equally ": 4671,
      "We": 4672,
      "tom": 4673,
      "lets ": 4674,
      "impossible ": 4675,
      "eight ": 4676,
      "ifi": 4677,
      "starring ": 4678,
      "miss": 4679,
      "walk ": 4680,
      "incredible ": 4681,
      "material ": 4682,
      "in all ": 4683,
      "sight ": 4684,
      "editing ": 4685,
      "commerci": 4686,
      "bert ": 4687,
      "days ": 4688,
      "effort": 4689,
      "satisf": 4690,
      "OM": 4691,
      "SPOIL": 4692,
      "chann": 4693,
      "it just ": 4694,
      "out and ": 4695,
      "so bad ": 4696,
      "history": 4697,
      "which was ": 4698,
      ": The ": 4699,
      "194": 4700,
      "team": 4701,
      "held ": 4702,
      "Indi": 4703,
      "gore ": 4704,
      "example of ": 4705,
      "ends up ": 4706,
      "aspect ": 4707,
      "atmosp": 4708,
      "% ": 4709,
      "Tre": 4710,
      "ald ": 4711,
      "suit": 4712,
      "oughly ": 4713,
      "attack": 4714,
      ". Of cour": 4715,
      "I have seen ": 4716,
      "World ": 4717,
      "elebr": 4718,
      "Ey": 4719,
      "nast": 4720,
      "today ": 4721,
      "something that ": 4722,
      "carri": 4723,
      "tries ": 4724,
      "steal": 4725,
      "success ": 4726,
      "development ": 4727,
      "adult ": 4728,
      " (": 4729,
      "ak ": 4730,
      "hat": 4731,
      "ed from ": 4732,
      "mad": 4733,
      "cause ": 4734,
      ". I am ": 4735,
      "twist ": 4736,
      "- but ": 4737,
      "second": 4738,
      "respect ": 4739,
      "curi": 4740,
      ".The ": 4741,
      "Pi": 4742,
      "cover ": 4743,
      "din": 4744,
      "ampi": 4745,
      ".<br /><br />And ": 4746,
      "black": 4747,
      "end of the ": 4748,
      "trav": 4749,
      "intern": 4750,
      "ances ": 4751,
      "cru": 4752,
      "regard": 4753,
      "which the ": 4754,
      "constantly ": 4755,
      "Sar": 4756,
      "Ver": 4757,
      "bility ": 4758,
      "sell": 4759,
      "dimen": 4760,
      "exic": 4761,
      ". I think": 4762,
      "clever ": 4763,
      "ence of ": 4764,
      "of this movie ": 4765,
      "tension ": 4766,
      "protagon": 4767,
      "further ": 4768,
      "ers. ": 4769,
      "ing of the ": 4770,
      "grat": 4771,
      "Steph": 4772,
      "ured ": 4773,
      "believable": 4774,
      "suspense": 4775,
      "mut": 4776,
      "ople ": 4777,
      "ely": 4778,
      "spac": 4779,
      "up, ": 4780,
      "truth ": 4781,
      "ing them": 4782,
      "runs ": 4783,
      "example ": 4784,
      "season ": 4785,
      "rang": 4786,
      "onic ": 4787,
      "ure, ": 4788,
      "military ": 4789,
      "All ": 4790,
      "Mus": 4791,
      "Mary ": 4792,
      "foo": 4793,
      "duce ": 4794,
      "puts ": 4795,
      "plot, ": 4796,
      "footage ": 4797,
      "struggl": 4798,
      "Me": 4799,
      "chest": 4800,
      "shoc": 4801,
      "or and ": 4802,
      "features ": 4803,
      "multi": 4804,
      "ening ": 4805,
      "ow, ": 4806,
      ", that's ": 4807,
      "ence": 4808,
      "characters and ": 4809,
      "fire": 4810,
      "may have ": 4811,
      "appearance ": 4812,
      "follow ": 4813,
      "Mel": 4814,
      "gain": 4815,
      "rar": 4816,
      "on-": 4817,
      "of S": 4818,
      "in it": 4819,
      "speak ": 4820,
      "dumb ": 4821,
      "trouble ": 4822,
      "Chris ": 4823,
      "Night ": 4824,
      "moves ": 4825,
      "mark ": 4826,
      "truth": 4827,
      "entertainment": 4828,
      "girlfriend ": 4829,
      "AC": 4830,
      "W ": 4831,
      "s or ": 4832,
      "stag": 4833,
      "choo": 4834,
      "magn": 4835,
      "give it a ": 4836,
      "basic ": 4837,
      ". Also ": 4838,
      "impressive ": 4839,
      "drawn ": 4840,
      "inspired ": 4841,
      "Oscar": 4842,
      "dog ": 4843,
      "again, ": 4844,
      "special effect": 4845,
      "result ": 4846,
      "comedi": 4847,
      "Cur": 4848,
      "Po": 4849,
      "elly ": 4850,
      "Andre": 4851,
      "of this film ": 4852,
      "standard": 4853,
      "that, ": 4854,
      "William": 4855,
      "potential ": 4856,
      "behavi": 4857,
      "Jenn": 4858,
      "Jim ": 4859,
      "key": 4860,
      "insul": 4861,
      "at his ": 4862,
      "acted ": 4863,
      "monster ": 4864,
      "younger ": 4865,
      "immediately ": 4866,
      "chemistry ": 4867,
      "Cam": 4868,
      "chur": 4869,
      "for that ": 4870,
      "abb": 4871,
      "excuse ": 4872,
      "easy ": 4873,
      "otherwise ": 4874,
      "inner ": 4875,
      "Great ": 4876,
      "Den": 4877,
      "High": 4878,
      "ines ": 4879,
      "forgett": 4880,
      "unch": 4881,
      "least": 4882,
      "uring ": 4883,
      "terror": 4884,
      "film.": 4885,
      "Star": 4886,
      "science ": 4887,
      "reviews ": 4888,
      "release ": 4889,
      "fantastic ": 4890,
      "tradition": 4891,
      "ap ": 4892,
      "vari": 4893,
      "of \"": 4894,
      "on her ": 4895,
      "has some ": 4896,
      "impl": 4897,
      "out, ": 4898,
      "this movie is ": 4899,
      "ruin": 4900,
      "dream ": 4901,
      "sac": 4902,
      "vor": 4903,
      "es.<br /><br />": 4904,
      "liz": 4905,
      "princ": 4906,
      "i was ": 4907,
      "way of ": 4908,
      "credit": 4909,
      "Am": 4910,
      "Youn": 4911,
      "se and ": 4912,
      "s; ": 4913,
      "tend": 4914,
      "step": 4915,
      "er who ": 4916,
      "let's ": 4917,
      "but I ": 4918,
      "created ": 4919,
      "any other ": 4920,
      "life. ": 4921,
      ". Most ": 4922,
      "managed to ": 4923,
      "literally ": 4924,
      "Ab": 4925,
      "rend": 4926,
      "vert": 4927,
      "ant, ": 4928,
      "looking for ": 4929,
      "gorge": 4930,
      "across ": 4931,
      "fighting ": 4932,
      "Bu": 4933,
      "Mexic": 4934,
      "Sand": 4935,
      "With": 4936,
      "thing, ": 4937,
      "abor": 4938,
      "sho": 4939,
      "shoot": 4940,
      ". An ": 4941,
      "prop": 4942,
      "progres": 4943,
      "faith": 4944,
      "selves": 4945,
      "encoun": 4946,
      "miss ": 4947,
      "joke ": 4948,
      "of course": 4949,
      "Gl": 4950,
      "Rog": 4951,
      "lame ": 4952,
      "repor": 4953,
      "ford ": 4954,
      "you don't ": 4955,
      "more": 4956,
      "plays a ": 4957,
      "standard ": 4958,
      "correc": 4959,
      "cinematic ": 4960,
      "video": 4961,
      "opinion ": 4962,
      "unfortunately ": 4963,
      "another": 4964,
      "an excellent ": 4965,
      "ut, ": 4966,
      "talk": 4967,
      "mainly ": 4968,
      "reflec": 4969,
      "med": 4970,
      "y? ": 4971,
      "ero ": 4972,
      "here. ": 4973,
      "flat ": 4974,
      "Super": 4975,
      "-fi ": 4976,
      "18": 4977,
      "Dav": 4978,
      "apart ": 4979,
      "sli": 4980,
      "tough ": 4981,
      "remo": 4982,
      "assu": 4983,
      "sugg": 4984,
      "only one ": 4985,
      "most of ": 4986,
      "aster": 4987,
      "suggest ": 4988,
      "pick ": 4989,
      "requi": 4990,
      "distr": 4991,
      "end up ": 4992,
      ". Some": 4993,
      "This film ": 4994,
      "Steve ": 4995,
      "funny and ": 4996,
      "women": 4997,
      "must have ": 4998,
      "polic": 4999,
      "depth ": 5000,
      "country": 5001,
      "Shak": 5002,
      "slasher ": 5003,
      "cent ": 5004,
      "hospit": 5005,
      " theat": 5006,
      "but not ": 5007,
      "motiv": 5008,
      "guil": 5009,
      "anything": 5010,
      "so-": 5011,
      "computer ": 5012,
      "if you are ": 5013,
      "against the ": 5014,
      "Charles ": 5015,
      "behind the ": 5016,
      "melod": 5017,
      "mystery ": 5018,
      "Ev": 5019,
      "een": 5020,
      "whol": 5021,
      "occur": 5022,
      "what happen": 5023,
      "include ": 5024,
      "forced to ": 5025,
      "cinematography ": 5026,
      "IMDb ": 5027,
      "gle ": 5028,
      "at times ": 5029,
      "ppy ": 5030,
      "tions ": 5031,
      "fake ": 5032,
      "decis": 5033,
      "might have ": 5034,
      "Indian ": 5035,
      "subtle ": 5036,
      "hasn't ": 5037,
      "\") ": 5038,
      "rout": 5039,
      "onc": 5040,
      "and her ": 5041,
      "ed his ": 5042,
      "riv": 5043,
      "abil": 5044,
      "among ": 5045,
      "superi": 5046,
      "case": 5047,
      ". Ac": 5048,
      "seemed to ": 5049,
      "movies that ": 5050,
      "involving ": 5051,
      "horrible": 5052,
      "lacks ": 5053,
      "tial ": 5054,
      "guess": 5055,
      "establ": 5056,
      "front ": 5057,
      "force ": 5058,
      "one of his ": 5059,
      "merely ": 5060,
      "scene where ": 5061,
      "beauty ": 5062,
      "of course, ": 5063,
      "build": 5064,
      "circ": 5065,
      "After ": 5066,
      "ES": 5067,
      "Ros": 5068,
      "free ": 5069,
      "ous. ": 5070,
      "irrit": 5071,
      ". I thought ": 5072,
      "people": 5073,
      "released ": 5074,
      "realize ": 5075,
      "Well, ": 5076,
      "ech": 5077,
      "ible ": 5078,
      "ing, the ": 5079,
      "gram": 5080,
      "age, ": 5081,
      "break ": 5082,
      "difficult to ": 5083,
      "Jim": 5084,
      "ez": 5085,
      "thy ": 5086,
      "beat ": 5087,
      "being the ": 5088,
      "comfort": 5089,
      "suic": 5090,
      "travel": 5091,
      "style": 5092,
      "signific": 5093,
      "fantasy ": 5094,
      "ious ": 5095,
      "on to ": 5096,
      "space ": 5097,
      "know the ": 5098,
      "budget": 5099,
      "paint": 5100,
      "children": 5101,
      "experim": 5102,
      "ustrali": 5103,
      "Cr": 5104,
      "out to ": 5105,
      "! <br /><br />": 5106,
      ". This movie is ": 5107,
      "bring": 5108,
      "complain": 5109,
      "company ": 5110,
      "in order to ": 5111,
      "city ": 5112,
      "moun": 5113,
      "ing\" ": 5114,
      "him and ": 5115,
      "ruce ": 5116,
      "Frank ": 5117,
      "icip": 5118,
      "nature ": 5119,
      "), the ": 5120,
      "s his ": 5121,
      "one that ": 5122,
      "for you": 5123,
      "awk": 5124,
      "minor ": 5125,
      "goes to ": 5126,
      "beautifully ": 5127,
      "\" and \"": 5128,
      "high school ": 5129,
      "gun ": 5130,
      "along with ": 5131,
      "material": 5132,
      "ben": 5133,
      "witt": 5134,
      "inj": 5135,
      "along": 5136,
      "sees ": 5137,
      "I've ever seen": 5138,
      "wait ": 5139,
      "scienti": 5140,
      "rock ": 5141,
      "villain ": 5142,
      "intelligent ": 5143,
      "filled with ": 5144,
      "spectac": 5145,
      "Gir": 5146,
      "She": 5147,
      "Uni": 5148,
      "fat": 5149,
      "ing-": 5150,
      "evol": 5151,
      "mod": 5152,
      "what I ": 5153,
      "fair ": 5154,
      "ful, ": 5155,
      "trip ": 5156,
      "you'd ": 5157,
      "secret ": 5158,
      "exception": 5159,
      "ordinary ": 5160,
      "Over": 5161,
      "Sam": 5162,
      "Way": 5163,
      "to think ": 5164,
      "entist ": 5165,
      "? I ": 5166,
      "to be the ": 5167,
      "entially ": 5168,
      "warn": 5169,
      "husband": 5170,
      "osedly ": 5171,
      "(who ": 5172,
      "Bel": 5173,
      "De ": 5174,
      "Lyn": 5175,
      "So": 5176,
      "ed.<br /><br />": 5177,
      "it's just ": 5178,
      ", this is a ": 5179,
      "mental ": 5180,
      "pointless ": 5181,
      "ING": 5182,
      "dull": 5183,
      "base": 5184,
      "Film ": 5185,
      "waste your ": 5186,
      "er than ": 5187,
      "st, ": 5188,
      "it would be ": 5189,
      "or a ": 5190,
      "afra": 5191,
      "istic ": 5192,
      "one.": 5193,
      "wasted ": 5194,
      " there are ": 5195,
      "sci-fi ": 5196,
      "Dann": 5197,
      "abe": 5198,
      "fo": 5199,
      "pati": 5200,
      "sof": 5201,
      "oop": 5202,
      "oph": 5203,
      "Thom": 5204,
      "came": 5205,
      "crazy ": 5206,
      "people, ": 5207,
      "favorit": 5208,
      "relationship": 5209,
      "studio ": 5210,
      "a single ": 5211,
      "(I ": 5212,
      "1/": 5213,
      "stopp": 5214,
      "as she ": 5215,
      ", and a ": 5216,
      "film. The ": 5217,
      ". I would ": 5218,
      "make you ": 5219,
      "pretty good ": 5220,
      "myself": 5221,
      " through the ": 5222,
      "paid ": 5223,
      ").": 5224,
      "Big ": 5225,
      "Dani": 5226,
      "R ": 5227,
      "mess ": 5228,
      "wid": 5229,
      "zen ": 5230,
      "es in the ": 5231,
      ") who ": 5232,
      "estern": 5233,
      "Stan": 5234,
      "actors, ": 5235,
      "go to ": 5236,
      "match ": 5237,
      "films that ": 5238,
      "conclusion": 5239,
      "Australi": 5240,
      " the movie ": 5241,
      "plus ": 5242,
      "asks ": 5243,
      "that this ": 5244,
      "ed, but ": 5245,
      "if he ": 5246,
      "we get ": 5247,
      "turning ": 5248,
      "surround": 5249,
      "should have been ": 5250,
      "producers ": 5251,
      "laughing ": 5252,
      "fan of ": 5253,
      "HA": 5254,
      "ayl": 5255,
      "ge, ": 5256,
      " that he ": 5257,
      "sav": 5258,
      "cop ": 5259,
      "between": 5260,
      ".<br /><br />In": 5261,
      "Frank": 5262,
      "excellent": 5263,
      "meaning": 5264,
      "liked the ": 5265,
      "narrative ": 5266,
      "appeal ": 5267,
      "( ": 5268,
      "saf": 5269,
      ". . ": 5270,
      "spar": 5271,
      "scenes, ": 5272,
      "drug ": 5273,
      "offers ": 5274,
      "dubb": 5275,
      "push": 5276,
      "close to ": 5277,
      "RO": 5278,
      "lay": 5279,
      "is to ": 5280,
      "age and ": 5281,
      "motion ": 5282,
      "end of ": 5283,
      "suppose ": 5284,
      "instead": 5285,
      "normal ": 5286,
      "Scott ": 5287,
      "Every": 5288,
      "sinc": 5289,
      "tun": 5290,
      "angr": 5291,
      "oroughly ": 5292,
      ". Un": 5293,
      "man and ": 5294,
      "boring": 5295,
      "back to the ": 5296,
      "telling ": 5297,
      "power ": 5298,
      "rock": 5299,
      "jump": 5300,
      "sweet ": 5301,
      "Phil": 5302,
      "s...": 5303,
      "uch ": 5304,
      "water ": 5305,
      ". It's not ": 5306,
      "employ": 5307,
      "a fan of ": 5308,
      "Jes": 5309,
      "OK ": 5310,
      "ey, ": 5311,
      "loy": 5312,
      " ": 5313,
      "in \"": 5314,
      "it doesn't ": 5315,
      "olf ": 5316,
      "surely ": 5317,
      "door": 5318,
      "characteri": 5319,
      "seemingly ": 5320,
      "cast is ": 5321,
      "away from ": 5322,
      "depic": 5323,
      "violent ": 5324,
      "However, ": 5325,
      "exploit": 5326,
      "neither ": 5327,
      "Bet": 5328,
      "Mal": 5329,
      "tually ": 5330,
      "m and ": 5331,
      "ex-": 5332,
      "times, ": 5333,
      "just as ": 5334,
      "made the ": 5335,
      "actors are ": 5336,
      "young": 5337,
      "anyone who ": 5338,
      "AND ": 5339,
      "aspects ": 5340,
      "situation ": 5341,
      "appreciate ": 5342,
      "premise ": 5343,
      "/ ": 5344,
      "oned ": 5345,
      "what he ": 5346,
      "month": 5347,
      ". Why ": 5348,
      "accept": 5349,
      "books ": 5350,
      "low budget ": 5351,
      "sympath": 5352,
      "frustr": 5353,
      "Dan": 5354,
      "SE": 5355,
      "Sci": 5356,
      "Tony ": 5357,
      "hell": 5358,
      "icat": 5359,
      "umbl": 5360,
      "giv": 5361,
      "make the ": 5362,
      "accent": 5363,
      "syn": 5364,
      ". They are ": 5365,
      "consider ": 5366,
      "Night": 5367,
      "Far": 5368,
      "Ful": 5369,
      "to do": 5370,
      "it.<br /><br />": 5371,
      ". The story ": 5372,
      "imm": 5373,
      "when I was ": 5374,
      ". Be": 5375,
      "because he ": 5376,
      ".<br /><br />The film ": 5377,
      "thrill": 5378,
      "back and ": 5379,
      "explan": 5380,
      "problems ": 5381,
      "sequences ": 5382,
      "fest": 5383,
      "fell ": 5384,
      "hous": 5385,
      "to her ": 5386,
      "somewhere ": 5387,
      "born ": 5388,
      "storyline ": 5389,
      "control ": 5390,
      "main character ": 5391,
      "WH": 5392,
      "by": 5393,
      "gon": 5394,
      "hold": 5395,
      "ki": 5396,
      "nu": 5397,
      "order": 5398,
      "moral ": 5399,
      "meet": 5400,
      "fire ": 5401,
      ". So": 5402,
      "ures ": 5403,
      "fright": 5404,
      "going to be ": 5405,
      "half-": 5406,
      "-to-": 5407,
      "AM": 5408,
      "Mer": 5409,
      "mood ": 5410,
      "pack": 5411,
      "anch": 5412,
      "of its ": 5413,
      "edg": 5414,
      "offer": 5415,
      "pull": 5416,
      "yourself": 5417,
      "Cas": 5418,
      "Hu": 5419,
      "y of the ": 5420,
      "ason ": 5421,
      "ection": 5422,
      "ental ": 5423,
      "to see the ": 5424,
      "since the ": 5425,
      "Tur": 5426,
      "celebr": 5427,
      "a K": 5428,
      "ing on ": 5429,
      "it in ": 5430,
      "us, ": 5431,
      "ird": 5432,
      "in the middle ": 5433,
      "quot": 5434,
      "aware ": 5435,
      "ign ": 5436,
      "lovely ": 5437,
      "period": 5438,
      "songs ": 5439,
      "picked ": 5440,
      "ing through ": 5441,
      "dimension": 5442,
      "VI": 5443,
      "a new ": 5444,
      "shor": 5445,
      "in the same ": 5446,
      "tion of the ": 5447,
      "sentim": 5448,
      "hours ": 5449,
      "heavy ": 5450,
      "AD": 5451,
      "Sam ": 5452,
      "cal": 5453,
      "gent": 5454,
      "arily ": 5455,
      "ab ": 5456,
      "filmed ": 5457,
      "' and ": 5458,
      "surprisingly ": 5459,
      "funniest ": 5460,
      "disgust": 5461,
      "UN": 5462,
      "bother": 5463,
      "a real ": 5464,
      "it the ": 5465,
      "empor": 5466,
      "or not": 5467,
      "educ": 5468,
      "Good ": 5469,
      "LI": 5470,
      "MO": 5471,
      "Tra": 5472,
      "ing: ": 5473,
      ", the movie ": 5474,
      "a br": 5475,
      "because they ": 5476,
      "how much ": 5477,
      "in this movie": 5478,
      "how they ": 5479,
      "expecting ": 5480,
      "wait": 5481,
      "sounds ": 5482,
      "absolute ": 5483,
      "whatso": 5484,
      "innocent ": 5485,
      "Director ": 5486,
      "Bak": 5487,
      "ments ": 5488,
      "an old ": 5489,
      "was very ": 5490,
      "compos": 5491,
      "edy ": 5492,
      "ophi": 5493,
      "say, ": 5494,
      "guy who ": 5495,
      "burn": 5496,
      ". the ": 5497,
      "50 ": 5498,
      "Van ": 5499,
      "pen": 5500,
      "been": 5501,
      "contra": 5502,
      "connec": 5503,
      "people are ": 5504,
      "viewing ": 5505,
      "role of ": 5506,
      "lady ": 5507,
      "negative ": 5508,
      "energ": 5509,
      "as his ": 5510,
      "others": 5511,
      "giant ": 5512,
      "at the end": 5513,
      "office ": 5514,
      "supposedly ": 5515,
      "terrific ": 5516,
      "walking ": 5517,
      "realistic": 5518,
      "Hit": 5519,
      "pon": 5520,
      "whit": 5521,
      "ady ": 5522,
      "can only ": 5523,
      "ancy ": 5524,
      "age to ": 5525,
      "berg ": 5526,
      ". From": 5527,
      "special": 5528,
      "casting ": 5529,
      "80's ": 5530,
      "CG": 5531,
      "Ser": 5532,
      "s,": 5533,
      "dir": 5534,
      "that you ": 5535,
      "have no ": 5536,
      "and-": 5537,
      "succeed": 5538,
      "painful ": 5539,
      "pretenti": 5540,
      "\")": 5541,
      "hic": 5542,
      "return": 5543,
      "atter": 5544,
      "ed of ": 5545,
      "element ": 5546,
      "gh ": 5547,
      "you think ": 5548,
      "shouldn't ": 5549,
      "expos": 5550,
      "manner": 5551,
      ", but not ": 5552,
      "s of a ": 5553,
      "ards the ": 5554,
      "arry ": 5555,
      ". Like ": 5556,
      "Mag": 5557,
      "dat": 5558,
      "dread": 5559,
      "pra": 5560,
      "sill": 5561,
      "stuck ": 5562,
      "road ": 5563,
      "has to be ": 5564,
      "me to ": 5565,
      "phil": 5566,
      "start to ": 5567,
      "wondering ": 5568,
      "shoot ": 5569,
      "SPOILER": 5570,
      "jun": 5571,
      "th, ": 5572,
      "return ": 5573,
      "had no ": 5574,
      "much better ": 5575,
      " thinking ": 5576,
      "him, ": 5577,
      "rubb": 5578,
      "world of ": 5579,
      "comedy, ": 5580,
      "Hel": 5581,
      "coll": 5582,
      "ren": 5583,
      "they": 5584,
      "directed ": 5585,
      "so the ": 5586,
      "a fri": 5587,
      "missed ": 5588,
      "less than ": 5589,
      "support ": 5590,
      "different": 5591,
      "craz": 5592,
      "drive ": 5593,
      "one of my ": 5594,
      "coupl": 5595,
      "slowly ": 5596,
      "neighbor": 5597,
      "\"W": 5598,
      "WA": 5599,
      "hood": 5600,
      "sick ": 5601,
      " they're ": 5602,
      ". i ": 5603,
      "it, and ": 5604,
      "ride ": 5605,
      "gely ": 5606,
      "without the ": 5607,
      "ships ": 5608,
      "especially the ": 5609,
      "takes place ": 5610,
      "towards ": 5611,
      "redeeming ": 5612,
      "Lo": 5613,
      "ju": 5614,
      "pan": 5615,
      "skill": 5616,
      "independ": 5617,
      "ensive ": 5618,
      "is un": 5619,
      "argu": 5620,
      "resembl": 5621,
      "itut": 5622,
      "in your ": 5623,
      "an hour ": 5624,
      "abov": 5625,
      "presented ": 5626,
      "core ": 5627,
      "directors ": 5628,
      "ampire ": 5629,
      "theater ": 5630,
      "author": 5631,
      "years ago": 5632,
      "Dor": 5633,
      "pal": 5634,
      "chill": 5635,
      "es her ": 5636,
      "in every ": 5637,
      "but, ": 5638,
      "adds ": 5639,
      "creative ": 5640,
      "grac": 5641,
      "leaving ": 5642,
      "Christian ": 5643,
      ".<br /><br />As ": 5644,
      "touch ": 5645,
      "brain": 5646,
      "chase ": 5647,
      "cartoon": 5648,
      "mysterious ": 5649,
      "-up": 5650,
      "Billy ": 5651,
      "Naz": 5652,
      "band ": 5653,
      ". U": 5654,
      "e. He ": 5655,
      "utter ": 5656,
      "find it ": 5657,
      "idea of ": 5658,
      "physical ": 5659,
      "Boy": 5660,
      "Val": 5661,
      "bits ": 5662,
      "rey ": 5663,
      "to that ": 5664,
      "ounc": 5665,
      "occ": 5666,
      "odd": 5667,
      ". Now ": 5668,
      "suspense ": 5669,
      "amateur": 5670,
      "y) ": 5671,
      "in one ": 5672,
      "oll ": 5673,
      "acts ": 5674,
      "such": 5675,
      "! It ": 5676,
      "given the ": 5677,
      "could not ": 5678,
      "resol": 5679,
      "nie ": 5680,
      "other than ": 5681,
      "breath": 5682,
      "street ": 5683,
      "shooting ": 5684,
      "catch ": 5685,
      "describe ": 5686,
      "ability to ": 5687,
      "wrote ": 5688,
      "opportunity ": 5689,
      "Dougl": 5690,
      "Henry ": 5691,
      "due to the ": 5692,
      "Is ": 5693,
      "tch": 5694,
      "yn ": 5695,
      "eck ": 5696,
      "spee": 5697,
      "carry ": 5698,
      "prison": 5699,
      "doctor ": 5700,
      "lessly ": 5701,
      "lot of ": 5702,
      "revenge ": 5703,
      "college ": 5704,
      "GH": 5705,
      "P ": 5706,
      "ave ": 5707,
      "gang ": 5708,
      "ital ": 5709,
      "els ": 5710,
      "ellec": 5711,
      "it is": 5712,
      "time.": 5713,
      "prepar": 5714,
      "; and ": 5715,
      "piece ": 5716,
      "wife and ": 5717,
      "indeed ": 5718,
      "million ": 5719,
      "VH": 5720,
      "resc": 5721,
      " that was ": 5722,
      "were the ": 5723,
      "a sha": 5724,
      "accoun": 5725,
      "writer": 5726,
      "difference ": 5727,
      "B-": 5728,
      "Pro": 5729,
      "soul": 5730,
      "vely ": 5731,
      "in C": 5732,
      "mad ": 5733,
      "like it ": 5734,
      "what a ": 5735,
      "I'm sure ": 5736,
      " there is ": 5737,
      "judg": 5738,
      "BC ": 5739,
      "oh ": 5740,
      "accompl": 5741,
      "on is ": 5742,
      "entr": 5743,
      "convers": 5744,
      "quir": 5745,
      "sell ": 5746,
      "martial ": 5747,
      "step ": 5748,
      "movie. I ": 5749,
      "gory ": 5750,
      "Arthur ": 5751,
      "host": 5752,
      "o is ": 5753,
      "elle ": 5754,
      "hich ": 5755,
      "program": 5756,
      "is a very ": 5757,
      "ities": 5758,
      "is the best ": 5759,
      "character's ": 5760,
      "concept ": 5761,
      "Harry ": 5762,
      "atively ": 5763,
      "available ": 5764,
      "Bruce ": 5765,
      "Horr": 5766,
      "Is": 5767,
      "win ": 5768,
      " ther": 5769,
      "and not ": 5770,
      "to give ": 5771,
      "separ": 5772,
      "eath ": 5773,
      "tion, ": 5774,
      "fles": 5775,
      "depict": 5776,
      "black and ": 5777,
      "Of cour": 5778,
      "pass ": 5779,
      "represent": 5780,
      "at, ": 5781,
      "itch ": 5782,
      "in H": 5783,
      "tive": 5784,
      "urpris": 5785,
      ".....": 5786,
      "if not ": 5787,
      "vehic": 5788,
      "explain ": 5789,
      "personal": 5790,
      "attractive ": 5791,
      "Stephen ": 5792,
      "-like ": 5793,
      "Lov": 5794,
      "bother ": 5795,
      "rul": 5796,
      "iss": 5797,
      "ashing": 5798,
      "far as ": 5799,
      "Charlie ": 5800,
      "execut": 5801,
      "nobody ": 5802,
      "Bas": 5803,
      "Maybe ": 5804,
      "test": 5805,
      "us to ": 5806,
      "yet": 5807,
      "livi": 5808,
      "le-": 5809,
      "share ": 5810,
      "ed. I ": 5811,
      "just the ": 5812,
      "never seen ": 5813,
      "stands ": 5814,
      "pace ": 5815,
      "weak": 5816,
      "build ": 5817,
      "However": 5818,
      "destroy": 5819,
      "dom": 5820,
      "is that the ": 5821,
      "icked ": 5822,
      "I felt ": 5823,
      "haunt": 5824,
      "othing ": 5825,
      "you see ": 5826,
      "easy to ": 5827,
      "willing to ": 5828,
      "bizarre ": 5829,
      "(a ": 5830,
      "ai": 5831,
      "eth": 5832,
      "ling": 5833,
      "rented ": 5834,
      "wel": 5835,
      "of all": 5836,
      "as, ": 5837,
      "usion ": 5838,
      "are all ": 5839,
      "perhap": 5840,
      "exciting ": 5841,
      "seriously": 5842,
      "complex": 5843,
      "crit": 5844,
      "career": 5845,
      "40 ": 5846,
      "Jud": 5847,
      "Zombi": 5848,
      "y.<br /><br />": 5849,
      "on an ": 5850,
      "it would ": 5851,
      "etch": 5852,
      "very much ": 5853,
      "her, ": 5854,
      "also a ": 5855,
      "thrown ": 5856,
      "heal": 5857,
      ". He is ": 5858,
      "eff ": 5859,
      "naked ": 5860,
      "silent ": 5861,
      "technical ": 5862,
      "genuin": 5863,
      ",00": 5864,
      "Fi": 5865,
      "Mr ": 5866,
      "Red ": 5867,
      "it, but ": 5868,
      "amus": 5869,
      "you could ": 5870,
      "consci": 5871,
      ". As a ": 5872,
      "intellec": 5873,
      "a lar": 5874,
      "me that ": 5875,
      "anci": 5876,
      "wanted ": 5877,
      "considered ": 5878,
      "choice ": 5879,
      "contains ": 5880,
      "00 ": 5881,
      "Bor": 5882,
      "Keat": 5883,
      "ban": 5884,
      "jer": 5885,
      "lose ": 5886,
      "alway": 5887,
      "ised ": 5888,
      "rog": 5889,
      "\" or ": 5890,
      "ident ": 5891,
      "post": 5892,
      "pric": 5893,
      "belief": 5894,
      "interested in ": 5895,
      "going on ": 5896,
      "AN ": 5897,
      "turns out ": 5898,
      "teenage ": 5899,
      "adventure ": 5900,
      "deeply ": 5901,
      "government ": 5902,
      " the film ": 5903,
      "really": 5904,
      "depart": 5905,
      "given": 5906,
      "playing the ": 5907,
      "a cop": 5908,
      "got the ": 5909,
      "explic": 5910,
      "script is ": 5911,
      "leads ": 5912,
      "struggle ": 5913,
      "Jerry ": 5914,
      "90 ": 5915,
      "IS": 5916,
      "yea": 5917,
      "of-": 5918,
      ".<br /><br />There ": 5919,
      "she has ": 5920,
      ". This was ": 5921,
      "bit of ": 5922,
      "predictable": 5923,
      "Movie ": 5924,
      "referenc": 5925,
      "afraid ": 5926,
      "\"the ": 5927,
      "Patr": 5928,
      "Ry": 5929,
      "fif": 5930,
      "arg": 5931,
      "es with ": 5932,
      "advert": 5933,
      "s. <br /><br />": 5934,
      "makes you ": 5935,
      "trying ": 5936,
      "roles": 5937,
      "seem to be ": 5938,
      "victi": 5939,
      "despite the ": 5940,
      "journey ": 5941,
      "Pac": 5942,
      "sat ": 5943,
      "wann": 5944,
      "ende": 5945,
      "so I ": 5946,
      "project ": 5947,
      "gru": 5948,
      "made a ": 5949,
      "actors and ": 5950,
      "miser": 5951,
      "member ": 5952,
      "accept ": 5953,
      "comedic ": 5954,
      "wonderfully ": 5955,
      "major": 5956,
      "techni": 5957,
      "Brian ": 5958,
      "e.<br /><br />The ": 5959,
      "lon": 5960,
      "s. And ": 5961,
      "us the ": 5962,
      "western ": 5963,
      "the story ": 5964,
      "sight": 5965,
      "ull": 5966,
      "you can't ": 5967,
      "very little ": 5968,
      "don't know ": 5969,
      "reading ": 5970,
      "surprise ": 5971,
      "title": 5972,
      "Span": 5973,
      "escape ": 5974,
      "Chinese ": 5975,
      "Alex": 5976,
      "Kor": 5977,
      "kil": 5978,
      "me of ": 5979,
      "aband": 5980,
      "determin": 5981,
      "hidd": 5982,
      ". It has ": 5983,
      "ing to see ": 5984,
      "we can ": 5985,
      "ly-": 5986,
      "tale ": 5987,
      "humour ": 5988,
      "surprised ": 5989,
      "winning ": 5990,
      "EL": 5991,
      "efully ": 5992,
      "ended": 5993,
      "arch": 5994,
      "ats ": 5995,
      "sely ": 5996,
      "unt ": 5997,
      "one and ": 5998,
      "deb": 5999,
      "ad of ": 6000,
      "ump": 6001,
      "is a good ": 6002,
      "ity of the ": 6003,
      "aster ": 6004,
      "is the only ": 6005,
      "mix ": 6006,
      "dancing ": 6007,
      "side of ": 6008,
      "approach": 6009,
      "Lat": 6010,
      "Most ": 6011,
      "On ": 6012,
      "Tayl": 6013,
      "e; ": 6014,
      "gan ": 6015,
      "row ": 6016,
      ", in ": 6017,
      "is and ": 6018,
      "tie ": 6019,
      "hair ": 6020,
      "func": 6021,
      "seeing the ": 6022,
      "wonderful": 6023,
      "cult ": 6024,
      "production valu": 6025,
      "legend": 6026,
      "artistic ": 6027,
      "society ": 6028,
      "honestly ": 6029,
      "near the ": 6030,
      "detective ": 6031,
      "random ": 6032,
      "fellow ": 6033,
      "Jew": 6034,
      "ek": 6035,
      "smo": 6036,
      "replac": 6037,
      "The S": 6038,
      "about it ": 6039,
      "Where ": 6040,
      "man is ": 6041,
      "find out ": 6042,
      "capture ": 6043,
      "politic": 6044,
      "pleasant ": 6045,
      "! ! ! ! ": 6046,
      "Cre": 6047,
      "on that ": 6048,
      "stunn": 6049,
      "ated by ": 6050,
      "unlike ": 6051,
      "for all ": 6052,
      "ers are ": 6053,
      "e. <br /><br />": 6054,
      "up to the ": 6055,
      "Another ": 6056,
      "cartoon ": 6057,
      "technolog": 6058,
      "responsible ": 6059,
      "favourite ": 6060,
      "rarely ": 6061,
      "Dam": 6062,
      "Oh ": 6063,
      "cer": 6064,
      "ie": 6065,
      "ym": 6066,
      " then": 6067,
      "an interesting ": 6068,
      "'s character ": 6069,
      "try and ": 6070,
      "prec": 6071,
      "about how ": 6072,
      "eight": 6073,
      "eath": 6074,
      "watched the ": 6075,
      "relev": 6076,
      "a bit of ": 6077,
      "ary, ": 6078,
      "change": 6079,
      "amusing ": 6080,
      "for its ": 6081,
      ") but ": 6082,
      "twent": 6083,
      "which are ": 6084,
      "bad, ": 6085,
      "drag": 6086,
      "camera": 6087,
      "orious ": 6088,
      "Matth": 6089,
      "central ": 6090,
      "Gri": 6091,
      "Laur": 6092,
      ". Re": 6093,
      "is still ": 6094,
      "ings, ": 6095,
      "ed in a ": 6096,
      "at this ": 6097,
      "with my ": 6098,
      "you get ": 6099,
      "cond": 6100,
      "construc": 6101,
      "spot ": 6102,
      "proper": 6103,
      "see it ": 6104,
      "we all ": 6105,
      "because I ": 6106,
      "many of the ": 6107,
      "notice ": 6108,
      "pursu": 6109,
      "ON ": 6110,
      "toward ": 6111,
      "mistak": 6112,
      "reminds ": 6113,
      "ghost": 6114,
      "six ": 6115,
      "clas": 6116,
      "makes me ": 6117,
      "In the ": 6118,
      "begins to ": 6119,
      "count": 6120,
      "impression": 6121,
      "honest ": 6122,
      "brilliant": 6123,
      "religious ": 6124,
      "magnific": 6125,
      "dad ": 6126,
      "ose of ": 6127,
      "tap": 6128,
      "store ": 6129,
      "is a great ": 6130,
      ". Another ": 6131,
      "a certain ": 6132,
      ". There is no ": 6133,
      "seeing this ": 6134,
      "fact that the ": 6135,
      "sexy ": 6136,
      "attempt": 6137,
      "Dead ": 6138,
      "watched it ": 6139,
      "fails to ": 6140,
      "mentioned ": 6141,
      "large ": 6142,
      "sympathet": 6143,
      "Miss ": 6144,
      "Spi": 6145,
      "cate": 6146,
      "jects ": 6147,
      "rough ": 6148,
      "along the ": 6149,
      "in B": 6150,
      "liber": 6151,
      "ham ": 6152,
      "buff": 6153,
      "ages ": 6154,
      "door ": 6155,
      "ella ": 6156,
      "ed to a ": 6157,
      "no matter ": 6158,
      "story lin": 6159,
      ", their ": 6160,
      "ential": 6161,
      "prison ": 6162,
      "woman who ": 6163,
      "likable ": 6164,
      "straight": 6165,
      "in my opinion": 6166,
      "towards the ": 6167,
      "difficult ": 6168,
      "damn ": 6169,
      "expression": 6170,
      "transl": 6171,
      "Do ": 6172,
      "Kelly ": 6173,
      "Lind": 6174,
      "hin": 6175,
      "tan": 6176,
      "vul": 6177,
      "ed into ": 6178,
      "earth ": 6179,
      "like that ": 6180,
      ", but it's ": 6181,
      "watching a ": 6182,
      "Joan ": 6183,
      "everything": 6184,
      "makes the ": 6185,
      "script, ": 6186,
      "lock": 6187,
      "Dead": 6188,
      "azz": 6189,
      ":<br /><br />": 6190,
      "never": 6191,
      "is really ": 6192,
      "regre": 6193,
      "ate, ": 6194,
      "had": 6195,
      "among the ": 6196,
      ". Their ": 6197,
      "outstanding ": 6198,
      "crow": 6199,
      "sub-": 6200,
      "background": 6201,
      ". In this ": 6202,
      "listen ": 6203,
      "constant ": 6204,
      "Go": 6205,
      "Lew": 6206,
      "Little ": 6207,
      "wall": 6208,
      "this, ": 6209,
      "ing to the ": 6210,
      "atic": 6211,
      "acy ": 6212,
      "aged ": 6213,
      "find": 6214,
      "does a ": 6215,
      "series, ": 6216,
      "after a ": 6217,
      "killer": 6218,
      "find the ": 6219,
      "frequ": 6220,
      "following ": 6221,
      "spirit ": 6222,
      "Stewart ": 6223,
      "victim ": 6224,
      ".. ": 6225,
      "master ": 6226,
      ".<br /><br />Al": 6227,
      "to them": 6228,
      "you to ": 6229,
      "year-": 6230,
      "movie, and ": 6231,
      "party ": 6232,
      "berg": 6233,
      "100 ": 6234,
      "I have to ": 6235,
      "worth the ": 6236,
      "apparent ": 6237,
      "check": 6238,
      ".<br /><br />If you ": 6239,
      "professional ": 6240,
      "Jon": 6241,
      "list ": 6242,
      "ed on the ": 6243,
      "it! ": 6244,
      "in T": 6245,
      "ghost ": 6246,
      "lett": 6247,
      "leav": 6248,
      "tion and ": 6249,
      "showed ": 6250,
      "subject": 6251,
      "fram": 6252,
      "pair ": 6253,
      "pull ": 6254,
      "think that ": 6255,
      "attention": 6256,
      "bottom ": 6257,
      "Now ": 6258,
      "Will ": 6259,
      "mes": 6260,
      "hadn't ": 6261,
      "animal": 6262,
      "credit ": 6263,
      "worthy ": 6264,
      "approach ": 6265,
      "a couple ": 6266,
      "circum": 6267,
      "RA": 6268,
      "fits ": 6269,
      "anal": 6270,
      "on DVD": 6271,
      "irst": 6272,
      "you would ": 6273,
      "do the ": 6274,
      "scene": 6275,
      "made for ": 6276,
      "it is not ": 6277,
      "tedi": 6278,
      "take a ": 6279,
      "nowhere ": 6280,
      "race ": 6281,
      "transform": 6282,
      "field ": 6283,
      "release": 6284,
      "(S": 6285,
      "An ": 6286,
      "HO": 6287,
      "ahead ": 6288,
      "bomb": 6289,
      "ory ": 6290,
      "to me ": 6291,
      "as \"": 6292,
      "plots ": 6293,
      "eign ": 6294,
      "weal": 6295,
      "added ": 6296,
      "television": 6297,
      "based on the ": 6298,
      "magic ": 6299,
      "Fredd": 6300,
      "also the ": 6301,
      "language ": 6302,
      "awesome ": 6303,
      "philos": 6304,
      "ES ": 6305,
      "sour": 6306,
      "sitting ": 6307,
      "yr": 6308,
      "is quite ": 6309,
      "often": 6310,
      "rich": 6311,
      "sister": 6312,
      "really good ": 6313,
      "this movie was ": 6314,
      "capable ": 6315,
      ". Di": 6316,
      "girlfriend": 6317,
      "walk": 6318,
      ".<br /><br />One ": 6319,
      "Russian ": 6320,
      "tragic ": 6321,
      "Isl": 6322,
      "South ": 6323,
      "Ter": 6324,
      "for exampl": 6325,
      "record": 6326,
      "s. He ": 6327,
      "ishing ": 6328,
      "loved the ": 6329,
      "train ": 6330,
      "ected ": 6331,
      "ously, ": 6332,
      "Mich": 6333,
      "smil": 6334,
      "deserve ": 6335,
      "longer ": 6336,
      "student ": 6337,
      "began ": 6338,
      "public": 6339,
      "Broad": 6340,
      "manipul": 6341,
      "Law": 6342,
      "sun": 6343,
      "es were ": 6344,
      "out there ": 6345,
      ". The plot ": 6346,
      "you might ": 6347,
      "project": 6348,
      "phone ": 6349,
      "is not a ": 6350,
      "vision": 6351,
      "work, ": 6352,
      "organ": 6353,
      "Day": 6354,
      "Despite ": 6355,
      "His ": 6356,
      "Kev": 6357,
      "dated ": 6358,
      "yes, ": 6359,
      "ovi": 6360,
      "in it ": 6361,
      ", and he ": 6362,
      "ed, the ": 6363,
      "ag ": 6364,
      "so, ": 6365,
      "ister ": 6366,
      "Alan ": 6367,
      "give it ": 6368,
      "kidn": 6369,
      " thrill": 6370,
      "nudity ": 6371,
      "attempts to ": 6372,
      "Doc": 6373,
      "Ram": 6374,
      "gli": 6375,
      "i's ": 6376,
      "ip ": 6377,
      "pose ": 6378,
      "uit": 6379,
      "a young ": 6380,
      "why": 6381,
      "plan ": 6382,
      "some good ": 6383,
      "porn ": 6384,
      "sion of ": 6385,
      "why the ": 6386,
      ". There was ": 6387,
      "ment, ": 6388,
      "latter ": 6389,
      "must have been ": 6390,
      "culture": 6391,
      "setting ": 6392,
      "cheap": 6393,
      "today's ": 6394,
      "chore": 6395,
      "mbol": 6396,
      "Lor": 6397,
      "ai ": 6398,
      "ausi": 6399,
      "cold ": 6400,
      "net": 6401,
      "vampi": 6402,
      "era": 6403,
      "ano": 6404,
      "a huge ": 6405,
      "it wasn't ": 6406,
      "ague ": 6407,
      "so much": 6408,
      "all this ": 6409,
      "andy ": 6410,
      "minim": 6411,
      "blame ": 6412,
      "love and ": 6413,
      "icious ": 6414,
      "soundtrack": 6415,
      "admir": 6416,
      "80": 6417,
      "Jr": 6418,
      "hated ": 6419,
      "ert": 6420,
      "stair": 6421,
      "old, ": 6422,
      "this show ": 6423,
      "there is a ": 6424,
      "there were ": 6425,
      "plot and ": 6426,
      "without a ": 6427,
      "noir ": 6428,
      "provide ": 6429,
      "performances": 6430,
      "personally ": 6431,
      "icial ": 6432,
      "singing ": 6433,
      "speak": 6434,
      "doubt": 6435,
      "across the ": 6436,
      "dumb": 6437,
      "recogniz": 6438,
      "At ": 6439,
      "Jess": 6440,
      "Or ": 6441,
      "kick ": 6442,
      "zen": 6443,
      "s her ": 6444,
      "ors ": 6445,
      "lies ": 6446,
      "extra": 6447,
      "ago": 6448,
      "pre-": 6449,
      "flying ": 6450,
      ". This is the ": 6451,
      "interview": 6452,
      "attack ": 6453,
      "never really ": 6454,
      "love the ": 6455,
      "interesting and ": 6456,
      "found it ": 6457,
      "dark": 6458,
      "lease ": 6459,
      "spirit": 6460,
      "front": 6461,
      "stunning ": 6462,
      "70's ": 6463,
      "Watch": 6464,
      "Washing": 6465,
      "me and ": 6466,
      "roo": 6467,
      "a better ": 6468,
      "\" was ": 6469,
      "stori": 6470,
      "about his ": 6471,
      "we were ": 6472,
      "ly, the ": 6473,
      "did the ": 6474,
      "knowing ": 6475,
      "wife": 6476,
      "From ": 6477,
      "challeng": 6478,
      "Rock ": 6479,
      "cy": 6480,
      "fal": 6481,
      "on my ": 6482,
      "bed": 6483,
      "ers of ": 6484,
      "quick ": 6485,
      "specially ": 6486,
      "it's the ": 6487,
      "strange": 6488,
      "effectiv": 6489,
      "helps ": 6490,
      "here and ": 6491,
      "terribly ": 6492,
      "tension": 6493,
      "numbers ": 6494,
      "current ": 6495,
      "summar": 6496,
      "future": 6497,
      "European ": 6498,
      "circumst": 6499,
      "gem": 6500,
      "sent": 6501,
      "to show ": 6502,
      "movie with ": 6503,
      "etic ": 6504,
      "preh": 6505,
      ", but he ": 6506,
      ". I can't ": 6507,
      "how many ": 6508,
      "viewer": 6509,
      "again and ": 6510,
      "putting ": 6511,
      "soldiers ": 6512,
      "desperate ": 6513,
      "Don ": 6514,
      "IR": 6515,
      "a M": 6516,
      "lived ": 6517,
      "in the end ": 6518,
      "imit": 6519,
      "urely ": 6520,
      "movie.<br /><br />": 6521,
      "watching it ": 6522,
      "needed ": 6523,
      "needs to ": 6524,
      "mista": 6525,
      "avoid": 6526,
      "a family ": 6527,
      "Na": 6528,
      "Well ": 6529,
      "four": 6530,
      "fool": 6531,
      "hoo": 6532,
      "length ": 6533,
      "sick": 6534,
      "of my ": 6535,
      "for me": 6536,
      "scap": 6537,
      "you know ": 6538,
      "spor": 6539,
      "post-": 6540,
      "see this ": 6541,
      "for the most ": 6542,
      ". There is a ": 6543,
      "eating ": 6544,
      "corn": 6545,
      "theme ": 6546,
      "sadly ": 6547,
      "passion": 6548,
      "Very ": 6549,
      "ges ": 6550,
      "wand": 6551,
      "is in ": 6552,
      "spot": 6553,
      "a lot": 6554,
      "how bad ": 6555,
      "way that ": 6556,
      "reality": 6557,
      ". With": 6558,
      "America": 6559,
      "thinks ": 6560,
      "enjoyed the ": 6561,
      ". I'd ": 6562,
      "disappointed": 6563,
      "numerous ": 6564,
      "English": 6565,
      "audiences ": 6566,
      "speaking ": 6567,
      "pathetic ": 6568,
      "Ed ": 6569,
      "Fred ": 6570,
      "New": 6571,
      "fle": 6572,
      "I know ": 6573,
      ", and then ": 6574,
      "scener": 6575,
      "Jose": 6576,
      "music, ": 6577,
      "board": 6578,
      "without any ": 6579,
      "styl": 6580,
      "uniqu": 6581,
      "highly recommend ": 6582,
      "mistake ": 6583,
      "remarkable ": 6584,
      "hidden ": 6585,
      "King": 6586,
      "Sin": 6587,
      "kay": 6588,
      "none ": 6589,
      "s/": 6590,
      "s, and the ": 6591,
      "wra": 6592,
      "as C": 6593,
      "he had ": 6594,
      "I got ": 6595,
      "ador": 6596,
      "more of ": 6597,
      ", but this ": 6598,
      "impac": 6599,
      "some sort of ": 6600,
      "creas": 6601,
      "associ": 6602,
      "characters were ": 6603,
      "whole thing ": 6604,
      "Mark ": 6605,
      "viron": 6606,
      "understand the ": 6607,
      "mediocre ": 6608,
      "?? ": 6609,
      "Bal": 6610,
      "Jam": 6611,
      "cow": 6612,
      "ric": 6613,
      "and he ": 6614,
      "at first ": 6615,
      "I couldn't ": 6616,
      "oler": 6617,
      "scenes of ": 6618,
      "obses": 6619,
      "bad guy": 6620,
      "decad": 6621,
      "complex ": 6622,
      "originally ": 6623,
      "job of ": 6624,
      "REAL": 6625,
      "troubl": 6626,
      "genuinely ": 6627,
      "X ": 6628,
      "domin": 6629,
      "in's ": 6630,
      "and more ": 6631,
      "to play ": 6632,
      "verse ": 6633,
      "they have ": 6634,
      "years, ": 6635,
      "serial ": 6636,
      "addition ": 6637,
      "let me ": 6638,
      "grade ": 6639,
      "help but ": 6640,
      "adventure": 6641,
      "Johnny ": 6642,
      "superior ": 6643,
      "Jason ": 6644,
      "Jeff ": 6645,
      "Some ": 6646,
      "s. It's ": 6647,
      "vac": 6648,
      "into this ": 6649,
      ", even ": 6650,
      "alist ": 6651,
      "a H": 6652,
      "it really ": 6653,
      "lights ": 6654,
      "plane ": 6655,
      "with its ": 6656,
      "ademy ": 6657,
      "like \"": 6658,
      "some kind of ": 6659,
      "compare ": 6660,
      "America ": 6661,
      "vision ": 6662,
      "expectation": 6663,
      "boys ": 6664,
      "German": 6665,
      "wrot": 6666,
      "gorgeous ": 6667,
      "II ": 6668,
      "gros": 6669,
      "erc": 6670,
      "environ": 6671,
      "ed as a ": 6672,
      "ambi": 6673,
      "one who ": 6674,
      "ed-": 6675,
      "earth": 6676,
      "if I ": 6677,
      "growing ": 6678,
      "interpret": 6679,
      "!!!": 6680,
      "nothing": 6681,
      "take the ": 6682,
      "location": 6683,
      "cast, ": 6684,
      "extreme ": 6685,
      "one of them ": 6686,
      "authent": 6687,
      "demonstr": 6688,
      "mouth": 6689,
      "?)": 6690,
      "Daw": 6691,
      "Hard": 6692,
      "U.S": 6693,
      "YOU": 6694,
      "date ": 6695,
      "e' ": 6696,
      "i.": 6697,
      " there": 6698,
      "to my ": 6699,
      "was an ": 6700,
      "siz": 6701,
      "e, a ": 6702,
      "agger": 6703,
      "film, and ": 6704,
      "- a ": 6705,
      "blon": 6706,
      "mean, ": 6707,
      "similar": 6708,
      "ultimate ": 6709,
      "13": 6710,
      " thing ": 6711,
      "evit": 6712,
      "assist": 6713,
      "degre": 6714,
      "grew ": 6715,
      "Anth": 6716,
      "son and ": 6717,
      "rush": 6718,
      "feel like ": 6719,
      "concep": 6720,
      "discovers ": 6721,
      "less, ": 6722,
      "cute ": 6723,
      "ridiculous": 6724,
      "quality": 6725,
      "business": 6726,
      ",and ": 6727,
      "At": 6728,
      "onic": 6729,
      "it will ": 6730,
      "dig": 6731,
      "his wife ": 6732,
      "deals ": 6733,
      "othy ": 6734,
      "films. ": 6735,
      "movies and ": 6736,
      "contempor": 6737,
      "alien": 6738,
      "scientist ": 6739,
      "cultur": 6740,
      ". I'm not ": 6741,
      "holds ": 6742,
      "childhood ": 6743,
      "loud ": 6744,
      "BE": 6745,
      "Bab": 6746,
      "Kur": 6747,
      "backs ": 6748,
      "an-": 6749,
      "enth": 6750,
      "a R": 6751,
      "ed my ": 6752,
      "ti ": 6753,
      "among": 6754,
      "shock ": 6755,
      "identi": 6756,
      "about this movie ": 6757,
      "good and ": 6758,
      ". Over": 6759,
      "accent ": 6760,
      "compan": 6761,
      "symbol": 6762,
      "decide to ": 6763,
      "EN ": 6764,
      "disturbing ": 6765,
      "appropriate ": 6766,
      "Young ": 6767,
      "melodram": 6768,
      "West ": 6769,
      "gro": 6770,
      "e in ": 6771,
      "refresh": 6772,
      "ate and ": 6773,
      "icr": 6774,
      "bum": 6775,
      "eck": 6776,
      "comb": 6777,
      "road": 6778,
      "for it": 6779,
      ") are ": 6780,
      "herself": 6781,
      "away from the ": 6782,
      "void ": 6783,
      "IN ": 6784,
      "boyfriend ": 6785,
      "regular ": 6786,
      ". At the ": 6787,
      "One of the ": 6788,
      "wild ": 6789,
      "Smith": 6790,
      ". All the ": 6791,
      "gratuit": 6792,
      "50": 6793,
      "Gord": 6794,
      "ID": 6795,
      "hits ": 6796,
      "anz": 6797,
      "ensi": 6798,
      "chanc": 6799,
      "ison": 6800,
      "trash ": 6801,
      "time.<br /><br />": 6802,
      "finished ": 6803,
      "White ": 6804,
      "ful and ": 6805,
      "presence ": 6806,
      "presents ": 6807,
      "every time ": 6808,
      ". There were ": 6809,
      "friends and ": 6810,
      "making the ": 6811,
      " think that ": 6812,
      ", there is ": 6813,
      "become a ": 6814,
      "touching ": 6815,
      "sheer ": 6816,
      "Victori": 6817,
      "Jennif": 6818,
      "MA": 6819,
      "Str": 6820,
      "band": 6821,
      "e. It ": 6822,
      "fear ": 6823,
      "lot": 6824,
      "rough": 6825,
      "o (": 6826,
      "at and ": 6827,
      "with that ": 6828,
      "compreh": 6829,
      "you should ": 6830,
      "up in ": 6831,
      "where they ": 6832,
      "ress ": 6833,
      "join": 6834,
      "answer": 6835,
      "far more ": 6836,
      "priv": 6837,
      "Gene ": 6838,
      "Sec": 6839,
      "VE ": 6840,
      "oh": 6841,
      "then the ": 6842,
      "er, and ": 6843,
      "not just ": 6844,
      ") to ": 6845,
      "finest ": 6846,
      "ed to see ": 6847,
      "murders ": 6848,
      "seen this ": 6849,
      ". Also, ": 6850,
      "traditional ": 6851,
      "==": 6852,
      "Sher": 6853,
      " this, ": 6854,
      "reun": 6855,
      "as bad ": 6856,
      "es for ": 6857,
      "icate ": 6858,
      "lig": 6859,
      ". Too ": 6860,
      "amor": 6861,
      ".<br /><br />What ": 6862,
      "or of ": 6863,
      "knew": 6864,
      ", these ": 6865,
      "nothing but ": 6866,
      "includes ": 6867,
      "realize that ": 6868,
      "lives": 6869,
      "written by ": 6870,
      "proceed": 6871,
      "compelling ": 6872,
      "atmospher": 6873,
      "nasty ": 6874,
      "Can": 6875,
      "Cana": 6876,
      "Sol": 6877,
      "rical ": 6878,
      "s. This ": 6879,
      "state ": 6880,
      "in all": 6881,
      "ist of ": 6882,
      "forni": 6883,
      "ection ": 6884,
      "charming ": 6885,
      "more like ": 6886,
      "th and ": 6887,
      "makes a ": 6888,
      "note ": 6889,
      "no-": 6890,
      "music is ": 6891,
      "doctor": 6892,
      "ately": 6893,
      "breaks ": 6894,
      "control": 6895,
      "Univers": 6896,
      "11": 6897,
      "Jean ": 6898,
      "Rock": 6899,
      "ival": 6900,
      "intr": 6901,
      "becoming ": 6902,
      ". After": 6903,
      "ope ": 6904,
      "so they ": 6905,
      "***": 6906,
      "veter": 6907,
      "aliforni": 6908,
      "wife, ": 6909,
      "director's ": 6910,
      "including the ": 6911,
      "pulled ": 6912,
      "double ": 6913,
      ".<br /><br />Over": 6914,
      "werew": 6915,
      "musical": 6916,
      "Sil": 6917,
      "fying ": 6918,
      "witch": 6919,
      "and that ": 6920,
      "ed (": 6921,
      "in a b": 6922,
      ".<br /><br />F": 6923,
      "prev": 6924,
      "fights ": 6925,
      "load": 6926,
      "down to ": 6927,
      "begins ": 6928,
      ", they are ": 6929,
      "suffer": 6930,
      "climax ": 6931,
      "ED ": 6932,
      "IC": 6933,
      "Tim ": 6934,
      "i'": 6935,
      "ia": 6936,
      "arts ": 6937,
      "plann": 6938,
      "super ": 6939,
      "ts the ": 6940,
      "just about ": 6941,
      "aud": 6942,
      "very good": 6943,
      "ocal ": 6944,
      "kness ": 6945,
      "known": 6946,
      "get me ": 6947,
      "? <br /><br />": 6948,
      "bling ": 6949,
      "a low ": 6950,
      "committ": 6951,
      "a sens": 6952,
      "worth a ": 6953,
      "reasons ": 6954,
      "affair ": 6955,
      "Barbar": 6956,
      "while, ": 6957,
      "remains ": 6958,
      "hotel ": 6959,
      "Ol": 6960,
      "of any ": 6961,
      "whel": 6962,
      "I guess ": 6963,
      "rad": 6964,
      "rage ": 6965,
      ", and that ": 6966,
      "film with ": 6967,
      "movies are ": 6968,
      "corrup": 6969,
      "warm": 6970,
      "demand": 6971,
      " that, ": 6972,
      "breaking ": 6973,
      "-and-": 6974,
      "Ray ": 6975,
      "aim ": 6976,
      "factor": 6977,
      "tem": 6978,
      "a D": 6979,
      "island ": 6980,
      "ative": 6981,
      "film, but ": 6982,
      "ill, ": 6983,
      "scenari": 6984,
      "? It ": 6985,
      "blu": 6986,
      "i have ": 6987,
      "on the other ": 6988,
      "Stu": 6989,
      "way too ": 6990,
      "monster": 6991,
      ". Every ": 6992,
      "value ": 6993,
      "cious ": 6994,
      "itchc": 6995,
      "drop ": 6996,
      "figure out ": 6997,
      "hilarious": 6998,
      "Tarz": 6999,
      "Sal": 7000,
      "Yes, ": 7001,
      "hit": 7002,
      "host ": 7003,
      "tack": 7004,
      "vampire ": 7005,
      "increas": 7006,
      "chos": 7007,
      "forgotten ": 7008,
      "irty ": 7009,
      "films and ": 7010,
      "s, a ": 7011,
      "just like ": 7012,
      "would not ": 7013,
      "up a ": 7014,
      "Chil": 7015,
      "directing ": 7016,
      "appl": 7017,
      "there is no ": 7018,
      "slap": 7019,
      ". First ": 7020,
      "trem": 7021,
      "entertaining": 7022,
      "driv": 7023,
      "a series of ": 7024,
      "information ": 7025,
      "Al ": 7026,
      "Kell": 7027,
      "wy": 7028,
      "wide ": 7029,
      "alco": 7030,
      "altern": 7031,
      "chol": 7032,
      "was that ": 7033,
      "eman ": 7034,
      "six": 7035,
      "just plain ": 7036,
      "only the ": 7037,
      "intend": 7038,
      "end to ": 7039,
      "overly ": 7040,
      "...and ": 7041,
      "everybody ": 7042,
      "cast of ": 7043,
      "becomes a ": 7044,
      "painfully ": 7045,
      "brain ": 7046,
      "London ": 7047,
      "Jimmy ": 7048,
      "Kid": 7049,
      "fans": 7050,
      "mare ": 7051,
      "pain ": 7052,
      "ing in the ": 7053,
      "at times": 7054,
      "activ": 7055,
      "ely, ": 7056,
      "on its ": 7057,
      "on screen": 7058,
      "finding ": 7059,
      "pop ": 7060,
      "ant and ": 7061,
      "does it ": 7062,
      "produced ": 7063,
      "better than": 7064,
      "ness and ": 7065,
      "superb": 7066,
      "IMDb": 7067,
      "Girl": 7068,
      "Ka": 7069,
      "Ren": 7070,
      "besid": 7071,
      "ck ": 7072,
      "sta": 7073,
      "ice": 7074,
      "who, ": 7075,
      "secur": 7076,
      ") and the ": 7077,
      "ation that ": 7078,
      "direct ": 7079,
      "offer ": 7080,
      "saw the ": 7081,
      "personality ": 7082,
      "recommend": 7083,
      "absolutely no ": 7084,
      "intense ": 7085,
      "fiction ": 7086,
      "protagonist": 7087,
      "Good": 7088,
      "ler": 7089,
      "reput": 7090,
      "ili": 7091,
      "in many ": 7092,
      "event ": 7093,
      "or two ": 7094,
      "ed\" ": 7095,
      "s, which ": 7096,
      "obsess": 7097,
      "up for ": 7098,
      "way the ": 7099,
      "crash": 7100,
      "ress": 7101,
      "THIS ": 7102,
      "walks ": 7103,
      "Eddie ": 7104,
      "ing through the ": 7105,
      "LE ": 7106,
      "Vinc": 7107,
      "mood": 7108,
      "round ": 7109,
      "slea": 7110,
      "western": 7111,
      "ating": 7112,
      "at that ": 7113,
      "or so ": 7114,
      "this film is ": 7115,
      "fail ": 7116,
      "essentially ": 7117,
      "goof": 7118,
      "because it's ": 7119,
      "Ander": 7120,
      "life of ": 7121,
      "real life ": 7122,
      "brothers ": 7123,
      "having a ": 7124,
      "number": 7125,
      "culture ": 7126,
      "haven't seen ": 7127,
      "apartment ": 7128,
      "practically ": 7129,
      "Danny ": 7130,
      "Ben": 7131,
      "He": 7132,
      "Si": 7133,
      "canc": 7134,
      "dom ": 7135,
      ". The acting is ": 7136,
      "scenes and ": 7137,
      "prou": 7138,
      "love, ": 7139,
      "herent ": 7140,
      "when it was ": 7141,
      "at the time ": 7142,
      "show, ": 7143,
      "subtit": 7144,
      "too, ": 7145,
      "nox": 7146,
      "going on": 7147,
      "alive ": 7148,
      "involves ": 7149,
      ". Con": 7150,
      "suspect ": 7151,
      "more than a ": 7152,
      ". At least ": 7153,
      "Earth": 7154,
      "descrip": 7155,
      "12 ": 7156,
      "Gary ": 7157,
      "Mid": 7158,
      "i-": 7159,
      "udo": 7160,
      "been the ": 7161,
      "olf": 7162,
      "one to ": 7163,
      "more, ": 7164,
      "about to ": 7165,
      "block": 7166,
      "disappear": 7167,
      "*** ": 7168,
      "high-": 7169,
      "day, ": 7170,
      "cast and ": 7171,
      "roll ": 7172,
      "proves ": 7173,
      "came out ": 7174,
      "ugly ": 7175,
      "ength": 7176,
      "written": 7177,
      "etc.": 7178,
      "married ": 7179,
      "compared to ": 7180,
      "Viet": 7181,
      "Because ": 7182,
      "sacri": 7183,
      "choreograph": 7184,
      "Aust": 7185,
      "Some": 7186,
      "Tri": 7187,
      "yell": 7188,
      "inking ": 7189,
      "eral ": 7190,
      "reat ": 7191,
      "stom": 7192,
      "in the movie": 7193,
      "pregn": 7194,
      "reck": 7195,
      "final": 7196,
      ". Though ": 7197,
      "met ": 7198,
      "This film is ": 7199,
      "lyn": 7200,
      "such an ": 7201,
      "empt": 7202,
      "feeling": 7203,
      "someone who ": 7204,
      "enjoy the ": 7205,
      "I don't think ": 7206,
      "result": 7207,
      "whilst ": 7208,
      "jump ": 7209,
      ". Only ": 7210,
      "extra ": 7211,
      "gonna ": 7212,
      "techniqu": 7213,
      "\"O": 7214,
      ") that ": 7215,
      "Chi": 7216,
      "Lau": 7217,
      "bath": 7218,
      "ged ": 7219,
      "s), ": 7220,
      "uk": 7221,
      "ar, ": 7222,
      "er of the ": 7223,
      "es from ": 7224,
      "time. The ": 7225,
      "even a ": 7226,
      "for the first ": 7227,
      "Steven ": 7228,
      "eyes": 7229,
      "Andy ": 7230,
      ". And, ": 7231,
      "gets a ": 7232,
      "content ": 7233,
      "animal ": 7234,
      "limited ": 7235,
      "week ": 7236,
      "save the ": 7237,
      "million": 7238,
      "propag": 7239,
      "90": 7240,
      "d's ": 7241,
      "s. A ": 7242,
      "val ": 7243,
      "orm": 7244,
      "stage": 7245,
      "in fact": 7246,
      "guar": 7247,
      "over-the-": 7248,
      "attitu": 7249,
      "a cam": 7250,
      ". Or ": 7251,
      "work of ": 7252,
      "hope that ": 7253,
      "to make a ": 7254,
      "distinc": 7255,
      "gives a ": 7256,
      "students ": 7257,
      "nicely ": 7258,
      "secret": 7259,
      "brief ": 7260,
      "system": 7261,
      "11 ": 7262,
      "May": 7263,
      "There's ": 7264,
      "lud": 7265,
      "s from ": 7266,
      "on (": 7267,
      "pless ": 7268,
      "for no ": 7269,
      "like that": 7270,
      "vidu": 7271,
      "just to ": 7272,
      "has an ": 7273,
      "epic ": 7274,
      "gie ": 7275,
      "blown ": 7276,
      "anybody ": 7277,
      "Ann ": 7278,
      "mission ": 7279,
      ". When the ": 7280,
      ". Other": 7281,
      "show is ": 7282,
      "was, ": 7283,
      "deliver ": 7284,
      "ally, the ": 7285,
      "strain": 7286,
      "stream ": 7287,
      "OR ": 7288,
      "semble ": 7289,
      "witness": 7290,
      "Allen ": 7291,
      "House ": 7292,
      "Spanish ": 7293,
      "categor": 7294,
      "Des": 7295,
      "Lam": 7296,
      "dying ": 7297,
      "len": 7298,
      "ened ": 7299,
      ", which is ": 7300,
      "army ": 7301,
      "stock ": 7302,
      "acqu": 7303,
      "tives ": 7304,
      "dies": 7305,
      ".<br /><br />My ": 7306,
      "or is ": 7307,
      "all these ": 7308,
      "via ": 7309,
      "ety ": 7310,
      "finitely ": 7311,
      "! And ": 7312,
      "design ": 7313,
      "films are ": 7314,
      "all the way ": 7315,
      "scenes that ": 7316,
      "Mike ": 7317,
      "director, ": 7318,
      "........": 7319,
      "group": 7320,
      "okay": 7321,
      "punch": 7322,
      "level of ": 7323,
      "Adam ": 7324,
      "independent ": 7325,
      "i'm ": 7326,
      "\".": 7327,
      "bon": 7328,
      "dred ": 7329,
      "food ": 7330,
      "kis": 7331,
      "rep": 7332,
      "I must ": 7333,
      "seven ": 7334,
      "this movie, ": 7335,
      "endous ": 7336,
      "produce ": 7337,
      "? And ": 7338,
      "loving ": 7339,
      "thern ": 7340,
      "lying ": 7341,
      "matic ": 7342,
      "scene is ": 7343,
      "accord": 7344,
      "----": 7345,
      ". If you're ": 7346,
      "visual": 7347,
      "distri": 7348,
      "saw it ": 7349,
      ".<br /><br />All ": 7350,
      "developed ": 7351,
      "necessarily ": 7352,
      "commentary ": 7353,
      "provides ": 7354,
      ". Perhaps ": 7355,
      "shocking ": 7356,
      "year-old ": 7357,
      "\"A ": 7358,
      "Haw": 7359,
      "Pri": 7360,
      "Rit": 7361,
      "pick": 7362,
      "iction": 7363,
      "ter, ": 7364,
      ". I guess ": 7365,
      "god ": 7366,
      "when a ": 7367,
      "grown ": 7368,
      "because it was ": 7369,
      "made by ": 7370,
      "never been ": 7371,
      "look at the ": 7372,
      "figure": 7373,
      ". Instead": 7374,
      "over and over ": 7375,
      "forgettable ": 7376,
      "CGI ": 7377,
      "glimp": 7378,
      "Paul": 7379,
      "tick": 7380,
      "treas": 7381,
      " the other ": 7382,
      "atta": 7383,
      "at best": 7384,
      "as a s": 7385,
      "of it ": 7386,
      "he doesn't ": 7387,
      "asle": 7388,
      "ppar": 7389,
      "trust ": 7390,
      "award": 7391,
      ". I just ": 7392,
      "somebody ": 7393,
      "th cent": 7394,
      "ation is ": 7395,
      "bian ": 7396,
      "e--": 7397,
      "relate ": 7398,
      "ment of ": 7399,
      "camp ": 7400,
      "serves ": 7401,
      "Paris ": 7402,
      "falling ": 7403,
      "relationships ": 7404,
      "sident ": 7405,
      "at the same time ": 7406,
      "garbage": 7407,
      "\", and ": 7408,
      "Cain": 7409,
      "Hill": 7410,
      "card": 7411,
      "ved": 7412,
      "ilog": 7413,
      "ac ": 7414,
      "el, ": 7415,
      "I like ": 7416,
      ". Tw": 7417,
      "his best ": 7418,
      "destruc": 7419,
      "proper ": 7420,
      "story that ": 7421,
      ", then": 7422,
      "grad": 7423,
      "action, ": 7424,
      "market": 7425,
      "normally ": 7426,
      "body": 7427,
      "genuine ": 7428,
      "Douglas ": 7429,
      "a large ": 7430,
      "kidnapp": 7431,
      "enthusi": 7432,
      "Every ": 7433,
      "Hitchc": 7434,
      "a\" ": 7435,
      "s at ": 7436,
      "itz": 7437,
      "elec": 7438,
      "that she ": 7439,
      "some people ": 7440,
      "mech": 7441,
      "soap ": 7442,
      "assass": 7443,
      "ance of ": 7444,
      "out of 10 ": 7445,
      "image ": 7446,
      "Black": 7447,
      "worth watch": 7448,
      "aire ": 7449,
      "purpose ": 7450,
      "ism and ": 7451,
      "quiet ": 7452,
      "justice ": 7453,
      "occasionally ": 7454,
      "garbage ": 7455,
      "soul ": 7456,
      "whatsoever": 7457,
      "LA": 7458,
      "Love ": 7459,
      "To": 7460,
      "__": 7461,
      "bill": 7462,
      "path": 7463,
      "winn": 7464,
      "enter": 7465,
      "who have ": 7466,
      "creates ": 7467,
      ". Both ": 7468,
      "Che": 7469,
      "astic ": 7470,
      "ence. ": 7471,
      "book, ": 7472,
      "Carl": 7473,
      "broad": 7474,
      "failed ": 7475,
      "seems to have ": 7476,
      "fashion": 7477,
      "trailer ": 7478,
      "in love with ": 7479,
      "70": 7480,
      "Dick ": 7481,
      "Fest": 7482,
      "bid": 7483,
      "equi": 7484,
      "nau": 7485,
      "ran ": 7486,
      "would": 7487,
      "s to the ": 7488,
      "y for ": 7489,
      "el's ": 7490,
      "I liked ": 7491,
      "shin": 7492,
      "advis": 7493,
      "hi ": 7494,
      "sport": 7495,
      "too much": 7496,
      "Americans ": 7497,
      "may not ": 7498,
      "later, ": 7499,
      "frank": 7500,
      "making a ": 7501,
      "/10.": 7502,
      "controver": 7503,
      "ival ": 7504,
      "law ": 7505,
      "I saw this ": 7506,
      "Donald ": 7507,
      "individu": 7508,
      "terms of ": 7509,
      "Murph": 7510,
      "remot": 7511,
      "Anthony ": 7512,
      "hall": 7513,
      "ol ": 7514,
      "send ": 7515,
      "ense ": 7516,
      ", it is ": 7517,
      "a man ": 7518,
      "assum": 7519,
      "shel": 7520,
      "perc": 7521,
      "mand": 7522,
      "very well": 7523,
      "really bad ": 7524,
      "i and ": 7525,
      "flat": 7526,
      "flicks ": 7527,
      "This is the ": 7528,
      "This movie was ": 7529,
      "relatively ": 7530,
      "feelings ": 7531,
      ". Even the ": 7532,
      " there was ": 7533,
      "gaz": 7534,
      "changed ": 7535,
      "rape ": 7536,
      "Sean ": 7537,
      "adults ": 7538,
      "chance to ": 7539,
      "a serious ": 7540,
      "accurate ": 7541,
      "captured ": 7542,
      "Nic": 7543,
      "c ": 7544,
      "cyn": 7545,
      "ing? ": 7546,
      "foreign ": 7547,
      "but it's ": 7548,
      " that it ": 7549,
      "time of ": 7550,
      "gue ": 7551,
      "loves ": 7552,
      "ing than ": 7553,
      "American": 7554,
      "happened ": 7555,
      "hands ": 7556,
      "disappointment": 7557,
      "driven ": 7558,
      "Film": 7559,
      "genius ": 7560,
      "awkward ": 7561,
      "Ke": 7562,
      "Ms. ": 7563,
      "Scar": 7564,
      "egr": 7565,
      "fted ": 7566,
      "on your ": 7567,
      "ollyw": 7568,
      " that they ": 7569,
      "model": 7570,
      ". She's ": 7571,
      ".<br /><br />The movie ": 7572,
      "thriller ": 7573,
      " they were ": 7574,
      "such as the ": 7575,
      "may not be ": 7576,
      "screenplay": 7577,
      "primar": 7578,
      "thought": 7579,
      "development": 7580,
      ".<br /><br />So ": 7581,
      "listen": 7582,
      "okay ": 7583,
      "Nichol": 7584,
      "creature": 7585,
      "largely ": 7586,
      "folks ": 7587,
      "specif": 7588,
      "Eliz": 7589,
      "If": 7590,
      "Les": 7591,
      "Last ": 7592,
      "Sant": 7593,
      "inevit": 7594,
      "are, ": 7595,
      "a P": 7596,
      "ising ": 7597,
      "of the film is ": 7598,
      "for one ": 7599,
      "de, ": 7600,
      "film to ": 7601,
      "you have to ": 7602,
      ". I really ": 7603,
      "clever": 7604,
      "guid": 7605,
      "soon": 7606,
      "marvel": 7607,
      "if you can ": 7608,
      "reviewers ": 7609,
      "emotionally ": 7610,
      "student": 7611,
      "ended up ": 7612,
      "belong": 7613,
      ". One of the ": 7614,
      "worse than ": 7615,
      "baby ": 7616,
      "EVER ": 7617,
      "choose ": 7618,
      "Joseph ": 7619,
      "-of-": 7620,
      "cen": 7621,
      "really, ": 7622,
      "icking ": 7623,
      "tire": 7624,
      "only a ": 7625,
      "? Why ": 7626,
      "love": 7627,
      "I don't know ": 7628,
      "ition of ": 7629,
      "virtually ": 7630,
      "comedies ": 7631,
      "lawy": 7632,
      "People ": 7633,
      "dangerous ": 7634,
      "reminis": 7635,
      "received ": 7636,
      "threat": 7637,
      "Batman ": 7638,
      "ologi": 7639,
      "Adam": 7640,
      "Hallow": 7641,
      "Nick ": 7642,
      "lacking ": 7643,
      "se of ": 7644,
      "van": 7645,
      "a C": 7646,
      "omen": 7647,
      "es on ": 7648,
      "he does ": 7649,
      "sev": 7650,
      "ure of ": 7651,
      "le and ": 7652,
      "exagger": 7653,
      ". Then": 7654,
      "ks to ": 7655,
      "blind ": 7656,
      "ife ": 7657,
      "grow ": 7658,
      "ing these ": 7659,
      "got a ": 7660,
      "world, ": 7661,
      "begin to ": 7662,
      "ancient ": 7663,
      "impact ": 7664,
      "!\"": 7665,
      "Hor": 7666,
      "Tit": 7667,
      "Will": 7668,
      "mouth ": 7669,
      "ww": 7670,
      "wood ": 7671,
      "é ": 7672,
      "aliz": 7673,
      "atro": 7674,
      "eless, ": 7675,
      "it does ": 7676,
      "was also ": 7677,
      "di ": 7678,
      "sign ": 7679,
      ". The film is ": 7680,
      "you just ": 7681,
      "water": 7682,
      "twice ": 7683,
      ". Those ": 7684,
      "ation for ": 7685,
      "boring and ": 7686,
      "producer ": 7687,
      "captiv": 7688,
      "role, ": 7689,
      "horror film ": 7690,
      "... and ": 7691,
      "main characters ": 7692,
      "fans of ": 7693,
      "artist ": 7694,
      "nightmar": 7695,
      "front of ": 7696,
      "both the ": 7697,
      "twenty ": 7698,
      "Ash": 7699,
      "Domin": 7700,
      "OL": 7701,
      "ging ": 7702,
      "gold": 7703,
      ", to ": 7704,
      ". You": 7705,
      "reaction": 7706,
      "stro": 7707,
      "died ": 7708,
      "of the movie": 7709,
      "edom": 7710,
      "etur": 7711,
      ". So, ": 7712,
      "a bo": 7713,
      "there, ": 7714,
      "ture of ": 7715,
      "illiant ": 7716,
      "performances are ": 7717,
      "portrayed ": 7718,
      "Green": 7719,
      "building ": 7720,
      "hours of ": 7721,
      "strongly ": 7722,
      "pilot ": 7723,
      ". In fact, ": 7724,
      "attempt at ": 7725,
      "nominated ": 7726,
      "aturday ": 7727,
      "psychological ": 7728,
      "propagand": 7729,
      "electr": 7730,
      "\"I ": 7731,
      "Ali": 7732,
      "Dem": 7733,
      "Fa": 7734,
      "ST ": 7735,
      "Vir": 7736,
      "aving ": 7737,
      "ring": 7738,
      "atch ": 7739,
      "his character ": 7740,
      " this was ": 7741,
      "quest ": 7742,
      "endless ": 7743,
      "ease": 7744,
      "ations of ": 7745,
      "a bre": 7746,
      ". But, ": 7747,
      "paper": 7748,
      "girl who ": 7749,
      "once again ": 7750,
      "actresses ": 7751,
      "built ": 7752,
      "limit": 7753,
      "low-budget ": 7754,
      "dollar": 7755,
      "shadow": 7756,
      "But": 7757,
      "Nat": 7758,
      "Trac": 7759,
      "eag": 7760,
      "test ": 7761,
      "tual ": 7762,
      ". and ": 7763,
      "and was ": 7764,
      "on S": 7765,
      "or to ": 7766,
      "le of ": 7767,
      "more. ": 7768,
      "club": 7769,
      "lood": 7770,
      "had some ": 7771,
      "lover ": 7772,
      "we've ": 7773,
      "before": 7774,
      "course ": 7775,
      "here is ": 7776,
      "enjoyable": 7777,
      "street": 7778,
      "brilliantly ": 7779,
      ". Once ": 7780,
      "characteriz": 7781,
      "Hay": 7782,
      "gain ": 7783,
      "s--": 7784,
      ", no ": 7785,
      "esome ": 7786,
      "ago ": 7787,
      "award ": 7788,
      "meth": 7789,
      "were not ": 7790,
      "gritt": 7791,
      "100": 7792,
      "worst movie ": 7793,
      "driving ": 7794,
      "clean": 7795,
      "machin": 7796,
      "Smith ": 7797,
      "Alexand": 7798,
      "Jennifer ": 7799,
      "a sense of ": 7800,
      "); ": 7801,
      "2) ": 7802,
      "BO": 7803,
      "Hea": 7804,
      "Tex": 7805,
      "dama": 7806,
      "prais": 7807,
      "in to ": 7808,
      "maz": 7809,
      ", and his ": 7810,
      ". As the ": 7811,
      "bland ": 7812,
      "gosi": 7813,
      "how it ": 7814,
      "porn": 7815,
      "over a ": 7816,
      "espear": 7817,
      "I've seen": 7818,
      "better than the ": 7819,
      "yet another ": 7820,
      "people and ": 7821,
      "follows ": 7822,
      "like, ": 7823,
      "stretch": 7824,
      "to say that ": 7825,
      "suffers ": 7826,
      "creature ": 7827,
      "supporting cast ": 7828,
      "out of 10.": 7829,
      "figured ": 7830,
      ". Unfortunately ": 7831,
      "laughable": 7832,
      "delightful ": 7833,
      "World War ": 7834,
      "angry ": 7835,
      ",000 ": 7836,
      ". Direc": 7837,
      "Cru": 7838,
      "MG": 7839,
      "Rain": 7840,
      "oid ": 7841,
      "wash": 7842,
      "anic ": 7843,
      "ing out ": 7844,
      "econ": 7845,
      "are so ": 7846,
      "otic": 7847,
      "ks and ": 7848,
      "ousy ": 7849,
      "aper ": 7850,
      "related ": 7851,
      "looking for a ": 7852,
      "takes the ": 7853,
      "serve ": 7854,
      "over the top ": 7855,
      "a movie that ": 7856,
      "falls in ": 7857,
      "Beau": 7858,
      "atory ": 7859,
      "detail ": 7860,
      "Perhaps ": 7861,
      "bloody ": 7862,
      "gangster ": 7863,
      "reminded ": 7864,
      "formula": 7865,
      "Tal": 7866,
      "bright ": 7867,
      "eful ": 7868,
      "gard": 7869,
      "wall ": 7870,
      "it? ": 7871,
      "in which the ": 7872,
      "an (": 7873,
      "on screen ": 7874,
      "sed, ": 7875,
      "within ": 7876,
      "asking ": 7877,
      "ulliv": 7878,
      "by his ": 7879,
      "prefer": 7880,
      "her and ": 7881,
      "prost": 7882,
      "poign": 7883,
      "integr": 7884,
      "even if ": 7885,
      "ation to ": 7886,
      "iff ": 7887,
      "grow": 7888,
      "' is ": 7889,
      "bored ": 7890,
      "ing that the ": 7891,
      "latest ": 7892,
      "horror movie ": 7893,
      "decide ": 7894,
      "tell you ": 7895,
      "understand why ": 7896,
      "adult": 7897,
      "Only ": 7898,
      "folk": 7899,
      "club ": 7900,
      "benef": 7901,
      "blonde ": 7902,
      ") the ": 7903,
      "30": 7904,
      "Asian ": 7905,
      "lu": 7906,
      "ness, ": 7907,
      "ra ": 7908,
      "would've ": 7909,
      "ensu": 7910,
      "reaction ": 7911,
      "stin": 7912,
      "for those ": 7913,
      "have": 7914,
      "ently": 7915,
      "which I ": 7916,
      "ong K": 7917,
      "ency ": 7918,
      "Ste": 7919,
      "cris": 7920,
      "interesting, ": 7921,
      "treat ": 7922,
      "crappy ": 7923,
      "characters. ": 7924,
      "script and ": 7925,
      "disappointing ": 7926,
      "Leon": 7927,
      "a very good ": 7928,
      "questions ": 7929,
      "kinda ": 7930,
      ". Some of the ": 7931,
      "Eric ": 7932,
      ". Very ": 7933,
      "VHS ": 7934,
      "Canadian ": 7935,
      "Dun": 7936,
      "Did ": 7937,
      "Rach": 7938,
      "da": 7939,
      "mate ": 7940,
      "anth": 7941,
      "enz": 7942,
      "onder": 7943,
      "ates the ": 7944,
      "es is ": 7945,
      "unbelievable ": 7946,
      "case, ": 7947,
      "spective ": 7948,
      "screw": 7949,
      "concei": 7950,
      "counter": 7951,
      "civil": 7952,
      "in 198": 7953,
      "marriage ": 7954,
      "Academy ": 7955,
      "laughable ": 7956,
      "scientist": 7957,
      "ludicr": 7958,
      "1st ": 7959,
      "Sk": 7960,
      "Ton": 7961,
      "toler": 7962,
      "alist": 7963,
      "at one ": 7964,
      "chose ": 7965,
      "as this ": 7966,
      "oved ": 7967,
      "bet ": 7968,
      "ooper": 7969,
      "p and ": 7970,
      "in the end": 7971,
      ". It also ": 7972,
      "overwhel": 7973,
      "will not ": 7974,
      "Anim": 7975,
      "a surpris": 7976,
      "), who ": 7977,
      "give the ": 7978,
      ". For": 7979,
      "prove ": 7980,
      "this film was ": 7981,
      "small": 7982,
      "tells the ": 7983,
      "alien ": 7984,
      "John C": 7985,
      "Princ": 7986,
      "VERY ": 7987,
      "Having ": 7988,
      "revolution": 7989,
      "Daniel ": 7990,
      "condition": 7991,
      "contemporary ": 7992,
      "Bre": 7993,
      "Kate ": 7994,
      "Seri": 7995,
      "Ul": 7996,
      "bar ": 7997,
      "k's ": 7998,
      "s'": 7999,
      "aring ": 8000,
      "rel ": 8001,
      "stick": 8002,
      "it, I ": 8003,
      "on TV": 8004,
      "within the ": 8005,
      "out for ": 8006,
      "comic": 8007,
      "get, ": 8008,
      ". The first ": 8009,
      "agent ": 8010,
      "more of a ": 8011,
      "stories": 8012,
      "her to ": 8013,
      ", but they ": 8014,
      "is a little ": 8015,
      "loose ": 8016,
      "meas": 8017,
      "man (": 8018,
      "many people ": 8019,
      "son (": 8020,
      "ing this": 8021,
      "work and ": 8022,
      "horribly ": 8023,
      "version of the ": 8024,
      "reason why ": 8025,
      "talking about ": 8026,
      "dynam": 8027,
      "Earth ": 8028,
      "journ": 8029,
      "Victor ": 8030,
      "intentionally ": 8031,
      "comfortable ": 8032,
      "connection ": 8033,
      "martial arts ": 8034,
      "Bon": 8035,
      "Lady ": 8036,
      "Tor": 8037,
      "fly ": 8038,
      "kick": 8039,
      "skin": 8040,
      "is it ": 8041,
      "stol": 8042,
      "unable to ": 8043,
      "usual": 8044,
      "is a bit ": 8045,
      "get to ": 8046,
      "crew": 8047,
      ". Here ": 8048,
      ". She is ": 8049,
      "directly ": 8050,
      "it was the ": 8051,
      "off, ": 8052,
      "underrated ": 8053,
      ", this movie is ": 8054,
      "boring, ": 8055,
      "minutes, ": 8056,
      ". De": 8057,
      ". Pe": 8058,
      "far too ": 8059,
      "portray ": 8060,
      "count ": 8061,
      "homo": 8062,
      "dialogue is ": 8063,
      "one of my favorite ": 8064,
      "nail": 8065,
      "care about ": 8066,
      "leave the ": 8067,
      "Walter ": 8068,
      "contribu": 8069,
      "portrayal of ": 8070,
      "Cinder": 8071,
      "climax": 8072,
      "radio ": 8073,
      "waste your time ": 8074,
      "MOVI": 8075,
      "Coun": 8076,
      "G-": 8077,
      "bour": 8078,
      "cant ": 8079,
      "ier": 8080,
      "king": 8081,
      "a more ": 8082,
      "ed at the ": 8083,
      "as a c": 8084,
      "be, ": 8085,
      "aside ": 8086,
      ". The story is ": 8087,
      "e, I ": 8088,
      "s, I ": 8089,
      "charis": 8090,
      "only to ": 8091,
      "firm": 8092,
      "carn": 8093,
      "mature ": 8094,
      "their own ": 8095,
      "took": 8096,
      "ing this movie ": 8097,
      "United ": 8098,
      "lock ": 8099,
      "convey": 8100,
      "walked ": 8101,
      "purpo": 8102,
      "graphic ": 8103,
      "potential": 8104,
      "form of ": 8105,
      "fantastic": 8106,
      "understood ": 8107,
      "initial ": 8108,
      "hospital ": 8109,
      "significant ": 8110,
      "ophist": 8111,
      "& the ": 8112,
      "Gam": 8113,
      "ding": 8114,
      "is actually ": 8115,
      "in other ": 8116,
      "for them": 8117,
      "asked ": 8118,
      "shir": 8119,
      "have any ": 8120,
      "this a ": 8121,
      "trilog": 8122,
      "like an ": 8123,
      "her own ": 8124,
      "record ": 8125,
      ". I can ": 8126,
      "flow": 8127,
      "marry ": 8128,
      "mission": 8129,
      ". Mi": 8130,
      "menac": 8131,
      "Rob ": 8132,
      "featuring ": 8133,
      "impressi": 8134,
      "moments of ": 8135,
      "important": 8136,
      "episode of ": 8137,
      "won't be ": 8138,
      "ALL ": 8139,
      "ing through": 8140,
      "Star War": 8141,
      "Shakespear": 8142,
      "remotely ": 8143,
      ",the ": 8144,
      ".A": 8145,
      "DI": 8146,
      "d-": 8147,
      "won ": 8148,
      "y\"": 8149,
      "although the ": 8150,
      "revel": 8151,
      "ically, ": 8152,
      "I first ": 8153,
      "unusual ": 8154,
      "butt": 8155,
      ".<br /><br />R": 8156,
      "s, or ": 8157,
      "all over the ": 8158,
      "about as ": 8159,
      "up on ": 8160,
      "anywhere ": 8161,
      "is the most ": 8162,
      "That's ": 8163,
      "seemed to be ": 8164,
      "back in the ": 8165,
      ". In fact ": 8166,
      "depth": 8167,
      "to make it ": 8168,
      "recommend this ": 8169,
      "I can say ": 8170,
      "system ": 8171,
      "church ": 8172,
      "capable of ": 8173,
      "Ho": 8174,
      "co ": 8175,
      "e...": 8176,
      "joy": 8177,
      "s. They ": 8178,
      ", especially ": 8179,
      "a F": 8180,
      "ley": 8181,
      "ember ": 8182,
      "with it": 8183,
      "spe": 8184,
      "ittle": 8185,
      "up in the ": 8186,
      "in a very ": 8187,
      ". This film is ": 8188,
      "years of ": 8189,
      "lines": 8190,
      "movies like ": 8191,
      "scenes were ": 8192,
      "nostal": 8193,
      "sort ": 8194,
      "dragg": 8195,
      "corp": 8196,
      "animation": 8197,
      "music and ": 8198,
      "suspect": 8199,
      ".<br /><br />This movie ": 8200,
      "intelligence ": 8201,
      "based on a ": 8202,
      "Bob ": 8203,
      "perhaps the ": 8204,
      "philosoph": 8205,
      "private ": 8206,
      "-b": 8207,
      "Gand": 8208,
      "N ": 8209,
      "Sus": 8210,
      "pent": 8211,
      "wo": 8212,
      " the same ": 8213,
      "of what ": 8214,
      "sey ": 8215,
      "betra": 8216,
      ".<br /><br />P": 8217,
      "worst": 8218,
      "hide ": 8219,
      "peac": 8220,
      "essential ": 8221,
      "movie-": 8222,
      "of this film": 8223,
      ". Ex": 8224,
      "concer": 8225,
      "convince ": 8226,
      "downright ": 8227,
      "grav": 8228,
      "deserved ": 8229,
      "money and ": 8230,
      "keep the ": 8231,
      "wooden ": 8232,
      "Lugosi": 8233,
      "planet ": 8234,
      "process ": 8235,
      "occasional ": 8236,
      "vidual ": 8237,
      "lucky ": 8238,
      "dinos": 8239,
      "distribu": 8240,
      "attach": 8241,
      "City ": 8242,
      "Dick": 8243,
      "Not": 8244,
      "Red": 8245,
      "theor": 8246,
      "unf": 8247,
      "lear ": 8248,
      "his life ": 8249,
      "clo": 8250,
      "est, ": 8251,
      "story of a ": 8252,
      "ed by his ": 8253,
      "will never ": 8254,
      "ish and ": 8255,
      "cring": 8256,
      "go on ": 8257,
      "ers' ": 8258,
      "gets the ": 8259,
      "if you don't ": 8260,
      "laughs ": 8261,
      "a lot more ": 8262,
      "action and ": 8263,
      "visually ": 8264,
      "side of the ": 8265,
      "promot": 8266,
      "forward to ": 8267,
      "meant to be ": 8268,
      "connect": 8269,
      ". Of course ": 8270,
      "1/2 ": 8271,
      "Hun": 8272,
      "UR": 8273,
      "jeal": 8274,
      "enem": 8275,
      "a to ": 8276,
      "an is ": 8277,
      "ried ": 8278,
      "of the original ": 8279,
      " that I ": 8280,
      ". Ad": 8281,
      "encou": 8282,
      "desir": 8283,
      "particip": 8284,
      "saw this ": 8285,
      "myth": 8286,
      "pupp": 8287,
      "\", \"": 8288,
      "indul": 8289,
      "disappointment ": 8290,
      "things that ": 8291,
      "one of them": 8292,
      "Morgan ": 8293,
      "impossible to ": 8294,
      "killed": 8295,
      "Even": 8296,
      "Lis": 8297,
      "Rod": 8298,
      "She ": 8299,
      "city": 8300,
      "hunt": 8301,
      "ras": 8302,
      "in these ": 8303,
      "was really ": 8304,
      "ently, ": 8305,
      "rop": 8306,
      "be a ": 8307,
      "parody ": 8308,
      ". I also ": 8309,
      "post ": 8310,
      "fast": 8311,
      "starred ": 8312,
      "years": 8313,
      "shows the ": 8314,
      "tale of ": 8315,
      "series of ": 8316,
      "cry ": 8317,
      "arren ": 8318,
      "find a ": 8319,
      ". Now": 8320,
      "to see it ": 8321,
      "got to ": 8322,
      "role": 8323,
      "might have been ": 8324,
      "performance, ": 8325,
      "down and ": 8326,
      "a little more ": 8327,
      "pair": 8328,
      "pleasure ": 8329,
      "cuts ": 8330,
      "featured ": 8331,
      "Disney": 8332,
      "critics ": 8333,
      "hyster": 8334,
      "Woody ": 8335,
      "criminal ": 8336,
      " throughout the ": 8337,
      "Horror ": 8338,
      "gratuitous ": 8339,
      "chosen ": 8340,
      "(not ": 8341,
      "AD ": 8342,
      "East": 8343,
      "Jeff": 8344,
      "Off": 8345,
      "Old ": 8346,
      "Ray": 8347,
      "Wom": 8348,
      "Western ": 8349,
      "ail ": 8350,
      "n, ": 8351,
      "in 200": 8352,
      "it had ": 8353,
      "unnecessary ": 8354,
      "fill ": 8355,
      "for my ": 8356,
      "two-": 8357,
      "obsc": 8358,
      "meta": 8359,
      "strength ": 8360,
      "full": 8361,
      "show the ": 8362,
      "Brook": 8363,
      "Park": 8364,
      ". If you are ": 8365,
      "Life": 8366,
      "mid-": 8367,
      "confused ": 8368,
      "summer ": 8369,
      "destin": 8370,
      "massive ": 8371,
      "Luke ": 8372,
      "cliché ": 8373,
      "pretentious ": 8374,
      "black and white ": 8375,
      "Broadway ": 8376,
      ",but ": 8377,
      "IGH": 8378,
      "eat ": 8379,
      ", it was ": 8380,
      "outrage": 8381,
      "although": 8382,
      "a of ": 8383,
      "rever": 8384,
      "isol": 8385,
      "for-": 8386,
      "buy": 8387,
      "are just ": 8388,
      "for any ": 8389,
      "debut ": 8390,
      "ers to ": 8391,
      "preach": 8392,
      "! It's ": 8393,
      "ob ": 8394,
      "Anton": 8395,
      "cry": 8396,
      "color ": 8397,
      "animals ": 8398,
      "making it ": 8399,
      "beautiful and ": 8400,
      "refus": 8401,
      "person who ": 8402,
      "years ago ": 8403,
      "repeated ": 8404,
      "nothing to do ": 8405,
      "knowledge ": 8406,
      "accidentally ": 8407,
      "Thomas ": 8408,
      "1) ": 8409,
      "Ap": 8410,
      "Bour": 8411,
      "Dur": 8412,
      "Hal": 8413,
      "Lord ": 8414,
      "Show": 8415,
      "TO ": 8416,
      "s on the ": 8417,
      "reat": 8418,
      "ato": 8419,
      "of it": 8420,
      "it of ": 8421,
      "seduc": 8422,
      "habit": 8423,
      "edom ": 8424,
      "caus": 8425,
      "and/": 8426,
      "watchable": 8427,
      "el and ": 8428,
      "fun and ": 8429,
      "ograp": 8430,
      "a fan": 8431,
      "did a ": 8432,
      "does the ": 8433,
      "off as ": 8434,
      "accep": 8435,
      ". Despite ": 8436,
      "afterno": 8437,
      "fresh ": 8438,
      "message": 8439,
      ". Not only ": 8440,
      "Watch ": 8441,
      "fascinating ": 8442,
      "\". The ": 8443,
      "Sou": 8444,
      "V ": 8445,
      "brid": 8446,
      "ton, ": 8447,
      "forward": 8448,
      "ooks ": 8449,
      "or not ": 8450,
      "but this ": 8451,
      "spell": 8452,
      "au ": 8453,
      "from her ": 8454,
      ". It was a ": 8455,
      "played the ": 8456,
      "playing a ": 8457,
      "your own ": 8458,
      "figh": 8459,
      "member": 8460,
      "original, ": 8461,
      "visit ": 8462,
      "emotion ": 8463,
      "naive ": 8464,
      "regard ": 8465,
      "whether": 8466,
      "Jackson ": 8467,
      "intriguing ": 8468,
      "Captain ": 8469,
      "absurd ": 8470,
      "popular": 8471,
      "conflict ": 8472,
      "Australian ": 8473,
      "AA": 8474,
      "Pict": 8475,
      "Win": 8476,
      "ier ": 8477,
      "site ": 8478,
      "iness": 8479,
      "er\" ": 8480,
      "enh": 8481,
      "in '": 8482,
      "dozen ": 8483,
      "just don't ": 8484,
      "eak ": 8485,
      "Anne ": 8486,
      "heard of ": 8487,
      ". He was ": 8488,
      "location ": 8489,
      "Shar": 8490,
      "Mont": 8491,
      "I saw this movie ": 8492,
      "Jackie ": 8493,
      "smart ": 8494,
      "commercial ": 8495,
      "channel": 8496,
      "multiple ": 8497,
      "vehicle ": 8498,
      "magnificent ": 8499,
      "Elizabe": 8500,
      "DO": 8501,
      "Dal": 8502,
      "Jones ": 8503,
      "aa": 8504,
      "bed ": 8505,
      "fer ": 8506,
      "lant": 8507,
      "none": 8508,
      "stumbl": 8509,
      "forever": 8510,
      "semi": 8511,
      "youth": 8512,
      "that it's ": 8513,
      "for him": 8514,
      "very, ": 8515,
      "hipp": 8516,
      "ers who ": 8517,
      "par ": 8518,
      "what you ": 8519,
      "use the ": 8520,
      "Chann": 8521,
      "a fem": 8522,
      ".<br /><br />The only ": 8523,
      "ance and ": 8524,
      "web": 8525,
      "empty ": 8526,
      "nois": 8527,
      "handsome ": 8528,
      "dialogue, ": 8529,
      "whenever ": 8530,
      "supposed ": 8531,
      "considering ": 8532,
      "written and ": 8533,
      "Matt ": 8534,
      "sleep ": 8535,
      "brutal ": 8536,
      "adequ": 8537,
      "faithful ": 8538,
      "encounter": 8539,
      "Jesus ": 8540,
      "flesh": 8541,
      "Patrick ": 8542,
      "CI": 8543,
      "Kenn": 8544,
      "Mitch": 8545,
      "aint": 8546,
      "laz": 8547,
      "mun": 8548,
      "rying ": 8549,
      "sitt": 8550,
      "s out ": 8551,
      "ino": 8552,
      "onto ": 8553,
      "is more ": 8554,
      "ings and ": 8555,
      "reb": 8556,
      "ed her ": 8557,
      "as it is ": 8558,
      "ow-": 8559,
      "I did ": 8560,
      "of the first ": 8561,
      "exist ": 8562,
      "earn": 8563,
      "strict": 8564,
      ". Bec": 8565,
      "do you ": 8566,
      "at the beginning ": 8567,
      "too bad ": 8568,
      "hearted ": 8569,
      "noir": 8570,
      "schem": 8571,
      "broken ": 8572,
      "house, ": 8573,
      "gram ": 8574,
      "starts to ": 8575,
      "focused ": 8576,
      "focuses ": 8577,
      "zombies ": 8578,
      "From the ": 8579,
      "insan": 8580,
      "legendary ": 8581,
      "AB": 8582,
      "Cath": 8583,
      "J ": 8584,
      "Van": 8585,
      "a) ": 8586,
      "ce": 8587,
      "and they ": 8588,
      "it was": 8589,
      "libr": 8590,
      "you, ": 8591,
      ".<br /><br />H": 8592,
      "emerg": 8593,
      " this one ": 8594,
      "with a s": 8595,
      ", and they ": 8596,
      "obnox": 8597,
      "appall": 8598,
      "Ann": 8599,
      "doesn't even ": 8600,
      "put it ": 8601,
      "natural": 8602,
      "Movi": 8603,
      "Star Tre": 8604,
      "occup": 8605,
      "(\"": 8606,
      "Att": 8607,
      "Hom": 8608,
      "Wid": 8609,
      "cat ": 8610,
      "cable ": 8611,
      "eu": 8612,
      "lin ": 8613,
      "wrest": 8614,
      "ort of ": 8615,
      "a p": 8616,
      "at her ": 8617,
      "ica ": 8618,
      "I remember ": 8619,
      "it all": 8620,
      "it seems ": 8621,
      "unknown ": 8622,
      "asham": 8623,
      "edge ": 8624,
      "filming ": 8625,
      "hired ": 8626,
      "s, who ": 8627,
      "into an ": 8628,
      "marks ": 8629,
      "incol": 8630,
      "changes ": 8631,
      "shap": 8632,
      "liver ": 8633,
      "univers": 8634,
      ". There are some ": 8635,
      "heroine ": 8636,
      "in 199": 8637,
      "results ": 8638,
      "turned out ": 8639,
      "survive ": 8640,
      "conclusion ": 8641,
      "field": 8642,
      "spectacular ": 8643,
      "H ": 8644,
      "nex": 8645,
      "s..": 8646,
      "yes ": 8647,
      "y. I ": 8648,
      "is as ": 8649,
      "station ": 8650,
      "chron": 8651,
      "in L": 8652,
      "sie ": 8653,
      "aday": 8654,
      "itten ": 8655,
      ", I am ": 8656,
      "he'd ": 8657,
      "cost ": 8658,
      "feel that ": 8659,
      "humour": 8660,
      "hand, ": 8661,
      " thriller ": 8662,
      "great, ": 8663,
      "documentary": 8664,
      "Queen ": 8665,
      "filmmaker ": 8666,
      "kinds of ": 8667,
      "passion ": 8668,
      "dressed ": 8669,
      "agree with ": 8670,
      ". Unfortunately, ": 8671,
      "industry ": 8672,
      "sitcom": 8673,
      "travel ": 8674,
      "decision ": 8675,
      ".<br /><br />In the ": 8676,
      "contrast ": 8677,
      "ollywood ": 8678,
      "'S ": 8679,
      "-F": 8680,
      "60": 8681,
      "Cast": 8682,
      "gal": 8683,
      "ge of ": 8684,
      "len ": 8685,
      "tone ": 8686,
      "chopp": 8687,
      "es) ": 8688,
      "in all, ": 8689,
      "buck": 8690,
      "gem ": 8691,
      "from their ": 8692,
      "watch this movie ": 8693,
      "blat": 8694,
      "story was ": 8695,
      "movie. It ": 8696,
      "into his ": 8697,
      ". Watch": 8698,
      ". Nothing ": 8699,
      "ready to ": 8700,
      ". Pl": 8701,
      "expectations ": 8702,
      "takes a ": 8703,
      "disappointed ": 8704,
      "install": 8705,
      "Howard ": 8706,
      "e. She ": 8707,
      "father's ": 8708,
      "opera ": 8709,
      "wearing ": 8710,
      "competent ": 8711,
      ". Well, ": 8712,
      "answer ": 8713,
      "sports ": 8714,
      "alcohol": 8715,
      "+ ": 8716,
      "Day ": 8717,
      "Im": 8718,
      "ler's ": 8719,
      "mere ": 8720,
      "next": 8721,
      "inger": 8722,
      "ating the ": 8723,
      "to keep ": 8724,
      "at its ": 8725,
      "becom": 8726,
      "ably": 8727,
      "actu": 8728,
      ".<br /><br />L": 8729,
      "shallow ": 8730,
      "rott": 8731,
      "exact ": 8732,
      "films of ": 8733,
      "times and ": 8734,
      "manage to ": 8735,
      "ter and ": 8736,
      "from an ": 8737,
      "green ": 8738,
      "will probably ": 8739,
      "positi": 8740,
      "incid": 8741,
      "to see this ": 8742,
      "feeling of ": 8743,
      "performance as ": 8744,
      "ending is ": 8745,
      "purpos": 8746,
      "New York": 8747,
      "heavily ": 8748,
      "beginning to ": 8749,
      "in the first plac": 8750,
      "machine ": 8751,
      ". Everything ": 8752,
      "rescu": 8753,
      "falls in love ": 8754,
      "(D": 8755,
      ",' ": 8756,
      "12": 8757,
      "Je": 8758,
      "Now": 8759,
      "eness ": 8760,
      ". Ch": 8761,
      "repet": 8762,
      "ing him ": 8763,
      "eld": 8764,
      "ically": 8765,
      "on DVD ": 8766,
      "divor": 8767,
      "shif": 8768,
      "with your ": 8769,
      "have some ": 8770,
      "teri": 8771,
      "all those ": 8772,
      "just didn't ": 8773,
      "story about ": 8774,
      "how he ": 8775,
      "anced ": 8776,
      ", I don't ": 8777,
      "; but ": 8778,
      "pretty good": 8779,
      "deliber": 8780,
      "ennis ": 8781,
      "Charact": 8782,
      "landscap": 8783,
      "ONE ": 8784,
      "in 197": 8785,
      "helped ": 8786,
      ". Yes, ": 8787,
      "humorous ": 8788,
      ".<br /><br />To ": 8789,
      "Prince ": 8790,
      "at all cost": 8791,
      "Irish ": 8792,
      "amateur ": 8793,
      "foot ": 8794,
      "dimensional ": 8795,
      "wrote the ": 8796,
      "semi-": 8797,
      "13 ": 8798,
      "Ak": 8799,
      "Fam": 8800,
      "Gab": 8801,
      "Wall": 8802,
      "aid": 8803,
      "nur": 8804,
      "oom": 8805,
      "re, ": 8806,
      "elev": 8807,
      "ice, ": 8808,
      "'s \"": 8809,
      "olly ": 8810,
      "just doesn't ": 8811,
      "my opinion": 8812,
      "blue ": 8813,
      "neth ": 8814,
      "dry ": 8815,
      "facial ": 8816,
      ". On ": 8817,
      "can't be ": 8818,
      "Bron": 8819,
      "laughed ": 8820,
      "sexual": 8821,
      "seconds ": 8822,
      "impress": 8823,
      "as well as the ": 8824,
      "mention the ": 8825,
      "ators ": 8826,
      "rest of the cast ": 8827,
      "fiction": 8828,
      "to watch this ": 8829,
      "harm": 8830,
      "between the two ": 8831,
      "I think the ": 8832,
      "sudden ": 8833,
      "genius": 8834,
      "Flor": 8835,
      "segment ": 8836,
      "Andrew": 8837,
      "model ": 8838,
      "guarant": 8839,
      "reminiscent ": 8840,
      "\" the ": 8841,
      "Hart": 8842,
      "iest ": 8843,
      "me. I ": 8844,
      "sophist": 8845,
      "wind ": 8846,
      "eni": 8847,
      "a was ": 8848,
      "regi": 8849,
      "ed up": 8850,
      "you may ": 8851,
      "romanc": 8852,
      "atives ": 8853,
      "Whit": 8854,
      "can you ": 8855,
      "watchable ": 8856,
      ". Since ": 8857,
      "a col": 8858,
      ", I would ": 8859,
      "Albert ": 8860,
      ". Even": 8861,
      "visit": 8862,
      " thriller": 8863,
      "throughout": 8864,
      "e.\" ": 8865,
      "recommended": 8866,
      "Part ": 8867,
      "might": 8868,
      "impression ": 8869,
      ".<br /><br />This is ": 8870,
      "realized ": 8871,
      "Before ": 8872,
      "given a ": 8873,
      "which, ": 8874,
      "previously ": 8875,
      "having to ": 8876,
      "Dark ": 8877,
      "released": 8878,
      "Fox": 8879,
      "absurd": 8880,
      "curious ": 8881,
      "establish": 8882,
      "Plan": 8883,
      "cab": 8884,
      "cust": 8885,
      "could've ": 8886,
      "ner, ": 8887,
      "s. In ": 8888,
      "chick": 8889,
      "I still ": 8890,
      "older": 8891,
      "lef": 8892,
      "led, ": 8893,
      "for it ": 8894,
      "time, and ": 8895,
      "tage": 8896,
      "finish ": 8897,
      "claim ": 8898,
      "poil": 8899,
      "fabul": 8900,
      "did they ": 8901,
      ", this one ": 8902,
      "weird": 8903,
      "places ": 8904,
      "years old ": 8905,
      "draw ": 8906,
      "nature": 8907,
      "mainstream ": 8908,
      "felt like ": 8909,
      "annoying": 8910,
      "speaks ": 8911,
      "ately, the ": 8912,
      "picks ": 8913,
      "issues ": 8914,
      "mirac": 8915,
      "influenc": 8916,
      "Philli": 8917,
      "sympathetic ": 8918,
      "Det": 8919,
      "ED": 8920,
      "Sid": 8921,
      "astr": 8922,
      "gar ": 8923,
      "none of the ": 8924,
      "to an ": 8925,
      "cher": 8926,
      "in our ": 8927,
      "sheri": 8928,
      "or something": 8929,
      "sider": 8930,
      "edited ": 8931,
      "this is the ": 8932,
      "from that ": 8933,
      "mob": 8934,
      ". I didn't ": 8935,
      "because it is ": 8936,
      "thriller": 8937,
      "whole movie ": 8938,
      "family, ": 8939,
      ". You can ": 8940,
      "allows ": 8941,
      "femin": 8942,
      "masterpiece ": 8943,
      "desperately ": 8944,
      "(B": 8945,
      "70s ": 8946,
      "80s ": 8947,
      "Bad ": 8948,
      "Just": 8949,
      "Kim ": 8950,
      "Vis": 8951,
      "bom": 8952,
      "i think ": 8953,
      "ty and ": 8954,
      "ine, ": 8955,
      "ite of ": 8956,
      "that it was ": 8957,
      "of the film, ": 8958,
      " this is a ": 8959,
      "in the world ": 8960,
      "ute ": 8961,
      "awa": 8962,
      "years. ": 8963,
      "talks ": 8964,
      "possess": 8965,
      "plot was ": 8966,
      ". Who ": 8967,
      "rip-": 8968,
      "something to ": 8969,
      "provo": 8970,
      "Under": 8971,
      "wanting to ": 8972,
      "Leg": 8973,
      "develop ": 8974,
      "amazing": 8975,
      "confusing ": 8976,
      "profess": 8977,
      "Matri": 8978,
      "unny ": 8979,
      "relationship between ": 8980,
      "tragedy ": 8981,
      "film-mak": 8982,
      "drunk ": 8983,
      "Davis ": 8984,
      "speech": 8985,
      "8/10": 8986,
      "cous": 8987,
      "mes ": 8988,
      "wear ": 8989,
      "I went ": 8990,
      "I loved ": 8991,
      "tight ": 8992,
      "in the early ": 8993,
      "autom": 8994,
      "immen": 8995,
      "obj": 8996,
      "most people ": 8997,
      "appy ": 8998,
      "off-": 8999,
      "well done ": 9000,
      "character development ": 9001,
      "realis": 9002,
      "belief ": 9003,
      "good-": 9004,
      "THAT ": 9005,
      "indic": 9006,
      "general": 9007,
      "couple of ": 9008,
      "market ": 9009,
      "Richard": 9010,
      "except for ": 9011,
      "Edward ": 9012,
      "execu": 9013,
      "birth": 9014,
      "shots of ": 9015,
      ".\"<br /><br />": 9016,
      "By ": 9017,
      "Dan ": 9018,
      "MST": 9019,
      "bvi": 9020,
      "could": 9021,
      "i, ": 9022,
      "thus ": 9023,
      " though the ": 9024,
      "a t": 9025,
      ".<br /><br />There are ": 9026,
      "with all the ": 9027,
      "adop": 9028,
      "scal": 9029,
      "scare ": 9030,
      "ts to ": 9031,
      ". Ab": 9032,
      "creating ": 9033,
      "display ": 9034,
      ". Bas": 9035,
      "where she ": 9036,
      "many other ": 9037,
      "from the first ": 9038,
      "saving ": 9039,
      "incor": 9040,
      "incident": 9041,
      "subsequ": 9042,
      "a lot of the ": 9043,
      "court": 9044,
      "TH ": 9045,
      "runn": 9046,
      "s, but the ": 9047,
      "people's ": 9048,
      "There is ": 9049,
      "weapon": 9050,
      "looked like ": 9051,
      "loses ": 9052,
      "judge ": 9053,
      "beginning": 9054,
      "individual ": 9055,
      "random": 9056,
      "challen": 9057,
      "required ": 9058,
      "suicide ": 9059,
      "TO": 9060,
      "jack": 9061,
      "lust": 9062,
      "nude ": 9063,
      "rant": 9064,
      "ing about ": 9065,
      "at some ": 9066,
      "chick ": 9067,
      "for those who ": 9068,
      "ties": 9069,
      "absor": 9070,
      "out a ": 9071,
      "rav": 9072,
      "n and ": 9073,
      "film.<br /><br />": 9074,
      "conspir": 9075,
      "history of ": 9076,
      "manner ": 9077,
      "very un": 9078,
      "we know ": 9079,
      "horse ": 9080,
      " thinks ": 9081,
      "in this movie. ": 9082,
      "realism ": 9083,
      "interesting to ": 9084,
      "films like ": 9085,
      "before he ": 9086,
      "years later": 9087,
      " throw ": 9088,
      "worth watching ": 9089,
      ", who is ": 9090,
      "taste ": 9091,
      "ism, ": 9092,
      "femal": 9093,
      "news ": 9094,
      "rating": 9095,
      "Worl": 9096,
      "holi": 9097,
      "hurt ": 9098,
      "international ": 9099,
      "Roger ": 9100,
      "decision": 9101,
      "source ": 9102,
      "15": 9103,
      "Fal": 9104,
      "Lar": 9105,
      "Son": 9106,
      "Tru": 9107,
      "fy": 9108,
      "mom ": 9109,
      "nut": 9110,
      "native ": 9111,
      "s - ": 9112,
      "ing from ": 9113,
      "er in ": 9114,
      "chuck": 9115,
      "island": 9116,
      "olph ": 9117,
      "assign": 9118,
      "out of a ": 9119,
      "irk ": 9120,
      "have seen ": 9121,
      "ular": 9122,
      "so bad": 9123,
      ") was ": 9124,
      "presu": 9125,
      "! This ": 9126,
      "observ": 9127,
      "? What ": 9128,
      "intended ": 9129,
      "a local ": 9130,
      "much better": 9131,
      "we don't ": 9132,
      ". By the ": 9133,
      "angel": 9134,
      "him in ": 9135,
      "surf": 9136,
      "trip": 9137,
      "love story ": 9138,
      ". Many ": 9139,
      "quite a ": 9140,
      "invis": 9141,
      "if you like ": 9142,
      "girl, ": 9143,
      ". Great ": 9144,
      "intens": 9145,
      "audience": 9146,
[...]
