{
  "version": "1.0",
  "truncation": null,
  "padding": null,
  "added_tokens": [
    {
      "id": 0,
      "content": "[UNK]",
      "single_word": false,
      "lstrip": false,
      "rstrip": false,
      "normalized": false,
      "special": true
    },
    {
      "id": 1,
      "content": "[PAD]",
      "single_word": false,
      "lstrip": false,
      "rstrip": false,
      "normalized": false,
      "special": true
    },
    {
      "id": 2,
      "content": "[CLS]",
      "single_word": false,
      "lstrip": false,
      "rstrip": false,
      "normalized": false,
      "special": true
    }
  ],
  "normalizer": null,
  "pre_tokenizer": null,
  "post_processor": null,
  "decoder": null,
  "model": {
    "type": "BPE",
    "dropout": null,
    "unk_token": null,
    "continuing_subword_prefix": null,
    "end_of_word_suffix": null,
    "fuse_unk": false,
    "byte_fallback": false,
    "ignore_merges": false,
    "vocab": {
      "[UNK]": 0,
      "[PAD]": 1,
      "[CLS]": 2,
      " ": 3,
      "!": 4,
      "\"": 5,
      "$": 6,
      "&": 7,
      "'": 8,
      "(": 9,
      ")": 10,
      "*": 11,
      "+": 12,
      ",": 13,
      "-": 14,
      ".": 15,
      "/": 16,
      "0": 17,
      "1": 18,
      "2": 19,
      "3": 20,
      "4": 21,
      "5": 22,
      "6": 23,
      "7": 24,
      "8": 25,
      "9": 26,
      ":": 27,
      ";": 28,
      "<": 29,
      ">": 30,
      "?": 31,
      "@": 32,
      "A": 33,
      "B": 34,
      "C": 35,
      "D": 36,
      "E": 37,
      "F": 38,
      "G": 39,
      "H": 40,
      "I": 41,
      "J": 42,
      "K": 43,
      "L": 44,
      "M": 45,
      "N": 46,
      "O": 47,
      "P": 48,
      "Q": 49,
      "R": 50,
      "S": 51,
      "T": 52,
      "U": 53,
      "V": 54,
      "W": 55,
      "X": 56,
      "Y": 57,
      "Z": 58,
      "[": 59,
      "]": 60,
      "_": 61,
      "a": 62,
      "b": 63,
      "c": 64,
      "d": 65,
      "e": 66,
      "f": 67,
      "g": 68,
      "h": 69,
      "i": 70,
      "j": 71,
      "k": 72,
      "l": 73,
      "m": 74,
      "n": 75,
      "o": 76,
      "p": 77,
      "q": 78,
      "r": 79,
      "s": 80,
      "t": 81,
      "u": 82,
      "v": 83,
      "w": 84,
      "x": 85,
      "y": 86,
      "z": 87,
      "": 88,
      "": 89,
      "£": 90,
      "é": 91,
      "ô": 92,
      "e ": 93,
      "s ": 94,
      "th": 95,
      "t ": 96,
      "in": 97,
      "d ": 98,
      "er": 99,
      "an": 100,
      " th": 101,
      "y ": 102,
      "en": 103,
      "on": 104,
      ", ": 105,
      "or": 106,
      ". ": 107,
      "o ": 108,
      "ou": 109,
      "is ": 110,
      "ing": 111,
      " the ": 112,
      "ar": 113,
      "al": 114,
      "a ": 115,
      "re": 116,
      "of": 117,
      "and ": 118,
      "ti": 119,
      "ing ": 120,
      "er ": 121,
      "to ": 122,
      "st": 123,
      "il": 124,
      "r ": 125,
      "ch": 126,
      "om": 127,
      "ed ": 128,
      "at ": 129,
      "el": 130,
      "as ": 131,
      "the ": 132,
      "es": 133,
      "es ": 134,
      "it": 135,
      "ac": 136,
      "of ": 137,
      "at": 138,
      "wh": 139,
      "/>": 140,
      "<b": 141,
      "r />": 142,
      "<br />": 143,
      "ly ": 144,
      "ov": 145,
      "en ": 146,
      "he ": 147,
      "se": 148,
      "or ": 149,
      "ow": 150,
      "on ": 151,
      "in ": 152,
      "l ": 153,
      "ic": 154,
      "an ": 155,
      "is": 156,
      "be": 157,
      "'s ": 158,
      "gh": 159,
      "it ": 160,
      "pl": 161,
      "oo": 162,
      "st ": 163,
      "ev": 164,
      "I ": 165,
      "ma": 166,
      "ha": 167,
      "wi": 168,
      "un": 169,
      "li": 170,
      "ovi": 171,
      "ri": 172,
      "movi": 173,
      "m ": 174,
      "ve ": 175,
      "you": 176,
      "ot ": 177,
      "with": 178,
      "as": 179,
      "le": 180,
      "ab": 181,
      ". T": 182,
      "<br /><br />": 183,
      "di": 184,
      "bu": 185,
      "act": 186,
      "ol": 187,
      "al ": 188,
      "k ": 189,
      "fil": 190,
      "was ": 191,
      "ur": 192,
      "ir": 193,
      "ere ": 194,
      "his ": 195,
      "ay": 196,
      "sh": 197,
      "out ": 198,
      "of the ": 199,
      "am": 200,
      "em": 201,
      ".<br /><br />": 202,
      "'t ": 203,
      "com": 204,
      "ch ": 205,
      "le ": 206,
      "e, ": 207,
      "that ": 208,
      "ra": 209,
      "for": 210,
      "but ": 211,
      "se ": 212,
      "are ": 213,
      " this ": 214,
      "si": 215,
      "ent": 216,
      "de": 217,
      "for ": 218,
      "to": 219,
      "movie ": 220,
      "ro": 221,
      "with ": 222,
      "ad": 223,
      "pe": 224,
      "ally ": 225,
      "ke ": 226,
      "au": 227,
      "one ": 228,
      "som": 229,
      ", and ": 230,
      " that ": 231,
      "all": 232,
      "ex": 233,
      "oth": 234,
      "po": 235,
      "be ": 236,
      "up": 237,
      "f ": 238,
      "sc": 239,
      "ey ": 240,
      "in the ": 241,
      "..": 242,
      "int": 243,
      ". I": 244,
      "ed": 245,
      "not ": 246,
      "have ": 247,
      "ag": 248,
      "tion": 249,
      "tion ": 250,
      "you ": 251,
      "her ": 252,
      "so ": 253,
      "ver": 254,
      "oul": 255,
      "this ": 256,
      ". The ": 257,
      "ough": 258,
      "fr": 259,
      "n ": 260,
      "ow ": 261,
      "ce ": 262,
      "ear": 263,
      "ge": 264,
      "s, ": 265,
      "- ": 266,
      "tt": 267,
      "ap": 268,
      "wor": 269,
      "ent ": 270,
      "film ": 271,
      "\" ": 272,
      ". A": 273,
      "who ": 274,
      "con": 275,
      "ul": 276,
      "tic": 277,
      "tim": 278,
      "char": 279,
      "ts ": 280,
      "ould ": 281,
      "ad ": 282,
      "tr": 283,
      "ust ": 284,
      "ers ": 285,
      "mo": 286,
      ") ": 287,
      "im": 288,
      "pre": 289,
      "igh": 290,
      "op": 291,
      "has ": 292,
      "id": 293,
      "us": 294,
      "charact": 295,
      "ep": 296,
      "The ": 297,
      "man": 298,
      "n't ": 299,
      "par": 300,
      "ct": 301,
      "g ": 302,
      "mor": 303,
      "like ": 304,
      "ay ": 305,
      "fe": 306,
      "per": 307,
      "stor": 308,
      "from": 309,
      "by ": 310,
      "oun": 311,
      "film": 312,
      "do": 313,
      "about ": 314,
      "some ": 315,
      "cl": 316,
      "just ": 317,
      "vi": 318,
      "ell": 319,
      "ta": 320,
      "all ": 321,
      "wat": 322,
      "ere": 323,
      "ill ": 324,
      "she ": 325,
      "ess ": 326,
      "der": 327,
      "pro": 328,
      "qu": 329,
      "sp": 330,
      "um": 331,
      "oc": 332,
      "y, ": 333,
      "gu": 334,
      "ood ": 335,
      "ing the ": 336,
      ", the ": 337,
      "end": 338,
      "de ": 339,
      "loo": 340,
      "s. ": 341,
      "er, ": 342,
      "is a ": 343,
      "other ": 344,
      "? ": 345,
      "ot": 346,
      "su": 347,
      "to the ": 348,
      "very ": 349,
      "ne": 350,
      "and": 351,
      "been ": 352,
      "more ": 353,
      "aw": 354,
      "ei": 355,
      "tw": 356,
      "ely ": 357,
      "what ": 358,
      "ever ": 359,
      "most ": 360,
      "Wh": 361,
      "est ": 362,
      "some": 363,
      "no ": 364,
      "we ": 365,
      "only ": 366,
      "even ": 367,
      "mu": 368,
      "ant ": 369,
      "it's ": 370,
      "watch": 371,
      "e. ": 372,
      "min": 373,
      "on the ": 374,
      "up ": 375,
      "go": 376,
      "king ": 377,
      "will ": 378,
      "whi": 379,
      "had ": 380,
      "ure ": 381,
      "gi": 382,
      "me": 383,
      "y the ": 384,
      ", but ": 385,
      "itt": 386,
      "when ": 387,
      "from ": 388,
      "ut": 389,
      "ity ": 390,
      ". Th": 391,
      "can ": 392,
      "fin": 393,
      "thing ": 394,
      "ft": 395,
      "kn": 396,
      "ually ": 397,
      "way": 398,
      ". It ": 399,
      "which ": 400,
      "fi": 401,
      "ks ": 402,
      "e and ": 403,
      ". I ": 404,
      "to be ": 405,
      ": ": 406,
      "ut ": 407,
      "eri": 408,
      "ous ": 409,
      "ple ": 410,
      "able ": 411,
      "ast ": 412,
      "p ": 413,
      "uc": 414,
      "were ": 415,
      "on't ": 416,
      "ill": 417,
      "es, ": 418,
      "its ": 419,
      "get ": 420,
      "ation": 421,
      "e's ": 422,
      "good ": 423,
      "if ": 424,
      "me ": 425,
      "ar ": 426,
      "see ": 427,
      "ic ": 428,
      "mak": 429,
      "scen": 430,
      "' ": 431,
      "bl": 432,
      "cau": 433,
      "gir": 434,
      "pr": 435,
      "th ": 436,
      "ish": 437,
      "story ": 438,
      "eir ": 439,
      "bo": 440,
      "cre": 441,
      "et": 442,
      "her": 443,
      "ll ": 444,
      "sel": 445,
      " they ": 446,
      "ess": 447,
      "ack ": 448,
      "ever": 449,
      "dire": 450,
      "gre": 451,
      "my ": 452,
      "w ": 453,
      "they ": 454,
      "ali": 455,
      "el ": 456,
      "bi": 457,
      "ea": 458,
      "lin": 459,
      "nd ": 460,
      "ose ": 461,
      "re ": 462,
      "ort": 463,
      ". H": 464,
      "our": 465,
      "ate ": 466,
      "ough ": 467,
      "much ": 468,
      "ain": 469,
      "would ": 470,
      "ang": 471,
      "end ": 472,
      "play": 473,
      "peo": 474,
      "ds ": 475,
      "fri": 476,
      "ant": 477,
      "any ": 478,
      "ing to ": 479,
      "ed to ": 480,
      "over": 481,
      "don't ": 482,
      "fu": 483,
      "fun": 484,
      "fir": 485,
      "gin": 486,
      "a h": 487,
      "ite ": 488,
      "your ": 489,
      "cause ": 490,
      "av": 491,
      "ci": 492,
      "ly": 493,
      "no": 494,
      "ese ": 495,
      "movie": 496,
      "many ": 497,
      "! ": 498,
      "Th": 499,
      "ast": 500,
      "aft": 501,
      "dis": 502,
      "sti": 503,
      "wr": 504,
      "enti": 505,
      ". B": 506,
      "a c": 507,
      "really ": 508,
      "str": 509,
      "because ": 510,
      "with the ": 511,
      ". This ": 512,
      "direct": 513,
      ", th": 514,
      "ath": 515,
      "could ": 516,
      "ph": 517,
      "enc": 518,
      ", I ": 519,
      ". S": 520,
      "a s": 521,
      "where ": 522,
      "own ": 523,
      "ass": 524,
      "...": 525,
      "ight ": 526,
      "first ": 527,
      "fl": 528,
      "i ": 529,
      "ud": 530,
      "s the ": 531,
      "any": 532,
      "ong ": 533,
      "is the ": 534,
      "a l": 535,
      "ace ": 536,
      "plot ": 537,
      "d, ": 538,
      "em ": 539,
      "ff": 540,
      "gr": 541,
      "lov": 542,
      "ob": 543,
      "s and ": 544,
      "ful ": 545,
      "ation ": 546,
      "dn't ": 547,
      "et ": 548,
      "s to ": 549,
      "anc": 550,
      "ong": 551,
      "ing, ": 552,
      "also ": 553,
      "ght ": 554,
      "show": 555,
      ". And ": 556,
      " and ": 557,
      "ew": 558,
      "how ": 559,
      "never ": 560,
      "so": 561,
      "ell ": 562,
      "att": 563,
      "it was ": 564,
      "actually ": 565,
      "for the ": 566,
      "point": 567,
      "character ": 568,
      "characters ": 569,
      "ittle ": 570,
      "I'": 571,
      "This ": 572,
      "ati": 573,
      "kin": 574,
      "less ": 575,
      "t's ": 576,
      "d of ": 577,
      "ence ": 578,
      "ile ": 579,
      "seem": 580,
      "ght": 581,
      "it is ": 582,
      "ood": 583,
      "exc": 584,
      "... ": 585,
      "tic ": 586,
      "time ": 587,
      "two ": 588,
      "people ": 589,
      "ble ": 590,
      "cri": 591,
      "fe ": 592,
      "pi": 593,
      "wom": 594,
      "one": 595,
      "ous": 596,
      "and the ": 597,
      "star": 598,
      "bett": 599,
      "comes ": 600,
      "scre": 601,
      "hor": 602,
      "spe": 603,
      "ves ": 604,
      "ther": 605,
      " thin": 606,
      "a m": 607,
      "of th": 608,
      "ed by ": 609,
      "make ": 610,
      "under": 611,
      "old ": 612,
      "fore ": 613,
      "!!": 614,
      "St": 615,
      "ak": 616,
      "bad ": 617,
      "dra": 618,
      "duc": 619,
      "ful": 620,
      "od": 621,
      "ru": 622,
      "sl": 623,
      "us ": 624,
      "en the ": 625,
      "out": 626,
      "ari": 627,
      "eli": 628,
      "in a ": 629,
      ".<br /><br />The ": 630,
      "pos": 631,
      "intere": 632,
      "ound ": 633,
      "give ": 634,
      "girl": 635,
      "interest": 636,
      "car": 637,
      "ge ": 638,
      "lo": 639,
      "sup": 640,
      "year": 641,
      "in this ": 642,
      "ily ": 643,
      "at's ": 644,
      "all the ": 645,
      "other": 646,
      "have been ": 647,
      "age ": 648,
      "pres": 649,
      "still ": 650,
      "do ": 651,
      "gen": 652,
      "hi": 653,
      "if": 654,
      "id ": 655,
      "ked ": 656,
      "pp": 657,
      "sur": 658,
      "te": 659,
      "ure": 660,
      "into ": 661,
      ". W": 662,
      "es and ": 663,
      "ice ": 664,
      "show ": 665,
      "ents ": 666,
      "view": 667,
      "**": 668,
      "can": 669,
      "des": 670,
      "iz": 671,
      "jo": 672,
      "thr": 673,
      "than ": 674,
      "t of ": 675,
      ". Wh": 676,
      "reas": 677,
      "ated ": 678,
      "seen ": 679,
      "emp": 680,
      "comm": 681,
      "sim": 682,
      "appe": 683,
      "from the ": 684,
      "prob": 685,
      "know": 686,
      "friend": 687,
      "after ": 688,
      "; ": 689,
      "Pe": 690,
      "boo": 691,
      "bad": 692,
      "day": 693,
      "him": 694,
      "high": 695,
      "ima": 696,
      "sen": 697,
      "say": 698,
      "t to ": 699,
      ". N": 700,
      ". <br /><br />": 701,
      "read": 702,
      "ing and ": 703,
      "che": 704,
      "ical ": 705,
      "made ": 706,
      "ole ": 707,
      "compl": 708,
      "worl": 709,
      "does ": 710,
      "great ": 711,
      "air": 712,
      "best ": 713,
      "by the ": 714,
      "gn": 715,
      "he": 716,
      "hear": 717,
      "kill": 718,
      "little ": 719,
      "seri": 720,
      "we": 721,
      "ance ": 722,
      "ings ": 723,
      "ing that ": 724,
      "ard ": 725,
      "illi": 726,
      "action ": 727,
      "youn": 728,
      "lear": 729,
      "this movie ": 730,
      "tty ": 731,
      "tain": 732,
      "makes ": 733,
      "funn": 734,
      "--": 735,
      "-- ": 736,
      "0 ": 737,
      "Al": 738,
      "D ": 739,
      "Mi": 740,
      "am ": 741,
      "br": 742,
      "mar": 743,
      "men ": 744,
      "mem": 745,
      "ter": 746,
      "ting ": 747,
      "though": 748,
      "inv": 749,
      "inst": 750,
      " their ": 751,
      "ors ": 752,
      "our ": 753,
      "res": 754,
      "om ": 755,
      "acc": 756,
      "act ": 757,
      "see": 758,
      "isn't ": 759,
      "being ": 760,
      "before ": 761,
      "you'": 762,
      "ere are ": 763,
      "for a ": 764,
      "perfor": 765,
      "story": 766,
      "every": 767,
      "19": 768,
      "Ad": 769,
      "DO": 770,
      "E ": 771,
      "Fr": 772,
      "Gr": 773,
      "ber": 774,
      "der ": 775,
      "dev": 776,
      "lau": 777,
      "ty": 778,
      "tur": 779,
      "tra": 780,
      "ther ": 781,
      "ann": 782,
      "ori": 783,
      "off": 784,
      "as the ": 785,
      "ack": 786,
      "over ": 787,
      "ever, ": 788,
      "ere is ": 789,
      " this movie ": 790,
      "too ": 791,
      ", and the ": 792,
      "ally": 793,
      ". In ": 794,
      "film is ": 795,
      "tru": 796,
      "imp": 797,
      "pretty ": 798,
      "character": 799,
      "self ": 800,
      "beli": 801,
      "e-": 802,
      "gor": 803,
      "hop": 804,
      "men": 805,
      "mon": 806,
      "mis": 807,
      "nam": 808,
      "sa": 809,
      "was": 810,
      "e of ": 811,
      "s of ": 812,
      "ans ": 813,
      " than ": 814,
      "ing a ": 815,
      "ster": 816,
      "as a ": 817,
      "sex": 818,
      "owever, ": 819,
      "ict": 820,
      "hav": 821,
      "able": 822,
      "did ": 823,
      "didn't ": 824,
      "out of ": 825,
      "come ": 826,
      "that the ": 827,
      "work ": 828,
      "something ": 829,
      "minut": 830,
      "ways ": 831,
      "scene ": 832,
      "line ": 833,
      ". But ": 834,
      "director ": 835,
      "A ": 836,
      "Ch": 837,
      "In": 838,
      "RE": 839,
      "bor": 840,
      "dr": 841,
      "dur": 842,
      "fam": 843,
      "ke": 844,
      "mer": 845,
      "ps ": 846,
      "tal": 847,
      "way ": 848,
      "ertain": 849,
      " thr": 850,
      ". F": 851,
      ". O": 852,
      "ard": 853,
      "rel": 854,
      "ree ": 855,
      "il ": 856,
      "ome ": 857,
      "ed and ": 858,
      "es of ": 859,
      "own": 860,
      "rip": 861,
      "right ": 862,
      "movie, ": 863,
      "least ": 864,
      "should ": 865,
      "comed": 866,
      "sion ": 867,
      "with a ": 868,
      ". Al": 869,
      "ept ": 870,
      "tak": 871,
      "writ": 872,
      "kind of ": 873,
      "Peti": 874,
      "* ": 875,
      "Pau": 876,
      "You": 877,
      "ec": 878,
      "gra": 879,
      "hou": 880,
      "ion": 881,
      "ide": 882,
      "low": 883,
      "might ": 884,
      "ve": 885,
      "well ": 886,
      "ine ": 887,
      ". D": 888,
      "real ": 889,
      "to see ": 890,
      "ster ": 891,
      "stra": 892,
      "cha": 893,
      "at the ": 894,
      "esn't ": 895,
      "of a ": 896,
      "ating ": 897,
      "whole ": 898,
      "ick": 899,
      "I was ": 900,
      "life ": 901,
      "ash": 902,
      "ase ": 903,
      "ably ": 904,
      "acting ": 905,
      "e, and ": 906,
      "sion": 907,
      "pect": 908,
      "gets ": 909,
      "times ": 910,
      "has been ": 911,
      "epis": 912,
      "ere's ": 913,
      "sub": 914,
      "girl ": 915,
      "love ": 916,
      "better ": 917,
      "years ": 918,
      "appear": 919,
      "performan": 920,
      "laugh": 921,
      ", this ": 922,
      "Car": 923,
      "RY": 924,
      "TV": 925,
      "az": 926,
      "ail": 927,
      "ach": 928,
      "ain ": 929,
      "ber ": 930,
      "co": 931,
      "du": 932,
      "gg": 933,
      "he's ": 934,
      "ment ": 935,
      "os": 936,
      "pri": 937,
      "run": 938,
      "sing": 939,
      "well": 940,
      "eng": 941,
      "ening ": 942,
      ". M": 943,
      "real": 944,
      "es the ": 945,
      "ity": 946,
      "while ": 947,
      "sequ": 948,
      "may ": 949,
      "shi": 950,
      "amp": 951,
      "one of the ": 952,
      "scrip": 953,
      ". It's ": 954,
      "ed, ": 955,
      "again": 956,
      "ound": 957,
      "guy ": 958,
      "goes ": 959,
      "self": 960,
      "anything ": 961,
      "seems ": 962,
      "horr": 963,
      "), ": 964,
      "But ": 965,
      "It ": 966,
      "cr": 967,
      "call": 968,
      "ef": 969,
      "ead ": 970,
      "fath": 971,
      "got ": 972,
      "hum": 973,
      "lat": 974,
      "ment": 975,
      "noth": 976,
      "por": 977,
      "sy": 978,
      "sor": 979,
      "ty ": 980,
      "vo": 981,
      "then ": 982,
      "als ": 983,
      "choo": 984,
      "ombi": 985,
      "ed with ": 986,
      "at least ": 987,
      "he is ": 988,
      "on a ": 989,
      "betw": 990,
      "play ": 991,
      "happ": 992,
      "movies ": 993,
      "without ": 994,
      "comp": 995,
      "ently ": 996,
      "dec": 997,
      "few ": 998,
      "doesn't ": 999,
      "take ": 1000,
      "watch ": 1001,
      "look ": 1002,
      "looks ": 1003,
      "if you ": 1004,
      "each ": 1005,
      "screen ": 1006,
      "can't ": 1007,
      "reason ": 1008,
      "typ": 1009,
      "believ": 1010,
      "wasn't ": 1011,
      "betwe": 1012,
      "Amer": 1013,
      "CRY": 1014,
      "FRE": 1015,
      "IN": 1016,
      "T ": 1017,
      "ase": 1018,
      "back ": 1019,
      "cin": 1020,
      "ff ": 1021,
      "face ": 1022,
      "go ": 1023,
      "good": 1024,
      "hel": 1025,
      "ll": 1026,
      "oh": 1027,
      "sm": 1028,
      "sin": 1029,
      "son": 1030,
      "ses ": 1031,
      "sam": 1032,
      "t, ": 1033,
      "s are ": 1034,
      "their ": 1035,
      "into the ": 1036,
      "another ": 1037,
      "en't ": 1038,
      "is not ": 1039,
      "ing th": 1040,
      "ary ": 1041,
      "almost ": 1042,
      "off ": 1043,
      "ele ": 1044,
      "ican ": 1045,
      "ick ": 1046,
      "ise ": 1047,
      "beg": 1048,
      "plan": 1049,
      "ook": 1050,
      "main ": 1051,
      "actors ": 1052,
      "s, but ": 1053,
      "cont": 1054,
      ") and ": 1055,
      "feel": 1056,
      "vide": 1057,
      "produc": 1058,
      "watching ": 1059,
      "know ": 1060,
      "scenes ": 1061,
      "ish ": 1062,
      "bod": 1063,
      "underst": 1064,
      "book ": 1065,
      "young ": 1066,
      "Micha": 1067,
      "origin": 1068,
      "You ": 1069,
      "Michael ": 1070,
      "EDO": 1071,
      "It's ": 1072,
      "S ": 1073,
      "ai": 1074,
      "b ": 1075,
      "bas": 1076,
      "col": 1077,
      "coun": 1078,
      "ey": 1079,
      "fic": 1080,
      "gl": 1081,
      "hu": 1082,
      "loc": 1083,
      "mus": 1084,
      "ning ": 1085,
      "now ": 1086,
      "s, and ": 1087,
      "ual ": 1088,
      "use ": 1089,
      "want ": 1090,
      "wood": 1091,
      "y's ": 1092,
      "yet ": 1093,
      "thin": 1094,
      "there ": 1095,
      "enough ": 1096,
      "on-": 1097,
      "around ": 1098,
      "always ": 1099,
      "ing her ": 1100,
      "itu": 1101,
      "who": 1102,
      "why ": 1103,
      "becomes ": 1104,
      "plo": 1105,
      "plac": 1106,
      "maz": 1107,
      "diff": 1108,
      ".<br /><br />A": 1109,
      "side ": 1110,
      "audi": 1111,
      "one of ": 1112,
      "expect": 1113,
      "sci": 1114,
      "inten": 1115,
      "oughout ": 1116,
      "partic": 1117,
      "like th": 1118,
      "clu": 1119,
      "class": 1120,
      "such ": 1121,
      "had a ": 1122,
      ". They ": 1123,
      ". There are ": 1124,
      ". It is ": 1125,
      " they are ": 1126,
      "aliz": 1127,
      "after": 1128,
      "him ": 1129,
      "imagin": 1130,
      "you're ": 1131,
      "Pauline ": 1132,
      "graph": 1133,
      "TV ": 1134,
      "CRY ": 1135,
      "FREEDO": 1136,
      "FREEDOM": 1137,
      ", that ": 1138,
      "2 ": 1139,
      "DV": 1140,
      "Hol": 1141,
      "Movi": 1142,
      "ave ": 1143,
      "bre": 1144,
      "bit ": 1145,
      "ble": 1146,
      "cu": 1147,
      "cor": 1148,
      "clear": 1149,
      "dic": 1150,
      "dum": 1151,
      "down ": 1152,
      "eat": 1153,
      "eas": 1154,
      "foo": 1155,
      "fact ": 1156,
      "hol": 1157,
      "here ": 1158,
      "ist": 1159,
      "kid": 1160,
      "mat": 1161,
      "must ": 1162,
      "ply ": 1163,
      "ry": 1164,
      "rol": 1165,
      "son ": 1166,
      "s.<br /><br />": 1167,
      "spo": 1168,
      "s. The ": 1169,
      "say ": 1170,
      "tre": 1171,
      "ten ": 1172,
      "tri": 1173,
      "tell": 1174,
      "x ": 1175,
      "ys": 1176,
      "zombi": 1177,
      "them": 1178,
      "them ": 1179,
      "t and ": 1180,
      "ans": 1181,
      "y and ": 1182,
      "once ": 1183,
      "ale ": 1184,
      "read ": 1185,
      "of this ": 1186,
      "tit": 1187,
      "tive ": 1188,
      "to a ": 1189,
      "stre": 1190,
      "ed in ": 1191,
      "ed in the ": 1192,
      "elop": 1193,
      "the movie ": 1194,
      "ically ": 1195,
      "lik": 1196,
      "lead": 1197,
      "bud": 1198,
      "was the ": 1199,
      "with his ": 1200,
      "exper": 1201,
      "inter": 1202,
      ". I'": 1203,
      ". In": 1204,
      "tion of ": 1205,
      "ear ": 1206,
      "work": 1207,
      "conv": 1208,
      "part": 1209,
      "film, ": 1210,
      "clo": 1211,
      "viol": 1212,
      "quite ": 1213,
      "looking ": 1214,
      "new ": 1215,
      "away ": 1216,
      "going ": 1217,
      "can be ": 1218,
      "finally ": 1219,
      ". He ": 1220,
      "entire ": 1221,
      "I'm ": 1222,
      "critic": 1223,
      "woman ": 1224,
      "ously ": 1225,
      " think": 1226,
      " think ": 1227,
      "interesting ": 1228,
      "simply ": 1229,
      "proble": 1230,
      "develop": 1231,
      "keep": 1232,
      ".\" ": 1233,
      "10": 1234,
      "Afr": 1235,
      "Ev": 1236,
      "Fid": 1237,
      "Mort": 1238,
      "Par": 1239,
      "Sh": 1240,
      "both": 1241,
      "ct ": 1242,
      "cra": 1243,
      "cast ": 1244,
      "cour": 1245,
      "cover": 1246,
      "dly ": 1247,
      "dri": 1248,
      "fact": 1249,
      "fol": 1250,
      "hil": 1251,
      "hus": 1252,
      "hard ": 1253,
      "ire": 1254,
      "ion ": 1255,
      "ly, ": 1256,
      "ly the ": 1257,
      "man ": 1258,
      "ner": 1259,
      "nat": 1260,
      "ney ": 1261,
      "sed ": 1262,
      "sol": 1263,
      "sure ": 1264,
      "schoo": 1265,
      "win": 1266,
      "wood ": 1267,
      "ybe ": 1268,
      "inc": 1269,
      "anim": 1270,
      " though": 1271,
      " these ": 1272,
      "y to ": 1273,
      "enjo": 1274,
      "ond ": 1275,
      ", so ": 1276,
      "or the ": 1277,
      ". (": 1278,
      "ouple ": 1279,
      "a v": 1280,
      "a good ": 1281,
      "realiz": 1282,
      "tiv": 1283,
      "er and ": 1284,
      "stu": 1285,
      "sty": 1286,
      "stop": 1287,
      "ed the ": 1288,
      "es that ": 1289,
      "action": 1290,
      "whose ": 1291,
      "sever": 1292,
      "beau": 1293,
      "maybe ": 1294,
      "wife ": 1295,
      "uni": 1296,
      "let ": 1297,
      "was a ": 1298,
      "ire ": 1299,
      "sh ": 1300,
      "entertain": 1301,
      "tot": 1302,
      "auth": 1303,
      "expl": 1304,
      "poin": 1305,
      "intro": 1306,
      "have to ": 1307,
      "appar": 1308,
      ". A ": 1309,
      "conc": 1310,
      "ular": 1311,
      "times": 1312,
      "try": 1313,
      "feel ": 1314,
      "clud": 1315,
      "s. I ": 1316,
      "someone ": 1317,
      "mind": 1318,
      "giv": 1319,
      "cred": 1320,
      "big ": 1321,
      "peopl": 1322,
      "shows ": 1323,
      "I've ": 1324,
      "ative ": 1325,
      "better": 1326,
      "drama": 1327,
      "possi": 1328,
      "girls ": 1329,
      "teen": 1330,
      "sense ": 1331,
      "world": 1332,
      "world ": 1333,
      "series ": 1334,
      "funny": 1335,
      "Adele ": 1336,
      "hope ": 1337,
      "Petiot ": 1338,
      "sequenc": 1339,
      "horror ": 1340,
      "nothing ": 1341,
      "same ": 1342,
      "CRY FREEDOM": 1343,
      "close": 1344,
      "husb": 1345,
      "several ": 1346,
      "My ": 1347,
      "Sou": 1348,
      "Ton": 1349,
      "Un": 1350,
      "We ": 1351,
      "Wiz": 1352,
      "ce": 1353,
      "ck": 1354,
      "cat": 1355,
      "cas": 1356,
      "care ": 1357,
      "cop": 1358,
      "down": 1359,
      "eal": 1360,
      "ew ": 1361,
      "foc": 1362,
      "far ": 1363,
      "fav": 1364,
      "found ": 1365,
      "how": 1366,
      "hand": 1367,
      "hour": 1368,
      "my": 1369,
      "ms ": 1370,
      "mom": 1371,
      "ne ": 1372,
      "ns ": 1373,
      "ness ": 1374,
      "not": 1375,
      "ost": 1376,
      "pu": 1377,
      "pen": 1378,
      "ping ": 1379,
      "pow": 1380,
      "pain": 1381,
      "ry ": 1382,
      "sk": 1383,
      "saw": 1384,
      "situ": 1385,
      "ue ": 1386,
      "vis": 1387,
      "won": 1388,
      "ers": 1389,
      "y is ": 1390,
      "en, ": 1391,
      ", or ": 1392,
      ", who ": 1393,
      ". You ": 1394,
      "ark ": 1395,
      "alo": 1396,
      "a movie ": 1397,
      "a few ": 1398,
      "rest ": 1399,
      "rele": 1400,
      "recomm": 1401,
      "cho": 1402,
      "chil": 1403,
      "ed to be ": 1404,
      "ele": 1405,
      "elli": 1406,
      "eless ": 1407,
      "espe": 1408,
      "in his ": 1409,
      "mag": 1410,
      "m of ": 1411,
      "die ": 1412,
      "ird ": 1413,
      "ampi": 1414,
      "e, but ": 1415,
      "top ": 1416,
      "movie is ": 1417,
      "pet": 1418,
      "again ": 1419,
      "ouldn't ": 1420,
      "this film ": 1421,
      "gett": 1422,
      "appoint": 1423,
      "time": 1424,
      "idd": 1425,
      "part ": 1426,
      "like a ": 1427,
      "like the ": 1428,
      "perfe": 1429,
      "films ": 1430,
      "ellent ": 1431,
      "spir": 1432,
      "ock": 1433,
      "more than ": 1434,
      "watching": 1435,
      "find ": 1436,
      "pris": 1437,
      "hero": 1438,
      "every ": 1439,
      "playing ": 1440,
      "played ": 1441,
      "fun ": 1442,
      ". This is ": 1443,
      "a lot ": 1444,
      "attemp": 1445,
      "arious ": 1446,
      "gener": 1447,
      "probably ": 1448,
      "complet": 1449,
      "instead ": 1450,
      "ress ": 1451,
      "import": 1452,
      "family ": 1453,
      "takes ": 1454,
      "episo": 1455,
      "performance ": 1456,
      "script ": 1457,
      "happen": 1458,
      "American ": 1459,
      "begin ": 1460,
      "video ": 1461,
      "original ": 1462,
      "differ": 1463,
      "zombie ": 1464,
      "especi": 1465,
      "ampire": 1466,
      " T": 1467,
      "\"D": 1468,
      "\"S": 1469,
      "\", ": 1470,
      "(and ": 1471,
      ")<br /><br />": 1472,
      "- the ": 1473,
      ".) ": 1474,
      "00": 1475,
      "An": 1476,
      "Bri": 1477,
      "Con": 1478,
      "East": 1479,
      "HE ": 1480,
      "Li": 1481,
      "Mat": 1482,
      "OV": 1483,
      "Rob": 1484,
      "Se": 1485,
      "Tr": 1486,
      "ak ": 1487,
      "amaz": 1488,
      "bar": 1489,
      "cam": 1490,
      "cast": 1491,
      "done ": 1492,
      "est": 1493,
      "fre": 1494,
      "gs ": 1495,
      "gure ": 1496,
      "hin": 1497,
      "hal": 1498,
      "here": 1499,
      "job": 1500,
      "last ": 1501,
      "long": 1502,
      "mil": 1503,
      "mov": 1504,
      "mess": 1505,
      "near": 1506,
      "night ": 1507,
      "put ": 1508,
      "port": 1509,
      "pict": 1510,
      "sn": 1511,
      "sle": 1512,
      "tun": 1513,
      "tenti": 1514,
      "vir": 1515,
      "war": 1516,
      "wal": 1517,
      "wea": 1518,
      "e the ": 1519,
      "s were ": 1520,
      "there": 1521,
      "these ": 1522,
      "three ": 1523,
      "insi": 1524,
      "includ": 1525,
      "er-": 1526,
      "ants ": 1527,
      " there is ": 1528,
      "en th": 1529,
      ", B": 1530,
      ", a ": 1531,
      ", as ": 1532,
      ", he ": 1533,
      ", un": 1534,
      ". R": 1535,
      " the first ": 1536,
      "art": 1537,
      "ards ": 1538,
      "rec": 1539,
      "tish ": 1540,
      "ing of ": 1541,
      "ed on ": 1542,
      "else ": 1543,
      "as he ": 1544,
      "as well ": 1545,
      "es. The ": 1546,
      "itch": 1547,
      "ity, ": 1548,
      "ature": 1549,
      "what": 1550,
      "set ": 1551,
      "owing ": 1552,
      "begin": 1553,
      "plot": 1554,
      "I can ": 1555,
      "maj": 1556,
      "unti": 1557,
      "litic": 1558,
      "light": 1559,
      "rible ": 1560,
      "movie's ": 1561,
      "with this ": 1562,
      "lead ": 1563,
      "leav": 1564,
      "dialo": 1565,
      "shot": 1566,
      ".<br /><br />S": 1567,
      ".<br /><br />Th": 1568,
      "for th": 1569,
      "toge": 1570,
      "potenti": 1571,
      "politic": 1572,
      ". If ": 1573,
      "you can ": 1574,
      "ough the ": 1575,
      "fron": 1576,
      "consi": 1577,
      "used ": 1578,
      "film's ": 1579,
      "spent ": 1580,
      "we see ": 1581,
      ". It was ": 1582,
      "figure ": 1583,
      "black ": 1584,
      "prov": 1585,
      "alien": 1586,
      ". However, ": 1587,
      "plays ": 1588,
      "played by ": 1589,
      "friend ": 1590,
      "plot is ": 1591,
      "except ": 1592,
      "excellent ": 1593,
      "women ": 1594,
      "full ": 1595,
      "book": 1596,
      "young": 1597,
      "memor": 1598,
      "invol": 1599,
      "Grant ": 1600,
      "turn ": 1601,
      "minutes ": 1602,
      "relation": 1603,
      "house ": 1604,
      "effe": 1605,
      "human ": 1606,
      "between ": 1607,
      "cinem": 1608,
      "want to ": 1609,
      "particular": 1610,
      "DVD ": 1611,
      "Holly": 1612,
      "budget ": 1613,
      "both ": 1614,
      "school ": 1615,
      "beauti": 1616,
      "point ": 1617,
      "introduc": 1618,
      "wonder": 1619,
      "ellig": 1620,
      "completely ": 1621,
      "episode ": 1622,
      "\"The ": 1623,
      "'d ": 1624,
      "), and ": 1625,
      ",\" ": 1626,
      "10 ": 1627,
      "AL": 1628,
      "BO": 1629,
      "Bl": 1630,
      "Br": 1631,
      "Cl": 1632,
      "De": 1633,
      "EL": 1634,
      "ED ": 1635,
      "For": 1636,
      "Fil": 1637,
      "Ir": 1638,
      "Le": 1639,
      "Mo": 1640,
      "Man": 1641,
      "TO": 1642,
      "aun": 1643,
      "adi": 1644,
      "aver": 1645,
      "bly ": 1646,
      "back": 1647,
      "cum": 1648,
      "certain": 1649,
      "d-": 1650,
      "dou": 1651,
      "dang": 1652,
      "ece ": 1653,
      "fan": 1654,
      "lit": 1655,
      "long ": 1656,
      "mur": 1657,
      "nov": 1658,
      "ograph": 1659,
      "pul": 1660,
      "pite ": 1661,
      "s, the ": 1662,
      "tou": 1663,
      "too": 1664,
      "twi": 1665,
      "war ": 1666,
      "wish": 1667,
      "s in the ": 1668,
      "thau": 1669,
      "ins": 1670,
      "ern": 1671,
      "err": 1672,
      "erv": 1673,
      " than": 1674,
      "on, ": 1675,
      "one, ": 1676,
      ". L": 1677,
      ". P": 1678,
      "is that ": 1679,
      "arc": 1680,
      "along ": 1681,
      "review": 1682,
      "remem": 1683,
      "of this movie ": 1684,
      "often ": 1685,
      "to her ": 1686,
      "stly ": 1687,
      "stand": 1688,
      "ed it ": 1689,
      "ed up ": 1690,
      "ed from ": 1691,
      "ates ": 1692,
      "ately ": 1693,
      "whit": 1694,
      "seen": 1695,
      "seem ": 1696,
      "ows ": 1697,
      "is, ": 1698,
      "ism ": 1699,
      "behin": 1700,
      "it a ": 1701,
      "place ": 1702,
      "I have ": 1703,
      "mach": 1704,
      "haps ": 1705,
      "light ": 1706,
      "lives ": 1707,
      "movie. ": 1708,
      "lef": 1709,
      "leg": 1710,
      "dist": 1711,
      "his fath": 1712,
      "ement ": 1713,
      "emplo": 1714,
      ".<br /><br />I ": 1715,
      ".<br /><br />Wh": 1716,
      "rather": 1717,
      "defin": 1718,
      "movie that ": 1719,
      "ros": 1720,
      "room": 1721,
      "with some ": 1722,
      "aught": 1723,
      "exam": 1724,
      "expres": 1725,
      "intellig": 1726,
      "tions ": 1727,
      "you will ": 1728,
      "so much ": 1729,
      "worst ": 1730,
      "\" and ": 1731,
      "who is ": 1732,
      "ult ": 1733,
      "time and ": 1734,
      "track ": 1735,
      "ight": 1736,
      "idney ": 1737,
      "person": 1738,
      "stori": 1739,
      "filmmak": 1740,
      "doing ": 1741,
      "guy": 1742,
      "look": 1743,
      "er, but ": 1744,
      "sure": 1745,
      "we have ": 1746,
      "much": 1747,
      "up and ": 1748,
      "mean": 1749,
      "when he ": 1750,
      "way, ": 1751,
      "which is ": 1752,
      "creep": 1753,
      "direc": 1754,
      "great": 1755,
      "a hear": 1756,
      "cial ": 1757,
      "disappoint": 1758,
      "strang": 1759,
      "director": 1760,
      "could have ": 1761,
      "where the ": 1762,
      "flaw": 1763,
      "a little ": 1764,
      "pointless ": 1765,
      "atis": 1766,
      "ence fic": 1767,
      "seemed ": 1768,
      "starts ": 1769,
      "screen": 1770,
      "draw": 1771,
      "suppos": 1772,
      "cannot ": 1773,
      "throughout ": 1774,
      "ready ": 1775,
      "funny ": 1776,
      "Fren": 1777,
      ". In fact": 1778,
      "true ": 1779,
      "money ": 1780,
      "said ": 1781,
      "during the ": 1782,
      "Petiot": 1783,
      "house": 1784,
      "idea ": 1785,
      "ash ": 1786,
      "episod": 1787,
      "ship ": 1788,
      "against ": 1789,
      "voic": 1790,
      "since ": 1791,
      "plane ": 1792,
      "contin": 1793,
      "body ": 1794,
      "air ": 1795,
      "music ": 1796,
      "such as ": 1797,
      "clearly ": 1798,
      ". I'm ": 1799,
      "follow": 1800,
      "style ": 1801,
      "trying to ": 1802,
      "husband": 1803,
      "South ": 1804,
      "power": 1805,
      "rest of the ": 1806,
      "childr": 1807,
      "magaz": 1808,
      "different ": 1809,
      "wonderful ": 1810,
      "certainly ": 1811,
      "ence fiction ": 1812,
      " is ": 1813,
      "\"F": 1814,
      "\"R": 1815,
      "& ": 1816,
      "(the ": 1817,
      ".. ": 1818,
      "200": 1819,
      "5 ": 1820,
      "8 ": 1821,
      "9 ": 1822,
      "AN": 1823,
      "Ari": 1824,
      "And ": 1825,
      "Ben": 1826,
      "Ey": 1827,
      "I think ": 1828,
      "Ma": 1829,
      "Mc": 1830,
      "Not ": 1831,
      "ON": 1832,
      "Ro": 1833,
      "Sp": 1834,
      "Sidney ": 1835,
      "To": 1836,
      "Tw": 1837,
      "Way": 1838,
      "ax": 1839,
      "by": 1840,
      "bra": 1841,
      "bro": 1842,
      "cent": 1843,
      "cap": 1844,
      "cele": 1845,
      "couldn't ": 1846,
      "dre": 1847,
      "dad": 1848,
      "dad ": 1849,
      "eor": 1850,
      "ema": 1851,
      "eal ": 1852,
      "far": 1853,
      "fel": 1854,
      "fan ": 1855,
      "fant": 1856,
      "fair": 1857,
      "gam": 1858,
      "hom": 1859,
      "hun": 1860,
      "hot": 1861,
      "however, ": 1862,
      "ise": 1863,
      "kill ": 1864,
      "lar": 1865,
      "lad": 1866,
      "less": 1867,
      "mp": 1868,
      "mone": 1869,
      "midd": 1870,
      "ok": 1871,
      "pic": 1872,
      "pure ": 1873,
      "swi": 1874,
      "s. A": 1875,
      "sus": 1876,
      "sound": 1877,
      "satis": 1878,
      "ten": 1879,
      "ter ": 1880,
      "tel": 1881,
      "tow": 1882,
      "tea": 1883,
      "ual": 1884,
      "um ": 1885,
      "vel": 1886,
      "vic": 1887,
      "vampire": 1888,
      "ying ": 1889,
      "yed ": 1890,
      "z ": 1891,
      "s a ": 1892,
      "s - ": 1893,
      "those ": 1894,
      "that's ": 1895,
      "ind": 1896,
      "inn": 1897,
      "inde": 1898,
      "incre": 1899,
      "in their ": 1900,
      "erk": 1901,
      "er's ": 1902,
      "anno": 1903,
      " there ": 1904,
      " things ": 1905,
      "ony ": 1906,
      "only": 1907,
      ", it ": 1908,
      "ord": 1909,
      ". C": 1910,
      "ingly ": 1911,
      "arra": 1912,
      "alu": 1913,
      "along": 1914,
      "already ": 1915,
      "a great ": 1916,
      "reg": 1917,
      "rev": 1918,
      "red ": 1919,
      "tice ": 1920,
      "ing out ": 1921,
      "er (": 1922,
      "to make ": 1923,
      "stup": 1924,
      "ili": 1925,
      "illy ": 1926,
      "ed that ": 1927,
      "ed by the ": 1928,
      "es to ": 1929,
      "es are ": 1930,
      "es her ": 1931,
      "it.": 1932,
      "of her ": 1933,
      "of cour": 1934,
      "atel": 1935,
      "ated": 1936,
      "whil": 1937,
      "whom ": 1938,
      "seas": 1939,
      "secon": 1940,
      "ow, ": 1941,
      "ica ": 1942,
      "ism": 1943,
      "ist ": 1944,
      "evil": 1945,
      "event": 1946,
      "evil ": 1947,
      "I would ": 1948,
      "list": 1949,
      "ridic": 1950,
      "your": 1951,
      "led": 1952,
      "le, ": 1953,
      "abor": 1954,
      "absol": 1955,
      "acting": 1956,
      "fill": 1957,
      "aybe ": 1958,
      "emo": 1959,
      "ements ": 1960,
      "compar": 1961,
      "rather ": 1962,
      "form": 1963,
      "fortun": 1964,
      "sign": 1965,
      "ded": 1966,
      "all, ": 1967,
      "allow": 1968,
      "extre": 1969,
      "upon ": 1970,
      "tion and ": 1971,
      "you are ": 1972,
      "this is ": 1973,
      "appro": 1974,
      "worse ": 1975,
      ". An": 1976,
      "try ": 1977,
      "mostly ": 1978,
      "pred": 1979,
      "opening ": 1980,
      "The Wiz": 1981,
      "parts ": 1982,
      "about the ": 1983,
      "close ": 1984,
      "ell, ": 1985,
      "que ": 1986,
      "ques": 1987,
      "space ": 1988,
      "occas": 1989,
      "ends ": 1990,
      "looked ": 1991,
      "need": 1992,
      "what is ": 1993,
      "someth": 1994,
      "somehow ": 1995,
      "sometimes ": 1996,
      "itten ": 1997,
      "when it ": 1998,
      "when she ": 1999,
      "from a ": 2000,
      "ute ": 2001,
      "ational ": 2002,
      "prac": 2003,
      "etc": 2004,
      "they are ": 2005,
      "alien ": 2006,
      "a hor": 2007,
      "a couple ": 2008,
      "because it ": 2009,
      ". This is a ": 2010,
      ", then ": 2011,
      ", that's ": 2012,
      "could have been ": 2013,
      "phys": 2014,
      "ence": 2015,
      "a sm": 2016,
      "anyone ": 2017,
      "obvi": 2018,
      "soon ": 2019,
      "piece ": 2020,
      "fully ": 2021,
      "lost ": 2022,
      "if the ": 2023,
      "survi": 2024,
      "descri": 2025,
      "through ": 2026,
      "high ": 2027,
      "head": 2028,
      "wee": 2029,
      "thought ": 2030,
      "everything ": 2031,
      "Franc": 2032,
      "turns ": 2033,
      "truly ": 2034,
      "characters, ": 2035,
      "haven't ": 2036,
      "Chin": 2037,
      "Chri": 2038,
      ". For ": 2039,
      "writing ": 2040,
      "might be ": 2041,
      "called ": 2042,
      "later ": 2043,
      "sort of ": 2044,
      "each other": 2045,
      "type of ": 2046,
      "ING": 2047,
      "science fiction ": 2048,
      "like this": 2049,
      "after the ": 2050,
      "foot": 2051,
      "title ": 2052,
      "likely ": 2053,
      "experi": 2054,
      "Fido ": 2055,
      "hard to ": 2056,
      "realize ": 2057,
      "apparently ": 2058,
      "given ": 2059,
      "dramatic ": 2060,
      "teenage ": 2061,
      "sense of ": 2062,
      "Tony's ": 2063,
      "focus ": 2064,
      "favor": 2065,
      "moment": 2066,
      "saw ": 2067,
      "especially ": 2068,
      "British ": 2069,
      "Matthau": 2070,
      "job ": 2071,
      "picture ": 2072,
      "virt": 2073,
      "until ": 2074,
      "potential ": 2075,
      "consider": 2076,
      "involv": 2077,
      "ALL": 2078,
      "touch": 2079,
      "rather than ": 2080,
      "creepy ": 2081,
      "supposed to be ": 2082,
      ". In fact, ": 2083,
      "fantas": 2084,
      "victim": 2085,
      "ridicul": 2086,
      "\"C": 2087,
      "\"bad": 2088,
      "'ll ": 2089,
      "(B": 2090,
      "(or ": 2091,
      ", they ": 2092,
      ".)<br /><br />": 2093,
      "0's ": 2094,
      "7 ": 2095,
      "??": 2096,
      "?\" ": 2097,
      "Bu": 2098,
      "Bill ": 2099,
      "Col": 2100,
      "Dr": 2101,
      "Den": 2102,
      "Dad": 2103,
      "ER": 2104,
      "En": 2105,
      "Ex": 2106,
      "Ga": 2107,
      "Gre": 2108,
      "It": 2109,
      "Lou": 2110,
      "Luc": 2111,
      "MM": 2112,
      "Mr": 2113,
      "Mar": 2114,
      "Mel": 2115,
      "OU": 2116,
      "One ": 2117,
      "Ram": 2118,
      "Sc": 2119,
      "Scar": 2120,
      "Youn": 2121,
      "a-": 2122,
      "a, ": 2123,
      "ach ": 2124,
      "bed ": 2125,
      "bel": 2126,
      "cli": 2127,
      "cle": 2128,
      "cur": 2129,
      "cent ": 2130,
      "cts ": 2131,
      "call ": 2132,
      "dd": 2133,
      "don": 2134,
      "daught": 2135,
      "e.": 2136,
      "ean": 2137,
      "e. The ": 2138,
      "e, the ": 2139,
      "e' ": 2140,
      "e; ": 2141,
      "fac": 2142,
      "fur": 2143,
      "fall": 2144,
      "fans ": 2145,
      "ges ": 2146,
      "goo": 2147,
      "gun": 2148,
      "glo": 2149,
      "hon": 2150,
      "home ": 2151,
      "ir ": 2152,
      "ial ": 2153,
      "jec": 2154,
      "lou": 2155,
      "ling ": 2156,
      "luc": 2157,
      "mi": 2158,
      "ming ": 2159,
      "me, ": 2160,
      "mother ": 2161,
      "mely ": 2162,
      "male ": 2163,
      "nex": 2164,
      "nice ": 2165,
      "narra": 2166,
      "pan": 2167,
      "ped ": 2168,
      "pur": 2169,
      "pass": 2170,
      "pati": 2171,
      "ror": 2172,
      "ram": 2173,
      "rent": 2174,
      "role ": 2175,
      "rating ": 2176,
      "s.": 2177,
      "t-": 2178,
      "tch": 2179,
      "ug": 2180,
      "use": 2181,
      "utt": 2182,
      "vor": 2183,
      "vamp": 2184,
      "various ": 2185,
      "wa": 2186,
      "wil": 2187,
      "win ": 2188,
      "want": 2189,
      "wast": 2190,
      "wants ": 2191,
      "y that ": 2192,
      "yond ": 2193,
      "e of the ": 2194,
      "s in ": 2195,
      "s of the ": 2196,
      "s for ": 2197,
      "than": 2198,
      "thy ": 2199,
      "that": 2200,
      "there is ": 2201,
      "third ": 2202,
      "ini": 2203,
      "ere, ": 2204,
      "ers, ": 2205,
      "ers. ": 2206,
      "erous ": 2207,
      "ano": 2208,
      "anci": 2209,
      "anima": 2210,
      " that": 2211,
      " those ": 2212,
      "y Movi": 2213,
      "ens": 2214,
      "ensi": 2215,
      "ones": 2216,
      "ones ": 2217,
      "on this ": 2218,
      ", with ": 2219,
      "is just ": 2220,
      "is very ": 2221,
      "is also ": 2222,
      "is almost ": 2223,
      "ing this ": 2224,
      "ings. ": 2225,
      "art ": 2226,
      "aling ": 2227,
      "alone ": 2228,
      "ality ": 2229,
      "red": 2230,
      "resp": 2231,
      "remin": 2232,
      "and it ": 2233,
      "ing his ": 2234,
      "to have ": 2235,
      "to do ": 2236,
      "stay ": 2237,
      "stere": 2238,
      "iler ": 2239,
      "ch the ": 2240,
      "chang": 2241,
      "else": 2242,
      "as an ": 2243,
      "as it ": 2244,
      "as she ": 2245,
      "the same ": 2246,
      "es in ": 2247,
      "es his ": 2248,
      "es of the ": 2249,
      "it, ": 2250,
      "itch ": 2251,
      "it. The ": 2252,
      "of an ": 2253,
      "of what ": 2254,
      "ate": 2255,
      "ats ": 2256,
      "whe": 2257,
      "when": 2258,
      "white ": 2259,
      "ly recomm": 2260,
      "he has ": 2261,
      "sedly ": 2262,
      "in my ": 2263,
      "in 19": 2264,
      "iss": 2265,
      "become ": 2266,
      "beyond ": 2267,
      "plant": 2268,
      "eve ": 2269,
      "evis": 2270,
      "even the ": 2271,
      "I don't ": 2272,
      "I give ": 2273,
      "I am ": 2274,
      "I found ": 2275,
      "mas": 2276,
      "main": 2277,
      "making ": 2278,
      "lim": 2279,
      "liv": 2280,
      "lie ": 2281,
      "live ": 2282,
      "riv": 2283,
      "about": 2284,
      "dian ": 2285,
      "buy ": 2286,
      "buil": 2287,
      "actor ": 2288,
      "actress ": 2289,
      "old": 2290,
      "ere is a ": 2291,
      "shoo": 2292,
      "she's ": 2293,
      "short": 2294,
      "ami ": 2295,
      ".<br /><br />This ": 2296,
      ".<br /><br />But ": 2297,
      "form of ": 2298,
      "but the ": 2299,
      "dest": 2300,
      "dead ": 2301,
      "deta": 2302,
      "for some ": 2303,
      "rob": 2304,
      "room ": 2305,
      "adv": 2306,
      "adds ": 2307,
      "one of th": 2308,
      "ally the ": 2309,
      "not sure ": 2310,
      "have a ": 2311,
      "agre": 2312,
      "tional ": 2313,
      "tion that ": 2314,
      "so bad ": 2315,
      "vers": 2316,
      "version ": 2317,
      "this movie": 2318,
      "fru": 2319,
      "get": 2320,
      "tttt": 2321,
      "appre": 2322,
      "working ": 2323,
      "worth ": 2324,
      "confron": 2325,
      "ultim": 2326,
      "tran": 2327,
      "pref": 2328,
      "igh ": 2329,
      "ide ": 2330,
      "character, ": 2331,
      "ctor ": 2332,
      "about a ": 2333,
      "some of the ": 2334,
      "she is ": 2335,
      "she can ": 2336,
      "umm": 2337,
      "ending ": 2338,
      "lood": 2339,
      "? D": 2340,
      "? H": 2341,
      "? S": 2342,
      "? Wh": 2343,
      "suck": 2344,
      "very good ": 2345,
      "new": 2346,
      "need ": 2347,
      "neigh": 2348,
      "need to ": 2349,
      "it's not ": 2350,
      "minor ": 2351,
      "will be ": 2352,
      "had to ": 2353,
      "gives ": 2354,
      "mean ": 2355,
      "medi": 2356,
      "ity and ": 2357,
      "ity of the ": 2358,
      "fter ": 2359,
      "five ": 2360,
      "figu": 2361,
      "able to ": 2362,
      "prom": 2363,
      "story is ": 2364,
      "story of ": 2365,
      "boy": 2366,
      ". His ": 2367,
      "any of the ": 2368,
      "avo": 2369,
      "wrong ": 2370,
      "wrong": 2371,
      "written ": 2372,
      "entist": 2373,
      "because the ": 2374,
      "ence, ": 2375,
      ". She's ": 2376,
      "a seri": 2377,
      "ation of ": 2378,
      "ances ": 2379,
      "atten": 2380,
      "I'd ": 2381,
      "excit": 2382,
      "excep": 2383,
      "start": 2384,
      "start ": 2385,
      "horri": 2386,
      "speak": 2387,
      "special ": 2388,
      " thinking ": 2389,
      "a man ": 2390,
      "!!!": 2391,
      "!!!!": 2392,
      ".<br /><br />The movie ": 2393,
      "girlfriend": 2394,
      "genre": 2395,
      ". We ": 2396,
      "viewers ": 2397,
      ". What ": 2398,
      ". When ": 2399,
      "reason": 2400,
      "simpl": 2401,
      ". Not ": 2402,
      "chees": 2403,
      "cheap": 2404,
      "head ": 2405,
      "killer ": 2406,
      "learn": 2407,
      "Miami ": 2408,
      "brilli": 2409,
      "marri": 2410,
      "men are ": 2411,
      "terrible ": 2412,
      "everyone ": 2413,
      "195": 2414,
      "offic": 2415,
      "pretty good ": 2416,
      "miss": 2417,
      "sex ": 2418,
      "Intr": 2419,
      " throughout ": 2420,
      "should be ": 2421,
      "comedy ": 2422,
      "performanc": 2423,
      "primar": 2424,
      "run ": 2425,
      "single ": 2426,
      "ship": 2427,
      "script": 2428,
      "voice ": 2429,
      "believe ": 2430,
      "small ": 2431,
      "human": 2432,
      "humor": 2433,
      "wood's ": 2434,
      "think ": 2435,
      "audience ": 2436,
      "classic ": 2437,
      "corn": 2438,
      "easily ": 2439,
      "fact that ": 2440,
      "interest ": 2441,
      "critical ": 2442,
      "problem ": 2443,
      "Afric": 2444,
      "driv": 2445,
      " thought ": 2446,
      "stuff ": 2447,
      "total ": 2448,
      "totally ": 2449,
      "painful ": 2450,
      "situation ": 2451,
      "getting ": 2452,
      "a lot of ": 2453,
      "attempt to ": 2454,
      "important ": 2455,
      "Trish ": 2456,
      "message ": 2457,
      "porting ": 2458,
      "sleep": 2459,
      "major ": 2460,
      "full of ": 2461,
      "memorable ": 2462,
      "cinema ": 2463,
      "particularly the ": 2464,
      "Hollywood ": 2465,
      "episode of ": 2466,
      "Forti": 2467,
      "Irwin ": 2468,
      "liter": 2469,
      "twist": 2470,
      "behind ": 2471,
      "employ": 2472,
      "definit": 2473,
      "drawn ": 2474,
      "French ": 2475,
      "Petiot's ": 2476,
      "episodes ": 2477,
      "children": 2478,
      "homeless ": 2479,
      "money": 2480,
      "middle ": 2481,
      "soundtrack ": 2482,
      "televis": 2483,
      "incredi": 2484,
      "eventually ": 2485,
      "extremely ": 2486,
      "predict": 2487,
      "question": 2488,
      "occasion": 2489,
      "a small ": 2490,
      "Melting ": 2491,
      "Scary Movi": 2492,
      "utter": 2493,
      "appreci": 2494,
      " N": 2495,
      "'ve ": 2496,
      "'re ": 2497,
      "-up": 2498,
      "3 ": 2499,
      "4 ": 2500,
      "50 ": 2501,
      "; the ": 2502,
      "Ar": 2503,
      "Asim": 2504,
      "Amaz": 2505,
      "Be": 2506,
      "Bo": 2507,
      "Bar": 2508,
      "Bur": 2509,
      "Berk": 2510,
      "CH": 2511,
      "Em": 2512,
      "Ever": 2513,
      "For ": 2514,
      "Good ": 2515,
      "Geor": 2516,
      "However, ": 2517,
      "HBO": 2518,
      "Jo": 2519,
      "Joh": 2520,
      "Mon": 2521,
      "No": 2522,
      "Night ": 2523,
      "New ": 2524,
      "Qu": 2525,
      "Red ": 2526,
      "Rus": 2527,
      "Sell": 2528,
      "THE ": 2529,
      "US": 2530,
      "Yes, ": 2531,
      "a th": 2532,
      "a's ": 2533,
      "aim": 2534,
      "bst": 2535,
      "bil": 2536,
      "bits ": 2537,
      "base": 2538,
      "coo": 2539,
      "ck ": 2540,
      "cir": 2541,
      "cul": 2542,
      "car ": 2543,
      "cess": 2544,
      "case ": 2545,
      "camp": 2546,
      "case": 2547,
      "cook": 2548,
      "ctive ": 2549,
      "couple ": 2550,
      "da ": 2551,
      "ding ": 2552,
      "dark ": 2553,
      "ez": 2554,
      "e.<br /><br />": 2555,
      "ead": 2556,
      "fas": 2557,
      "fem": 2558,
      "fe, ": 2559,
      "fear": 2560,
      "fut": 2561,
      "fic ": 2562,
      "four": 2563,
      "fail": 2564,
      "gy ": 2565,
      "gn ": 2566,
      "ho": 2567,
      "har": 2568,
      "hot ": 2569,
      "her, ": 2570,
      "ian ": 2571,
      "iev": 2572,
      "iet": 2573,
      "ign": 2574,
      "jum": 2575,
      "jud": 2576,
      "kan": 2577,
      "ker ": 2578,
      "kept ": 2579,
      "lt": 2580,
      "ler ": 2581,
      "les": 2582,
      "les ": 2583,
      "len ": 2584,
      "lun": 2585,
      "law": 2586,
      "lack ": 2587,
      "labor": 2588,
      "mist": 2589,
      "ni": 2590,
      "nor": 2591,
      "na ": 2592,
      "now": 2593,
      "num": 2594,
      "nail": 2595,
      "non-": 2596,
      "ost ": 2597,
      "oli": 2598,
      "ots ": 2599,
      "o' ": 2600,
      "psy": 2601,
      "rom": 2602,
      "rit": 2603,
      "sw": 2604,
      "sha": 2605,
      "sitt": 2606,
      "s: ": 2607,
      "s' ": 2608,
      "song": 2609,
      "s. And ": 2610,
      "ton": 2611,
      "ts, ": 2612,
      "tap": 2613,
      "tely ": 2614,
      "tough ": 2615,
      "town ": 2616,
      "tell ": 2617,
      "uby ": 2618,
      "ually": 2619,
      "ves": 2620,
      "valu": 2621,
      "wra": 2622,
      "won't ": 2623,
      "ward": 2624,
      "y-": 2625,
      "zar": 2626,
      "e is ": 2627,
      "s or ": 2628,
      "s out ": 2629,
      "s that ": 2630,
      "s who ": 2631,
      "s with the ": 2632,
      "th the ": 2633,
      "though ": 2634,
      "theat": 2635,
      "ine": 2636,
      "inf": 2637,
      "inspir": 2638,
      "era": 2639,
      "ero": 2640,
      "ering ": 2641,
      "ank": 2642,
      "ank ": 2643,
      "anks ": 2644,
      " then ": 2645,
      " them ": 2646,
      " three ": 2647,
      "y M": 2648,
      "y of ": 2649,
      "one's ": 2650,
      ", it's ": 2651,
      ", it is ": 2652,
      ", whose ": 2653,
      "ort ": 2654,
      "is go": 2655,
      "is actually ": 2656,
      "ing-": 2657,
      "ing.": 2658,
      "ing, and ": 2659,
      "ing. I ": 2660,
      "arr": 2661,
      "aren't ": 2662,
      "al, ": 2663,
      "a bit ": 2664,
      "remo": 2665,
      "really": 2666,
      "of that ": 2667,
      "offe": 2668,
      "and a ": 2669,
      "and I ": 2670,
      "and un": 2671,
      "and they ": 2672,
      "and don't ": 2673,
      "ties": 2674,
      "er of ": 2675,
      "er who ": 2676,
      "to T": 2677,
      "to watch ": 2678,
      "step": 2679,
      "stud": 2680,
      "stair": 2681,
      "ils ": 2682,
      "chan": 2683,
      "chall": 2684,
      "chance ": 2685,
      "chann": 2686,
      "omen": 2687,
      "ed - ": 2688,
      "ed after ": 2689,
      "esh": 2690,
      "es, but ": 2691,
      "es' ": 2692,
      "aci": 2693,
      "of S": 2694,
      "of his ": 2695,
      "atu": 2696,
      "atch": 2697,
      "attr": 2698,
      "atmo": 2699,
      "why the ": 2700,
      "en and ": 2701,
      "he gets ": 2702,
      "set": 2703,
      "se, ": 2704,
      "sets ": 2705,
      "seen the ": 2706,
      "owit": 2707,
      "on and ": 2708,
      "in her ": 2709,
      "in many ": 2710,
      "icle ": 2711,
      "an un": 2712,
      "bear": 2713,
      "befor": 2714,
      "I hear": 2715,
      "mafi": 2716,
      "master": 2717,
      "hair": 2718,
      "hadn't ": 2719,
      "wide ": 2720,
      "un ": 2721,
      "liked ": 2722,
      "right": 2723,
      "aspe": 2724,
      "asher ": 2725,
      "ley ": 2726,
      "aband": 2727,
      "dimen": 2728,
      "bur": 2729,
      "busin": 2730,
      "ere were ": 2731,
      "she": 2732,
      "shot ": 2733,
      "emi": 2734,
      ".<br /><br />N": 2735,
      "comic ": 2736,
      "ch of ": 2737,
      "that is ": 2738,
      "that was ": 2739,
      "that you ": 2740,
      "that will ": 2741,
      " this film ": 2742,
      "sian ": 2743,
      "deal ": 2744,
      "dead": 2745,
      "for me": 2746,
      "to this ": 2747,
      "roc": 2748,
      "road ": 2749,
      "with her ": 2750,
      "adm": 2751,
      " that the ": 2752,
      "all that ": 2753,
      "others ": 2754,
      "posedly ": 2755,
      "up the ": 2756,
      "scor": 2757,
      "scar": 2758,
      "ed. The ": 2759,
      "not to ": 2760,
      "agg": 2761,
      "ago": 2762,
      "tion, ": 2763,
      "tion of the ": 2764,
      "this one ": 2765,
      ". The movie ": 2766,
      "ought ": 2767,
      "s, or ": 2768,
      "word": 2769,
      "film has ": 2770,
      ". As ": 2771,
      ". At ": 2772,
      ". All ": 2773,
      "conf": 2774,
      "conclu": 2775,
      "ull": 2776,
      "ular ": 2777,
      "ts to ": 2778,
      "tray": 2779,
      "ers and ": 2780,
      ") who ": 2781,
      "impres": 2782,
      "has no ": 2783,
      "id, ": 2784,
      "iding ": 2785,
      "ided ": 2786,
      "eph": 2787,
      "parod": 2788,
      "cts": 2789,
      "like to ": 2790,
      "person ": 2791,
      "perpet": 2792,
      "perhaps ": 2793,
      "ound, ": 2794,
      "dog ": 2795,
      "docum": 2796,
      "about it": 2797,
      "about how ": 2798,
      "some kind of ": 2799,
      "claw": 2800,
      "clos": 2801,
      "view ": 2802,
      "ella ": 2803,
      "elling ": 2804,
      "proce": 2805,
      "spac": 2806,
      "spend ": 2807,
      "guess ": 2808,
      "ended ": 2809,
      "s. Wh": 2810,
      "oty": 2811,
      "sugg": 2812,
      "and, ": 2813,
      "away": 2814,
      "most of the ": 2815,
      "no one ": 2816,
      "no men": 2817,
      "we get ": 2818,
      "only reason ": 2819,
      "even more ": 2820,
      "it's a ": 2821,
      "e. But ": 2822,
      "gott": 2823,
      "which the ": 2824,
      "had been ": 2825,
      ", but the ": 2826,
      "when you ": 2827,
      "uter ": 2828,
      "utely ": 2829,
      "ity is ": 2830,
      ". There's ": 2831,
      "final ": 2832,
      "finds ": 2833,
      "thing about ": 2834,
      "kni": 2835,
      "known ": 2836,
      "fied": 2837,
      "to be a ": 2838,
      "eriff ": 2839,
      "iller": 2840,
      "illar": 2841,
      "get the ": 2842,
      "ation, ": 2843,
      "if you're ": 2844,
      "me to ": 2845,
      "makers ": 2846,
      "scene, ": 2847,
      "blis": 2848,
      "prise ": 2849,
      "ished ": 2850,
      "hero ": 2851,
      "herself ": 2852,
      "gres": 2853,
      "alian ": 2854,
      "ate the ": 2855,
      "much more ": 2856,
      "would be ": 2857,
      "ds of ": 2858,
      "fright": 2859,
      "antly": 2860,
      "ing to do ": 2861,
      "overall ": 2862,
      "notic": 2863,
      "nowhere ": 2864,
      "many times ": 2865,
      "! Dad": 2866,
      "disc": 2867,
      "disgu": 2868,
      "discover": 2869,
      ". Be": 2870,
      "strong ": 2871,
      "strong": 2872,
      "because of ": 2873,
      "could be ": 2874,
      ". So ": 2875,
      "flash": 2876,
      "plot hol": 2877,
      "grand": 2878,
      "loved ": 2879,
      "ful and ": 2880,
      "ation of the ": 2881,
      "showed ": 2882,
      "how to ": 2883,
      "so the ": 2884,
      "character is ": 2885,
      "character develop": 2886,
      "This movie ": 2887,
      "crime ": 2888,
      "woman": 2889,
      "women": 2890,
      "one? ": 2891,
      "of their ": 2892,
      "of these ": 2893,
      "under the ": 2894,
      "!!! ": 2895,
      "odd ": 2896,
      "slow ": 2897,
      "slasher ": 2898,
      "supporting ": 2899,
      "supposedly ": 2900,
      "other than": 2901,
      "present": 2902,
      "geni": 2903,
      "if they ": 2904,
      "surpris": 2905,
      "surprise ": 2906,
      "team": 2907,
      "viewer ": 2908,
      "*** ": 2909,
      "despite ": 2910,
      "deserv": 2911,
      "through the ": 2912,
      "comments ": 2913,
      "Peo": 2914,
      "himself ": 2915,
      "himself": 2916,
      "saying ": 2917,
      "say that ": 2918,
      "reading the ": 2919,
      "does not ": 2920,
      "action sequenc": 2921,
      "learn ": 2922,
      "---": 2923,
      "mark": 2924,
      "men were ": 2925,
      "seeing ": 2926,
      "you'll ": 2927,
      "197": 2928,
      "Adam": 2929,
      "Grant": 2930,
      "Graci": 2931,
      "travel": 2932,
      "anna ": 2933,
      "gorge": 2934,
      "miss ": 2935,
      "sexually ": 2936,
      "having ": 2937,
      "minute ": 2938,
      "scene where ": 2939,
      "during a ": 2940,
      "talking ": 2941,
      " through ": 2942,
      ". On": 2943,
      "relev": 2944,
      "movie, but ": 2945,
      "should have ": 2946,
      ". Although": 2947,
      "writer ": 2948,
      "veh": 2949,
      "laugh ": 2950,
      "achiev": 2951,
      "ber of the ": 2952,
      "runs ": 2953,
      "running ": 2954,
      "engag": 2955,
      "ength ": 2956,
      "one of the most ": 2957,
      "guy who ": 2958,
      "seems to be ": 2959,
      "horror": 2960,
      "later": 2961,
      "chooses ": 2962,
      "Americ": 2963,
      "main characters ": 2964,
      "body": 2965,
      "understand ": 2966,
      "understand the ": 2967,
      "original": 2968,
      "based on ": 2969,
      "collabor": 2970,
      "country ": 2971,
      "plots ": 2972,
      "one of his ": 2973,
      "classic": 2974,
      ". They are ": 2975,
      "bit of ": 2976,
      "easy to ": 2977,
      "materi": 2978,
      "spoke ": 2979,
      "telling ": 2980,
      "them, ": 2981,
      "read the ": 2982,
      "leading ": 2983,
      ". In the ": 2984,
      ". In this ": 2985,
      "convinc": 2986,
      "violent ": 2987,
      "keep ": 2988,
      "10.": 2989,
      "African ": 2990,
      "Even ": 2991,
      "craz": 2992,
      "nature ": 2993,
      "animals ": 2994,
      "enjoy ": 2995,
      "author": 2996,
      "explor": 2997,
      "credit ": 2998,
      "I've seen ": 2999,
      "better than ": 3000,
      "hope you ": 3001,
      "down the ": 3002,
      "far more ": 3003,
      "release ": 3004,
      "recommend ": 3005,
      "choic": 3006,
      "perfect": 3007,
      "prison ": 3008,
      "instead of ": 3009,
      "begin to ": 3010,
      "Eastwood ": 3011,
      "amazing ": 3012,
      "half": 3013,
      "half ": 3014,
      "nearly ": 3015,
      "weak ": 3016,
      "therefore ": 3017,
      "including ": 3018,
      "as well as ": 3019,
      "leaves ": 3020,
      "together ": 3021,
      "figure out ": 3022,
      "Film ": 3023,
      "TOR": 3024,
      "averag": 3025,
      "doub": 3026,
      "novel": 3027,
      "remember ": 3028,
      "machine ": 3029,
      "left to ": 3030,
      "exampl": 3031,
      "intelligent ": 3032,
      "greatest ": 3033,
      "a heart ": 3034,
      "continue ": 3035,
      "magazine ": 3036,
      "celebr": 3037,
      "felt ": 3038,
      "lady ": 3039,
      "satisfied": 3040,
      "towards ": 3041,
      "along the ": 3042,
      "regard": 3043,
      "reven": 3044,
      "stupid ": 3045,
      "ately": 3046,
      "second ": 3047,
      "absolutely ": 3048,
      "parts of the ": 3049,
      "physically ": 3050,
      "piece of ": 3051,
      "week": 3052,
      "Franco": 3053,
      "Chinese ": 3054,
      "favorite ": 3055,
      "ALL ": 3056,
      "Denis ": 3057,
      "Engl": 3058,
      "Gaillar": 3059,
      "Scot": 3060,
      "Young": 3061,
      "narration ": 3062,
      "stereoty": 3063,
      "adds to the ": 3064,
      "frustra": 3065,
      "neighb": 3066,
      "brilliant ": 3067,
      "Intrud": 3068,
      " throughout the ": 3069,
      "primarily ": 3070,
      "definitely ": 3071,
      "occasional ": 3072,
      "utterly ": 3073,
      "Asimov": 3074,
      "Berkowit": 3075,
      "Every": 3076,
      "George ": 3077,
      "HBO ": 3078,
      "lawy": 3079,
      "is going to ": 3080,
      "remotely ": 3081,
      "channel": 3082,
      "atmosp": 3083,
      "document": 3084,
      "proceed": 3085,
      "no mention of ": 3086,
      "only reason I ": 3087,
      "ing to do with ": 3088,
      " S": 3089,
      " in ": 3090,
      "!\"": 3091,
      "!) ": 3092,
      "\"H": 3093,
      "\".<br /><br />": 3094,
      "\", but ": 3095,
      "'P": 3096,
      "(G": 3097,
      "(a ": 3098,
      "(played by ": 3099,
      "). The ": 3100,
      "), the ": 3101,
      "*The ": 3102,
      "-p": 3103,
      "/10": 3104,
      "0s ": 3105,
      "1 ": 3106,
      "1/": 3107,
      "; and ": 3108,
      "?<br /><br />": 3109,
      "AR": 3110,
      "As ": 3111,
      "Air": 3112,
      "Afri": 3113,
      "Bi": 3114,
      "Bra": 3115,
      "Bro": 3116,
      "Best ": 3117,
      "Blood": 3118,
      "CI": 3119,
      "CTOR": 3120,
      "DE": 3121,
      "Dre": 3122,
      "Dad ": 3123,
      "Dav": 3124,
      "Dead ": 3125,
      "Dark ": 3126,
      "Ed": 3127,
      "Fin": 3128,
      "Fam": 3129,
      "Filli": 3130,
      "GH": 3131,
      "God": 3132,
      "Gus ": 3133,
      "Hop": 3134,
      "Hallow": 3135,
      "II": 3136,
      "IM": 3137,
      "I, ": 3138,
      "If ": 3139,
      "I think": 3140,
      "I thought ": 3141,
      "Jon ": 3142,
      "Jap": 3143,
      "Just ": 3144,
      "Jill ": 3145,
      "Kram": 3146,
      "Man ": 3147,
      "Mur": 3148,
      "Maybe ": 3149,
      "Ne": 3150,
      "Nel": 3151,
      "Naz": 3152,
      "NEL": 3153,
      "OK": 3154,
      "On": 3155,
      "Or ": 3156,
      "Of ": 3157,
      "OT ": 3158,
      "Pl": 3159,
      "Po": 3160,
      "Pri": 3161,
      "Ray ": 3162,
      "Ruby ": 3163,
      "ST": 3164,
      "Sy": 3165,
      "Sti": 3166,
      "Sha": 3167,
      "Sim": 3168,
      "Sop": 3169,
      "Sand": 3170,
      "Simp": 3171,
      "SON": 3172,
      "Van ": 3173,
      "Wi": 3174,
      "Wood": 3175,
      "Willi": 3176,
      "Well, ": 3177,
      "Zombi": 3178,
      "af": 3179,
      "ake ": 3180,
      "ain the ": 3181,
      "aint": 3182,
      "ath ": 3183,
      "bb": 3184,
      "bin": 3185,
      "bo ": 3186,
      "bes": 3187,
      "bat": 3188,
      "bun": 3189,
      "bout ": 3190,
      "bell ": 3191,
      "cen": 3192,
      "cle ": 3193,
      "cell": 3194,
      "cess ": 3195,
      "cru": 3196,
      "call the ": 3197,
      "cute ": 3198,
      "ccess": 3199,
      "coffe": 3200,
      "da": 3201,
      "dar": 3202,
      "dom": 3203,
      "dam": 3204,
      "dem": 3205,
      "day ": 3206,
      "dy, ": 3207,
      "deli": 3208,
      "dress ": 3209,
      "dentist": 3210,
      "e!": 3211,
      "een ": 3212,
      "edi": 3213,
      "ef ": 3214,
      "e\" ": 3215,
      "etic": 3216,
      "equ": 3217,
      "e: ": 3218,
      "egor": 3219,
      "ease ": 3220,
      "echo": 3221,
      "fer": 3222,
      "figh": 3223,
      "four ": 3224,
      "fear ": 3225,
      "gle ": 3226,
      "gone ": 3227,
      "gag": 3228,
      "hy": 3229,
      "hall": 3230,
      "hold ": 3231,
      "hilli": 3232,
      "hour ": 3233,
      "host": 3234,
      "ip": 3235,
      "idi": 3236,
      "ip ": 3237,
      "ible ": 3238,
      "ipp": 3239,
      "ianna ": 3240,
      "je": 3241,
      "jus": 3242,
      "kil": 3243,
      "kid ": 3244,
      "led ": 3245,
      "lev": 3246,
      "lum": 3247,
      "ler-": 3248,
      "ladi": 3249,
      "length ": 3250,
      "mel": 3251,
      "mes": 3252,
      "med": 3253,
      "mess ": 3254,
      "mbl": 3255,
      "milli": 3256,
      "nol": 3257,
      "nigh": 3258,
      "ness": 3259,
      "nud": 3260,
      "ox": 3261,
      "o the ": 3262,
      "o's ": 3263,
      "oto": 3264,
      "pa": 3265,
      "pay ": 3266,
      "pth ": 3267,
      "ren": 3268,
      "rof": 3269,
      "row ": 3270,
      "rent ": 3271,
      "rate ": 3272,
      "rout": 3273,
      "rical ": 3274,
      "sy ": 3275,
      "sil": 3276,
      "ses": 3277,
      "soo": 3278,
      "stic": 3279,
      "s) ": 3280,
      "soc": 3281,
      "sely ": 3282,
      "sav": 3283,
      "song ": 3284,
      "sound ": 3285,
      "skill": 3286,
      "s, and the ": 3287,
      "sick ": 3288,
      "slight": 3289,
      "serv": 3290,
      "summ": 3291,
      "tin": 3292,
      "tor": 3293,
      "tom": 3294,
      "ton ": 3295,
      "tle ": 3296,
      "told ": 3297,
      "uin": 3298,
      "ur ": 3299,
      "ues": 3300,
      "uma": 3301,
      "uge ": 3302,
      "vent": 3303,
      "vill": 3304,
      "vari": 3305,
      "wer": 3306,
      "wit": 3307,
      "wro": 3308,
      "wall": 3309,
      "woul": 3310,
      "woun": 3311,
      "will": 3312,
      "wouldn't ": 3313,
      "yl": 3314,
      "ying": 3315,
      "y\" ": 3316,
      "y, the ": 3317,
      "yway": 3318,
      " ": 3319,
      "e S": 3320,
      "s as ": 3321,
      "s her ": 3322,
      "the": 3323,
      "thing": 3324,
      "thre": 3325,
      "this": 3326,
      "things ": 3327,
      "the-": 3328,
      "t for": 3329,
      "t Li": 3330,
      "inan": 3331,
      "ined ": 3332,
      "inat": 3333,
      "indi": 3334,
      "ince ": 3335,
      "inder": 3336,
      "inated ": 3337,
      "indu": 3338,
      "erg": 3339,
      "ery ": 3340,
      "ered ": 3341,
      "erves ": 3342,
      "erhaps ": 3343,
      "ani": 3344,
      "ang ": 3345,
      "ander": 3346,
      "angu": 3347,
      "anese ": 3348,
      " thing ": 3349,
      " them": 3350,
      " there are ": 3351,
      " theat": 3352,
      "y (": 3353,
      "y as ": 3354,
      "y for ": 3355,
      "enn": 3356,
      "en' ": 3357,
      "ended": 3358,
      "ond": 3359,
      "oned ": 3360,
      "on's ": 3361,
      "on, and ": 3362,
      "on that ": 3363,
      "onna ": 3364,
      ", in ": 3365,
      ", you ": 3366,
      ", who": 3367,
      "ore": 3368,
      "ork ": 3369,
      "ort of ": 3370,
      ". V": 3371,
      ". Y": 3372,
      ". Un": 3373,
      ". 10 ": 3374,
      "ouse": 3375,
      "ouse ": 3376,
      "ous. ": 3377,
      "is more ": 3378,
      "ings, ": 3379,
      "ing: ": 3380,
      "ing. M": 3381,
      "arl": 3382,
      "arp": 3383,
      "arti": 3384,
      "argu": 3385,
      "arity ": 3386,
      "ard, ": 3387,
      "ard of ": 3388,
      "around, ": 3389,
      "alli": 3390,
      "al. The ": 3391,
      "alway": 3392,
      "al theat": 3393,
      "a B": 3394,
      "a S": 3395,
      "a pretty ": 3396,
      "rest": 3397,
      "rese": 3398,
      "requ": 3399,
      "respe": 3400,
      "reve": 3401,
      "reco": 3402,
      "review ": 3403,
      "and in": 3404,
      "and you ": 3405,
      "and who ": 3406,
      "and win": 3407,
      "tiz": 3408,
      "ing at ": 3409,
      "ing on ": 3410,
      "ing as": 3411,
      "ing of the ": 3412,
      "ing for ": 3413,
      "ing around ": 3414,
      "er to ": 3415,
      "er has ": 3416,
      "er looks ": 3417,
      "to watch": 3418,
      "to fin": 3419,
      "to a h": 3420,
      "to give ": 3421,
      "to play ": 3422,
      "to take ": 3423,
      "stum": 3424,
      "star ": 3425,
      "state ": 3426,
      "steal": 3427,
      "steal ": 3428,
      "ily": 3429,
      "ché": 3430,
      "cher ": 3431,
      "chas": 3432,
      "chop": 3433,
      "ed to the ": 3434,
      "ed as the ": 3435,
      "ed close": 3436,
      "at a ": 3437,
      "at an ": 3438,
      "at his ": 3439,
      "at all": 3440,
      "at this ": 3441,
      "at all ": 3442,
      "el...": 3443,
      "elements ": 3444,
      "the most ": 3445,
      "es.<br /><br />": 3446,
      "ese, ": 3447,
      "espite ": 3448,
      "es (": 3449,
      "ited ": 3450,
      "ital ": 3451,
      "itself ": 3452,
      "itself": 3453,
      "acks ": 3454,
      "accompl": 3455,
      "activ": 3456,
      "acros": 3457,
      "of T": 3458,
      "of all": 3459,
      "of any ": 3460,
      "of it is ": 3461,
      "at-": 3462,
      "atur": 3463,
      "ate. ": 3464,
      "ature ": 3465,
      "ators ": 3466,
      "atograph": 3467,
      "where, ": 3468,
      "ly un": 3469,
      "ly because ": 3470,
      "overs ": 3471,
      "en your ": 3472,
      "sed": 3473,
      "seat ": 3474,
      "separ": 3475,
      "secur": 3476,
      "on his ": 3477,
      "on what ": 3478,
      "in an ": 3479,
      "in which ": 3480,
      "in a c": 3481,
      "in which the ": 3482,
      "ice, ": 3483,
      "icul": 3484,
      "icts ": 3485,
      "icature": 3486,
      "an B": 3487,
      "an el": 3488,
      "an ex": 3489,
      "an int": 3490,
      "an hour ": 3491,
      "ison ": 3492,
      "is' ": 3493,
      "istic ": 3494,
      "bed": 3495,
      "best": 3496,
      "it and ": 3497,
      "it the ": 3498,
      "it on ": 3499,
      "it in ": 3500,
      "it is": 3501,
      "it for ": 3502,
      "it in the ": 3503,
      "it had ": 3504,
      "it isn't ": 3505,
      "it again ": 3506,
      "pli": 3507,
      "platt": 3508,
      "plain ": 3509,
      "ool ": 3510,
      "ook ": 3511,
      "st of all": 3512,
      "evid": 3513,
      "I just ": 3514,
      "I can't ": 3515,
      "I feel ": 3516,
      "made": 3517,
      "hase": 3518,
      "unn": 3519,
      "unspeak": 3520,
      "unknown ": 3521,
      "life": 3522,
      "like": 3523,
      "ribu": 3524,
      "rien' ": 3525,
      "ask ": 3526,
      "lect": 3527,
      "leave ": 3528,
      "abl": 3529,
      "dio ": 3530,
      "dition": 3531,
      "distr": 3532,
      "divor": 3533,
      "acts ": 3534,
      "olu": 3535,
      "olph": 3536,
      "olice ": 3537,
      "was in ": 3538,
      "was so ": 3539,
      "was bad": 3540,
      "urther": 3541,
      "irac": 3542,
      "irrit": 3543,
      "ays ": 3544,
      "shoul": 3545,
      "short ": 3546,
      "out to ": 3547,
      "out of the ": 3548,
      "of the film ": 3549,
      "of the show": 3550,
      "ambi": 3551,
      "among ": 3552,
      "amate": 3553,
      "emem": 3554,
      ".<br /><br />It ": 3555,
      "coming ": 3556,
      "comic": 3557,
      "comical ": 3558,
      "compet": 3559,
      "ray ": 3560,
      "forc": 3561,
      "fore": 3562,
      "for this ": 3563,
      "forei": 3564,
      "but not ": 3565,
      "se of ": 3566,
      "are the ": 3567,
      "siz": 3568,
      "sist": 3569,
      "sive ": 3570,
      "sight": 3571,
      "sitive ": 3572,
      "ents": 3573,
      "ent, ": 3574,
      "depres": 3575,
      "deals ": 3576,
      "dealing ": 3577,
      "depth ": 3578,
      "today": 3579,
      "with an ": 3580,
      "with little ": 3581,
      "adly ": 3582,
      "adap": 3583,
      ", and that ": 3584,
      ", and then ": 3585,
      " that is ": 3586,
      "all this ": 3587,
      "ally, ": 3588,
      "ex ": 3589,
      "ext": 3590,
      "extr": 3591,
      "othing ": 3592,
      "other, ": 3593,
      "poor ": 3594,
      "popul": 3595,
      "scary ": 3596,
      "ey M": 3597,
      "in the film ": 3598,
      "in the end ": 3599,
      "in the original ": 3600,
      "intact ": 3601,
      ". If": 3602,
      "ed-": 3603,
      "edit": 3604,
      "not even ": 3605,
      "agon": 3606,
      "tionally ": 3607,
      "tions, ": 3608,
      "her fath": 3609,
      "so we ": 3610,
      "so many ": 3611,
      "so much": 3612,
      "version": 3613,
      "this was ": 3614,
      "this is the ": 3615,
      ". The whole ": 3616,
      "early ": 3617,
      "earth ": 3618,
      "- -": 3619,
      "- but ": 3620,
      "word ": 3621,
      "\" is a ": 3622,
      "who was ": 3623,
      "confu": 3624,
      "contain": 3625,
      "time. ": 3626,
      "charm": 3627,
      "ts a ": 3628,
      "ts and ": 3629,
      "trans": 3630,
      "ers the ": 3631,
      "iment": 3632,
      "pregn": 3633,
      "premis": 3634,
      "open": 3635,
      "has the ": 3636,
      "using ": 3637,
      "uses ": 3638,
      "usually ": 3639,
      "uses the ": 3640,
      "The Intrud": 3641,
      "man's ": 3642,
      "manag": 3643,
      "parad": 3644,
      "mort": 3645,
      "like an ": 3646,
      "feature": 3647,
      "by a ": 3648,
      "film.": 3649,
      "filmed ": 3650,
      "film, but ": 3651,
      "about as ": 3652,
      "some sort of ": 3653,
      "clever ": 3654,
      "just the ": 3655,
      "just didn't ": 3656,
      "tation ": 3657,
      "taking ": 3658,
      "all \"bad": 3659,
      "ereas ": 3660,
      "prop": 3661,
      "prot": 3662,
      "process ": 3663,
      "quality ": 3664,
      "spot ": 3665,
      "ocked ": 3666,
      "guil": 3667,
      "ing the car": 3668,
      ", the script ": 3669,
      "s. H": 3670,
      "other review": 3671,
      "other Night ": 3672,
      "? It's ": 3673,
      "success": 3674,
      "very much ": 3675,
      "more interesting ": 3676,
      "aware ": 3677,
      "either": 3678,
      "two": 3679,
      "what I ": 3680,
      "Why ": 3681,
      "When ": 3682,
      "somewhat ": 3683,
      "we are ": 3684,
      "only one ": 3685,
      "must": 3686,
      "ant and ": 3687,
      "it's the ": 3688,
      "watched ": 3689,
      "watch this ": 3690,
      "watching the ": 3691,
      "watching a ": 3692,
      "watchable": 3693,
      "watched it ": 3694,
      "e. (": 3695,
      "mind ": 3696,
      "going": 3697,
      "had a h": 3698,
      "mee": 3699,
      "meant ": 3700,
      "meet ": 3701,
      "means ": 3702,
      "mechan": 3703,
      "from an ": 3704,
      ". It wasn't ": 3705,
      "fift": 3706,
      ". I don't ": 3707,
      ". I never ": 3708,
      ". I won't ": 3709,
      "to be hon": 3710,
      "erior ": 3711,
      "ous and ": 3712,
      "able as ": 3713,
      "uck": 3714,
      "if it ": 3715,
      "if I ": 3716,
      "me for ": 3717,
      "blowing ": 3718,
      "caught ": 3719,
      "prof": 3720,
      "boy ": 3721,
      "box ": 3722,
      "created ": 3723,
      "creates ": 3724,
      "cret Li": 3725,
      "selves ": 3726,
      "essica ": 3727,
      "green ": 3728,
      "my favorite ": 3729,
      "they were ": 3730,
      "alive ": 3731,
      "bigg": 3732,
      "bizar": 3733,
      "eav": 3734,
      "lines ": 3735,
      "line and ": 3736,
      "lines, ": 3737,
      ". Had ": 3738,
      "much time ": 3739,
      "would have ": 3740,
      "would have been ": 3741,
      "ange ": 3742,
      "anger ": 3743,
      "ed to make ": 3744,
      "over-": 3745,
      "over the ": 3746,
      "a high ": 3747,
      "a huge ": 3748,
      "your own ": 3749,
      "nois": 3750,
      "nobody ": 3751,
      "movie, the ": 3752,
      "many other ": 3753,
      "That ": 3754,
      "Thunder": 3755,
      "There is ": 3756,
      "disappear": 3757,
      "entire": 3758,
      ". This is the ": 3759,
      "directed by ": 3760,
      "directors ": 3761,
      ", their ": 3762,
      ", these ": 3763,
      "athy ": 3764,
      "photo": 3765,
      ". She ": 3766,
      ". Some ": 3767,
      "assin ": 3768,
      "assassin ": 3769,
      "flu": 3770,
      "growing ": 3771,
      "ancy ": 3772,
      "ance, ": 3773,
      "ance. ": 3774,
      "also a ": 3775,
      "soli": 3776,
      "so that ": 3777,
      "characters are ": 3778,
      "characters who ": 3779,
      "I'll ": 3780,
      "ativ": 3781,
      "kinds of ": 3782,
      "less than ": 3783,
      "seems to ": 3784,
      "two of the ": 3785,
      "people in the ": 3786,
      "people who ": 3787,
      "piec": 3788,
      "speak ": 3789,
      "of them": 3790,
      "of them ": 3791,
      "ed by a ": 3792,
      "make the ": 3793,
      "Steve ": 3794,
      "akes ": 3795,
      "ruin": 3796,
      "rule ": 3797,
      "outside ": 3798,
      ".<br /><br />The plot ": 3799,
      "give it a ": 3800,
      "caricature": 3801,
      "los": 3802,
      "super": 3803,
      "super-": 3804,
      "present ": 3805,
      "still a ": 3806,
      "genuin": 3807,
      "history": 3808,
      "pped up ": 3809,
      "tedi": 3810,
      ". Well, ": 3811,
      "****": 3812,
      "desp": 3813,
      ". When": 3814,
      ". While ": 3815,
      "empha": 3816,
      "comment": 3817,
      "knows ": 3818,
      "know, ": 3819,
      "knowled": 3820,
      "bad, but ": 3821,
      "days ": 3822,
      "day, the ": 3823,
      "highly recomm": 3824,
      "images ": 3825,
      "sense": 3826,
      ". No ": 3827,
      "check": 3828,
      "made some ": 3829,
      "complic": 3830,
      "gniz": 3831,
      "hey": 3832,
      "heart": 3833,
      "heard ": 3834,
      "series": 3835,
      "weird ": 3836,
      "ing that the ": 3837,
      "illian ": 3838,
      "makes this ": 3839,
      "bring ": 3840,
      "member of the ": 3841,
      "invis": 3842,
      "instead": 3843,
      "resul": 3844,
      "resque ": 3845,
      "seeing the ": 3846,
      "before the ": 3847,
      "you've ": 3848,
      "story. I ": 3849,
      "Adel": 3850,
      "DOCTOR": 3851,
      "turn": 3852,
      "trauma": 3853,
      "off the ": 3854,
      "office ": 3855,
      "over and ": 3856,
      "pretty much ": 3857,
      "character's ": 3858,
      "monster ": 3859,
      "stery": 3860,
      "sexual ": 3861,
      "able. It is ": 3862,
      "did not ": 3863,
      "out of 10.": 3864,
      "come to ": 3865,
      "Indian ": 3866,
      "boring ": 3867,
      "drin": 3868,
      "dram": 3869,
      "family": 3870,
      "tale, ": 3871,
      "talent": 3872,
      " throw ": 3873,
      ". Fir": 3874,
      ". Further": 3875,
      ". Oh": 3876,
      ". Over": 3877,
      ". One ": 3878,
      "il Sim": 3879,
      "movie, which ": 3880,
      "comedy is ": 3881,
      "taken ": 3882,
      "ideas ": 3883,
      ". Don't ": 3884,
      "strain": 3885,
      "sional ": 3886,
      "has been re": 3887,
      "ere's a ": 3888,
      "sub-": 3889,
      "subtle ": 3890,
      "years ago": 3891,
      "Carmel": 3892,
      "ber of ": 3893,
      "ment of ": 3894,
      "singer": 3895,
      "well, ": 3896,
      ". Maybe ": 3897,
      "ships ": 3898,
      "ampbell ": 3899,
      "one of the best ": 3900,
      ". It's not ": 3901,
      ". It's just ": 3902,
      "guy in the ": 3903,
      "seems like ": 3904,
      "crash ": 3905,
      "humor ": 3906,
      "nothing to do with ": 3907,
      "portray": 3908,
      "syst": 3909,
      "symp": 3910,
      "happen ": 3911,
      "computer ": 3912,
      "decent ": 3913,
      "doesn't have ": 3914,
      "if you are ": 3915,
      "types of ": 3916,
      "cinema": 3917,
      "help ": 3918,
      "helped ": 3919,
      "oh ": 3920,
      "smil": 3921,
      "ing them ": 3922,
      "watching it": 3923,
      "young girl ": 3924,
      "based ": 3925,
      "eyes, ": 3926,
      "glad ": 3927,
      "music": 3928,
      "wooden ": 3929,
      "yet another ": 3930,
      "think": 3931,
      "around the ": 3932,
      "who's ": 3933,
      "place, ": 3934,
      "place and ": 3935,
      "difficul": 3936,
      ".<br /><br />And ": 3937,
      "audienc": 3938,
      "expectation": 3939,
      "like that": 3940,
      "club": 3941,
      "club ": 3942,
      "2 hour": 3943,
      "DVD": 3944,
      "Movies ": 3945,
      "curi": 3946,
      "cuts ": 3947,
      "dumb": 3948,
      "dumb ": 3949,
      "ry-": 3950,
      "roles ": 3951,
      "roller-": 3952,
      "tried to ": 3953,
      "ans' ": 3954,
      "street ": 3955,
      "stream ": 3956,
      "stretch": 3957,
      "ed in the middle ": 3958,
      "partly because ": 3959,
      "violence ": 3960,
      "going on ": 3961,
      "criticism ": 3962,
      "woman who ": 3963,
      "problem": 3964,
      "developed ": 3965,
      ".\" The ": 3966,
      "Even the ": 3967,
      "crap ": 3968,
      "hilarious ": 3969,
      "natur": 3970,
      "soldi": 3971,
      "animal": 3972,
      "enjoyed ": 3973,
      "unique ": 3974,
      "entertaining ": 3975,
      "entertainment ": 3976,
      "entertainment": 3977,
      "authen": 3978,
      "explain": 3979,
      "concern": 3980,
      "credit": 3981,
      "people, ": 3982,
      "possibly ": 3983,
      "hope that ": 3984,
      "nothing but ": 3985,
      "CRY FREEDOM is ": 3986,
      "close-up": 3987,
      "categor": 3988,
      "care about ": 3989,
      "copy ": 3990,
      "however": 3991,
      "moments ": 3992,
      "situation": 3993,
      "vision": 3994,
      "release": 3995,
      "idden ": 3996,
      "perfec": 3997,
      "watching this ": 3998,
      "general ": 3999,
      "performance as ": 4000,
      "begin with": 4001,
      " TED ": 4002,
      "Ann ": 4003,
      "Connol": 4004,
      "Eastwood's ": 4005,
      "OVED ": 4006,
      "Secret Li": 4007,
      "bara ": 4008,
      "camp ": 4009,
      "walk ": 4010,
      "walks ": 4011,
      "weak": 4012,
      "insist": 4013,
      "en though ": 4014,
      ". Remem": 4015,
      "whatever ": 4016,
      "beginn": 4017,
      "major": 4018,
      "dialog": 4019,
      "dialog ": 4020,
      "for them": 4021,
      "together": 4022,
      "political ": 4023,
      ". If you ": 4024,
      "front ": 4025,
      "we see the ": 4026,
      "aliens ": 4027,
      "played by a ": 4028,
      "younger ": 4029,
      "relationship ": 4030,
      "relationships ": 4031,
      "effects ": 4032,
      "cinematograph": 4033,
      "beautiful ": 4034,
      "beautiful": 4035,
      "BOY": 4036,
      "Brown": 4037,
      "auna ": 4038,
      "cumst": 4039,
      "dangerous ": 4040,
      "murder": 4041,
      "murder ": 4042,
      "took ": 4043,
      "insan": 4044,
      "remember": 4045,
      "stands ": 4046,
      "I have seen ": 4047,
      "machin": 4048,
      "left ": 4049,
      "his father ": 4050,
      "throughout the ": 4051,
      "against the ": 4052,
      "continu": 4053,
      ". I'm not ": 4054,
      "magazin": 4055,
      "AND": 4056,
      "Ariel...": 4057,
      "Ariauna ": 4058,
      "McAdam": 4059,
      "centr": 4060,
      "large ": 4061,
      "swim ": 4062,
      "tension ": 4063,
      "whom he has ": 4064,
      "evil, ": 4065,
      "yourself ": 4066,
      "filled with ": 4067,
      "fortunately ": 4068,
      "appropri": 4069,
      "worse than ": 4070,
      "ends up ": 4071,
      "something that ": 4072,
      "practic": 4073,
      "practice ": 4074,
      "a horror": 4075,
      "a couple of ": 4076,
      "obvious ": 4077,
      "Christ": 4078,
      "Christop": 4079,
      "footage ": 4080,
      "virtu": 4081,
      "until she ": 4082,
      "ridiculously ": 4083,
      "Bill P": 4084,
      "Dr. ": 4085,
      "Italian ": 4086,
      "Lucianna ": 4087,
      "OUN": 4088,
      "cliché": 4089,
      "clear ": 4090,
      "call it ": 4091,
      "further ": 4092,
      "good, ": 4093,
      "ject ": 4094,
      "loud ": 4095,
      "luck ": 4096,
      "next ": 4097,
      "purpo": 4098,
      "rating of ": 4099,
      "vampy": 4100,
      "ensible ": 4101,
      "I give this movie ": 4102,
      "built ": 4103,
      "shooting ": 4104,
      "suckers ": 4105,
      "figured ": 4106,
      "promise": 4107,
      "story of two ": 4108,
      "attention ": 4109,
      "cheesy, ": 4110,
      "cheap ": 4111,
      "problem is ": 4112,
      "sleep ": 4113,
      "Fortier looks ": 4114,
      "employment ": 4115,
      "drawn to": 4116,
      "television ": 4117,
      "incredible ": 4118,
      "Melting Man": 4119,
      "Scary Movie ": 4120,
      "Amazon": 4121,
      "John ": 4122,
      "Red Ey": 4123,
      "Russian ": 4124,
      "bstone ": 4125,
      "bility ": 4126,
      "cool": 4127,
      "circumst": 4128,
      "female ": 4129,
      "lack of ": 4130,
      "romance ": 4131,
      "wrapped up ": 4132,
      "challeng": 4133,
      "seen the movie ": 4134,
      "mafia ": 4135,
      "dimensional ": 4136,
      "business ": 4137,
      "ere were some ": 4138,
      "conclusion": 4139,
      "perpetual ": 4140,
      "gotten ": 4141,
      "blisher ": 4142,
      "! Dad! Dad": 4143,
      "People ": 4144,
      "action sequences": 4145,
      "Gracias": 4146,
      "gorgeous ": 4147,
      "vehicle ": 4148,
      "material ": 4149,
      "read the book ": 4150,
      "Francois ": 4151,
      "English": 4152,
      "Scott ": 4153,
      "stereotyp": 4154,
      "neighbour": 4155,
      "Berkowitz ": 4156,
      "'Presque ": 4157,
      "Afrikan": 4158,
      "Big ": 4159,
      "Bloodsuckers ": 4160,
      "CIA ": 4161,
      "Dream": 4162,
      "Japanese ": 4163,
      "Neil Sim": 4164,
      "NELSON": 4165,
      "Of The ": 4166,
      "Ruby Le": 4167,
      "Sopr": 4168,
      "bunch of ": 4169,
      "nudity ": 4170,
      "rofiler ": 4171,
      "tiny ": 4172,
      "tombstone ": 4173,
      "villain": 4174,
      "weren't ": 4175,
      "willing to ": 4176,
      "ard of O": 4177,
      "reveal": 4178,
      "recogniz": 4179,
      "steals the ": 4180,
      "divorc": 4181,
      "ambigu": 4182,
      "mechanical ": 4183,
      "to be honest ": 4184,
      "bigger ": 4185,
      "bizarre ": 4186,
      "your own face ": 4187,
      "Thunderb": 4188,
      "genuinely ": 4189,
      "knowledge ": 4190,
      "DOCTOR TED ": 4191,
      "difficult to ": 4192,
      ". Remember": 4193,
      "a horror-": 4194,
      "'Presque rien' ": 4195,
      "DOCTOR TED NELSON": 4196,
      " (": 4197,
      " A": 4198,
      " or ": 4199,
      " was ": 4200,
      " her ": 4201,
      "!)": 4202,
      "!\" ": 4203,
      "!! ": 4204,
      "\"G": 4205,
      "\"L": 4206,
      "\"W": 4207,
      "\"It ": 4208,
      "\"Mort": 4209,
      "\"so bad ": 4210,
      "'N": 4211,
      "'S": 4212,
      "'s": 4213,
      "'t": 4214,
      "'s, ": 4215,
      "'Fid": 4216,
      "'zombie ": 4217,
      "(R": 4218,
      "(b": 4219,
      "(as ": 4220,
      "(with ": 4221,
      "(Th": 4222,
      "(at least ": 4223,
      "(Michael ": 4224,
      "(includ": 4225,
      ") the ": 4226,
      ") that ": 4227,
      "). Al": 4228,
      "). An": 4229,
      "*Kram": 4230,
      "+ ": 4231,
      ", they are ": 4232,
      "-1": 4233,
      "-in": 4234,
      "- that ": 4235,
      "-The ": 4236,
      "-fi": 4237,
      "-mak": 4238,
      "-D ": 4239,
      "-on-": 4240,
      "-budget ": 4241,
      "-school ": 4242,
      "-style ": 4243,
      "-husband": 4244,
      "-liv": 4245,
      ".\"": 4246,
      ".)": 4247,
      "/director ": 4248,
      "16": 4249,
      "1) ": 4250,
      "15 ": 4251,
      "2) ": 4252,
      "2: ": 4253,
      "2 and ": 4254,
      "20 ": 4255,
      "29 ": 4256,
      "30 ": 4257,
      "3-D ": 4258,
      "50": 4259,
      "70's ": 4260,
      "9, ": 4261,
      ": the ": 4262,
      "; they ": 4263,
      "?!": 4264,
      "?, ": 4265,
      "?) and ": 4266,
      "AT": 4267,
      "Ali": 4268,
      "Away": 4269,
      "AT ": 4270,
      "Actor ": 4271,
      "About ": 4272,
      "By ": 4273,
      "Bou": 4274,
      "Bel": 4275,
      "By the ": 4276,
      "Back ": 4277,
      "Bru": 4278,
      "Beal": 4279,
      "BEL": 4280,
      "Billy ": 4281,
      "CK": 4282,
      "Can": 4283,
      "Com": 4284,
      "Call": 4285,
      "Cru": 4286,
      "Clau": 4287,
      "City, ": 4288,
      "Cinder": 4289,
      "Chase": 4290,
      "Cillian ": 4291,
      "Campbell ": 4292,
      "COUN": 4293,
      "DA": 4294,
      "Da": 4295,
      "Dor": 4296,
      "Do ": 4297,
      "Dun": 4298,
      "Dak": 4299,
      "Db ": 4300,
      "Dentist": 4301,
      "Dolph": 4302,
      "Eli": 4303,
      "Eri": 4304,
      "Ele": 4305,
      "Edi": 4306,
      "Eber": 4307,
      "Ell": 4308,
      "Fi": 4309,
      "Fl": 4310,
      "Fal": 4311,
      "Fir": 4312,
      "FIN": 4313,
      "GE": 4314,
      "Go": 4315,
      "Ger": 4316,
      "Gun": 4317,
      "Gand": 4318,
      "Gest": 4319,
      "HE": 4320,
      "HI": 4321,
      "He ": 4322,
      "Har": 4323,
      "Hal ": 4324,
      "Hard": 4325,
      "Home ": 4326,
      "Here's ": 4327,
      "HIN": 4328,
      "HS ": 4329,
      "Have ": 4330,
      "Hank ": 4331,
      "IT": 4332,
      "Im": 4333,
      "In ": 4334,
      "IDE": 4335,
      "Ji": 4336,
      "Ju": 4337,
      "Jer": 4338,
      "Jan": 4339,
      "Jon": 4340,
      "Jun": 4341,
      "Jud": 4342,
      "Jew": 4343,
      "Jann": 4344,
      "J S": 4345,
      "Jake ": 4346,
      "Jenn": 4347,
      "Ku": 4348,
      "Kis": 4349,
      "Kinn": 4350,
      "Killer": 4351,
      "Kore": 4352,
      "LE": 4353,
      "Lag": 4354,
      "Lear": 4355,
      "Last ": 4356,
      "Little ": 4357,
      "LE ": 4358,
      "LER": 4359,
      "Lots ": 4360,
      "Look ": 4361,
      "Ms. ": 4362,
      "Mari": 4363,
      "Mitch ": 4364,
      "Miss": 4365,
      "Mother Night ": 4366,
      "MAND": 4367,
      "NE": 4368,
      "NS": 4369,
      "Ni": 4370,
      "Ned ": 4371,
      "Night": 4372,
      "NOT ": 4373,
      "OO": 4374,
      "OS": 4375,
      "OW": 4376,
      "Oh": 4377,
      "Ok": 4378,
      "Ol": 4379,
      "Osc": 4380,
      "Off": 4381,
      "Oak": 4382,
      "Py": 4383,
      "Pal": 4384,
      "Pre": 4385,
      "Pow": 4386,
      "Pet": 4387,
      "Port": 4388,
      "Phil": 4389,
      "Philli": 4390,
      "Perhaps ": 4391,
      "PJ S": 4392,
      "RV": 4393,
      "Rom": 4394,
      "Raw": 4395,
      "Rour": 4396,
      "Rook": 4397,
      "Real ": 4398,
      "Ranci": 4399,
      "SU": 4400,
      "Su": 4401,
      "Ser": 4402,
      "Spo": 4403,
      "Sup": 4404,
      "Sant ": 4405,
      "Sher": 4406,
      "Sant": 4407,
      "Sci": 4408,
      "Sco": 4409,
      "She's ": 4410,
      "Sook": 4411,
      "Sica ": 4412,
      "Tar": 4413,
      "Ted ": 4414,
      "Tru": 4415,
      "TRY": 4416,
      "Terr": 4417,
      "Vitt": 4418,
      "Vict": 4419,
      "VHS ": 4420,
      "Wor": 4421,
      "Wal": 4422,
      "Way ": 4423,
      "Will ": 4424,
      "WING": 4425,
      "Wide ": 4426,
      "Women": 4427,
      "Y ": 4428,
      "York ": 4429,
      "ah": 4430,
      "a. ": 4431,
      "a the ": 4432,
      "aur": 4433,
      "a.<br /><br />": 4434,
      "a that ": 4435,
      "aqu": 4436,
      "aking ": 4437,
      "aks ": 4438,
      "akin": 4439,
      "a**": 4440,
      "ahead": 4441,
      "ahead ": 4442,
      "bic": 4443,
      "bab": 4444,
      "bitt": 4445,
      "bast": 4446,
      "bother": 4447,
      "bing and ": 4448,
      "bster ": 4449,
      "baz": 4450,
      "bound": 4451,
      "blood": 4452,
      "bought ": 4453,
      "bidden ": 4454,
      "cer": 4455,
      "co ": 4456,
      "cup": 4457,
      "ction ": 4458,
      "city ": 4459,
      "cut ": 4460,
      "canc": 4461,
      "cous": 4462,
      "ct of ": 4463,
      "ctiv": 4464,
      "cros": 4465,
      "covers ": 4466,
      "dy": 4467,
      "din": 4468,
      "dy ": 4469,
      "ded ": 4470,
      "del": 4471,
      "des ": 4472,
      "dun": 4473,
      "d\" ": 4474,
      "d) ": 4475,
      "d? ": 4476,
      "date ": 4477,
      "dance ": 4478,
      "dres": 4479,
      "dele ": 4480,
      "d've ": 4481,
      "e,": 4482,
      "ein": 4483,
      "een": 4484,
      "eo ": 4485,
      "ech": 4486,
      "e) ": 4487,
      "eigh": 4488,
      "e. It ": 4489,
      "eeri": 4490,
      "eff": 4491,
      "etic ": 4492,
      "e.<br /><br />The ": 4493,
      "ester": 4494,
      "e.\" ": 4495,
      "e.) ": 4496,
      "fli": 4497,
      "fell": 4498,
      "fly": 4499,
      "fell ": 4500,
      "fai": 4501,
      "gal": 4502,
      "ger ": 4503,
      "ges": 4504,
      "gan ": 4505,
      "gri": 4506,
      "gay": 4507,
      "gate ": 4508,
      "gave ": 4509,
      "gonna ": 4510,
      "hand ": 4511,
      "hat": 4512,
      "hid": 4513,
      "hell": 4514,
      "hits ": 4515,
      "hang": 4516,
      "hous": 4517,
      "here is ": 4518,
      "hard": 4519,
      "hire ": 4520,
      "heav": 4521,
      "i-": 4522,
      "iv": 4523,
      "ith": 4524,
      "ian": 4525,
      "iti": 4526,
      "ier ": 4527,
      "ie, ": 4528,
      "ichar": 4529,
      "iest ": 4530,
      "ie's ": 4531,
      "iff": 4532,
      "id of ": 4533,
      "ju": 4534,
      "jam": 4535,
      "jour": 4536,
      "jessica ": 4537,
      "k-": 4538,
      "ky ": 4539,
      "ka ": 4540,
      "kiss": 4541,
      "lu": 4542,
      "lt ": 4543,
      "l the ": 4544,
      "lot ": 4545,
      "lam": 4546,
      "low ": 4547,
      "laz": 4548,
      "langu": 4549,
      "mou": 4550,
      "mly ": 4551,
      "mul": 4552,
      "moun": 4553,
      "mme": 4554,
      "mous ": 4555,
      "matt": 4556,
      "mother": 4557,
      "mally": 4558,
      "mming ": 4559,
      "ner ": 4560,
      "nom": 4561,
      "nes": 4562,
      "nor ": 4563,
      "non ": 4564,
      "nic": 4565,
      "nal ": 4566,
      "nation": 4567,
      "none": 4568,
      "night": 4569,
      "national ": 4570,
      "os ": 4571,
      "otic": 4572,
      "osp": 4573,
      "oesn't ": 4574,
      "ox ": 4575,
      "oid of ": 4576,
      "p-": 4577,
      "py ": 4578,
      "per ": 4579,
      "pil": 4580,
      "ppar": 4581,
      "p, but ": 4582,
      "past ": 4583,
      "pher": 4584,
      "pimp": 4585,
      "ps. A": 4586,
      "police ": 4587,
      "pray ": 4588,
      "ron": 4589,
      "rac": 4590,
      "ris": 4591,
      "roo": 4592,
      "ry, ": 4593,
      "rass": 4594,
      "rice ": 4595,
      "round": 4596,
      "sing ": 4597,
      "sch": 4598,
      "sat ": 4599,
      "sen ": 4600,
      "sit ": 4601,
      "sun": 4602,
      "s. T": 4603,
      "s..": 4604,
      "s\" ": 4605,
      "soun": 4606,
      "s. Th": 4607,
      "stic ": 4608,
      "s.<br /><br />The ": 4609,
      "sical ": 4610,
      "s* ": 4611,
      "ssed ": 4612,
      "te ": 4613,
      "tar": 4614,
      "tear": 4615,
      "ting the ": 4616,
      "tut": 4617,
      "ture": 4618,
      "treas": 4619,
      "tear ": 4620,
      "ted to make ": 4621,
      "ub": 4622,
      "uh": 4623,
      "uou": 4624,
      "uals ": 4625,
      "uart ": 4626,
      "vac": 4627,
      "van ": 4628,
      "vau": 4629,
      "vid": 4630,
      "vs. ": 4631,
      "vast ": 4632,
      "vail": 4633,
      "wer ": 4634,
      "wel": 4635,
      "wis": 4636,
      "woo": 4637,
      "wann": 4638,
      "wise ": 4639,
      "witch": 4640,
      "wakes ": 4641,
      "xel": 4642,
      "ys ": 4643,
      "yes ": 4644,
      "yl ": 4645,
      "y. The ": 4646,
      "yaw": 4647,
      "y. I ": 4648,
      "yable ": 4649,
      "yet": 4650,
      "y. You ": 4651,
      "e P": 4652,
      "e to ": 4653,
      "e for ": 4654,
      "e by ": 4655,
      "e on the ": 4656,
      "e our ": 4657,
      "e Dav": 4658,
      "s (": 4659,
      "s is ": 4660,
      "s an ": 4661,
      "s with ": 4662,
      "s about ": 4663,
      "s on the ": 4664,
      "s to be ": 4665,
      "s for the ": 4666,
      "s him": 4667,
      "s bor": 4668,
      "s why ": 4669,
      "then": 4670,
      "thon": 4671,
      "thor": 4672,
      "thal ": 4673,
      "thers ": 4674,
      "thful ": 4675,
      "there are ": 4676,
      "they": 4677,
      "th.\" ": 4678,
      "ther, but ": 4679,
      "theor": 4680,
      "t into ": 4681,
      "ind ": 4682,
      "ines ": 4683,
      "in that ": 4684,
      "iness ": 4685,
      "insp": 4686,
      "ination": 4687,
      "inate ": 4688,
      "insti": 4689,
      "ination ": 4690,
      "inept ": 4691,
      "inclu": 4692,
      "inner": 4693,
      "in these ": 4694,
      "inexpl": 4695,
      "indie ": 4696,
      "incompet": 4697,
      "inappropri": 4698,
      "d up ": 4699,
      "d St": 4700,
      "d Al": 4701,
      "d cast": 4702,
      "d herself ": 4703,
      "er*": 4704,
      "ero ": 4705,
      "erk ": 4706,
      "er) ": 4707,
      "er, the ": 4708,
      "er than ": 4709,
      "er), ": 4710,
      "ery is ": 4711,
      "ercial ": 4712,
      "erry-": 4713,
      "er/director ": 4714,
      "anal": 4715,
      "antic": 4716,
      "aning, ": 4717,
      "another": 4718,
      " then": 4719,
      " this": 4720,
      " though ": 4721,
      " that's ": 4722,
      "y but ": 4723,
      "y to": 4724,
      "y Al": 4725,
      "y Phil": 4726,
      "eni": 4727,
      "enor": 4728,
      "ened ": 4729,
      "en that ": 4730,
      "enough": 4731,
      "ensu": 4732,
      "en they ": 4733,
      "enomen": 4734,
      "onsi": 4735,
      "ons, ": 4736,
      "onic ": 4737,
      "on their ": 4738,
      "onside ": 4739,
      ", N": 4740,
      ", is ": 4741,
      ", be": 4742,
      ", one ": 4743,
      ", what ": 4744,
      ", we ": 4745,
      ", when ": 4746,
      ", don't ": 4747,
      ", with the ": 4748,
      ", in a ": 4749,
      ", still ": 4750,
      ", while ": 4751,
      ", another ": 4752,
      ", I'm ": 4753,
      ", or the ": 4754,
      ", I think ": 4755,
      ", when she ": 4756,
      ", Irwin ": 4757,
      ", other than": 4758,
      ", either": 4759,
      ", partly because ": 4760,
      "ord ": 4761,
      "ored ": 4762,
      "orth ": 4763,
      "or... ": 4764,
      "organ ": 4765,
      ". \"": 4766,
      ". no ": 4767,
      ". i ": 4768,
      ". and the ": 4769,
      ". You": 4770,
      ". Michael ": 4771,
      ". Ev": 4772,
      ". -The ": 4773,
      "o is ": 4774,
      "ouri": 4775,
      "oup ": 4776,
      "is to ": 4777,
      "is as ": 4778,
      "is in ": 4779,
      "is an ": 4780,
      "is un": 4781,
      "is so ": 4782,
      "is great ": 4783,
      "is good": 4784,
      "is probably ": 4785,
      "is one of th": 4786,
      "is money": 4787,
      "is left to ": 4788,
      "is primarily ": 4789,
      "is alway": 4790,
      "is drawn to": 4791,
      "ing?": 4792,
      "ing. ": 4793,
      "inged ": 4794,
      "ing.<br /><br />": 4795,
      "ingers ": 4796,
      "ing, but ": 4797,
      "ing. Th": 4798,
      "ing they ": 4799,
      "ing. This ": 4800,
      "ing. She's ": 4801,
      " the M": 4802,
      " the to": 4803,
      " the film ": 4804,
      " the film's ": 4805,
      "are": 4806,
      "arm": 4807,
      "ary": 4808,
      "arly ": 4809,
      "are, ": 4810,
      "alle": 4811,
      "alf ": 4812,
      "al\" ": 4813,
      "alks ": 4814,
      "alone": 4815,
      "although": 4816,
      "also the ": 4817,
      "a \"": 4818,
      "a G": 4819,
      "a L": 4820,
      "a P": 4821,
      "a g": 4822,
      "a de": 4823,
      "a gi": 4824,
      "a pr": 4825,
      "a is the ": 4826,
      "a worl": 4827,
      "a way ": 4828,
      "a girl ": 4829,
      "a better ": 4830,
      "a fav": 4831,
      "a family ": 4832,
      "a turn ": 4833,
      "a completely ": 4834,
      "a major ": 4835,
      "a tough ": 4836,
      "a master": 4837,
      "a rating of ": 4838,
      "reli": 4839,
      "restor": 4840,
      "regi": 4841,
      "remak": 4842,
      "red, ": 4843,
      "remake ": 4844,
      "reach": 4845,
      "recor": 4846,
      "retre": 4847,
      "reconc": 4848,
      "remain": 4849,
      "represent": 4850,
      "remark": 4851,
      "refer": 4852,
      "restrain": 4853,
      "of-": 4854,
      "and with ": 4855,
      "and her ": 4856,
      "and has ": 4857,
      "and just ": 4858,
      "and she ": 4859,
      "and its ": 4860,
      "and bl": 4861,
      "and i ": 4862,
      "and still ": 4863,
      "and mis": 4864,
      "and real": 4865,
      "and then ": 4866,
      "and finally ": 4867,
      "and simply ": 4868,
      "and hero": 4869,
      "and whit": 4870,
      "ties ": 4871,
      "tire ": 4872,
      "tired ": 4873,
      "ing W": 4874,
      "ing it": 4875,
      "ing in ": 4876,
      "ing for": 4877,
      "ing with ": 4878,
      "ing what ": 4879,
      "ing into ": 4880,
      "ing room": 4881,
      "ing around, ": 4882,
      "er in the ": 4883,
      "er for th": 4884,
      "to you": 4885,
      "to his ": 4886,
      "to ra": 4887,
      "to not ": 4888,
      "to you ": 4889,
      "to film ": 4890,
      "to go": 4891,
      "to any ": 4892,
      "to gr": 4893,
      "to all the ": 4894,
      "to know": 4895,
      "to say ": 4896,
      "to put ": 4897,
      "to war": 4898,
      "to live ": 4899,
      "to Mon": 4900,
      "to say that ": 4901,
      "to understand the ": 4902,
      "to continue ": 4903,
      "to steal ": 4904,
      "to speak ": 4905,
      "to begin with": 4906,
      "to Berkowitz ": 4907,
      "to DOCTOR TED NELSON": 4908,
      "sta": 4909,
      "sting ": 4910,
      "stom": 4911,
      "stat": 4912,
      "stri": 4913,
      "stab": 4914,
      "stell": 4915,
      "steri": 4916,
      "stbur": 4917,
      "stalks ": 4918,
      "il, ": 4919,
      "ilari": 4920,
      "iliz": 4921,
      "ch-": 4922,
      "chor": 4923,
      "ching ": 4924,
      "chol": 4925,
      "chose ": 4926,
      "chick ": 4927,
      "chemi": 4928,
      "chron": 4929,
      "om the ": 4930,
      "omas ": 4931,
      "omen ": 4932,
      "ed as ": 4933,
      "ed out ": 4934,
      "ed so ": 4935,
      "ed some ": 4936,
      "ed this film ": 4937,
      "ed voic": 4938,
      "ed upon ": 4939,
      "ed on this ": 4940,
      "ed women": 4941,
      "at a c": 4942,
      "at how ": 4943,
      "at night ": 4944,
      "at all, ": 4945,
      "at Miami ": 4946,
      "elf ": 4947,
      "elim": 4948,
      "ely, ": 4949,
      "ely the ": 4950,
      "eless": 4951,
      "elity, ": 4952,
      "ellect": 4953,
      "as M": 4954,
      "as I ": 4955,
      "as un": 4956,
      "as this ": 4957,
      "as ever ": 4958,
      "as we ": 4959,
      "as much ": 4960,
      "as many ": 4961,
      "as those ": 4962,
      "as they are ": 4963,
      "the f": 4964,
      "the the ": 4965,
      "the ali": 4966,
      "the characters ": 4967,
      "the only": 4968,
      "es, the ": 4969,
      "ess. ": 4970,
      "es? ": 4971,
      "es: ": 4972,
      "estive ": 4973,
      "escap": 4974,
      "escent ": 4975,
      "es on ": 4976,
      "es in the ": 4977,
      "es on the ": 4978,
      "es were ": 4979,
      "es her": 4980,
      "es into ": 4981,
      "es there ": 4982,
      "es every ": 4983,
      "es Wide ": 4984,
      "it?": 4985,
      "itle ": 4986,
      "itar ": 4987,
      "it! ": 4988,
      "itary ": 4989,
      "it, so ": 4990,
      "it.<br /><br />N": 4991,
      "acy ": 4992,
      "acqu": 4993,
      "acy, ": 4994,
      "acking ": 4995,
      "acked ": 4996,
      "of ab": 4997,
      "of some ": 4998,
      "of which ": 4999,
      "of its ": 5000,
      "of watching ": 5001,
      "of Holly": 5002,
      "of The Wiz": 5003,
      "of Dentist": 5004,
      "ate and ": 5005,
      "ating, ": 5006,
      "why": 5007,
      "when the ": 5008,
      "what's ": 5009,
      "ly and the ": 5010,
      "ove ": 5011,
      "he is a ": 5012,
      "he can ": 5013,
      "he did ": 5014,
      "sec": 5015,
      "sev": 5016,
      "sett": 5017,
      "see. ": 5018,
      "seduc": 5019,
      "se. W": 5020,
      "sed-": 5021,
      "or N": 5022,
      "or even ": 5023,
      "or at least ": 5024,
      "or two": 5025,
      "ower ": 5026,
      "on C": 5027,
      "on it": 5028,
      "on an ": 5029,
      "on of the ": 5030,
      "on my ": 5031,
      "on screen ": 5032,
      "on TV ": 5033,
      "on top ": 5034,
      "on screen": 5035,
      "on earth ": 5036,
      "in and ": 5037,
      "in of ": 5038,
      "in on ": 5039,
      "in one ": 5040,
      "in in the ": 5041,
      "in con": 5042,
      "in some ": 5043,
      "in sp": 5044,
      "in its ": 5045,
      "in your ": 5046,
      "in a l": 5047,
      "in point": 5048,
      "in fact ": 5049,
      "in Par": 5050,
      "in all, ": 5051,
      "in Lou": 5052,
      "in adv": 5053,
      "in itself": 5054,
      "ici": 5055,
      "ics ": 5056,
      "icab": 5057,
      "icks ": 5058,
      "ically": 5059,
      "an G": 5060,
      "an im": 5061,
      "an interesting ": 5062,
      "an playing ": 5063,
      "an Con": 5064,
      "an ok": 5065,
      "ison": 5066,
      "ising ": 5067,
      "isol": 5068,
      "is, and ": 5069,
      "ision": 5070,
      "isney ": 5071,
      "iscent ": 5072,
      "beha": 5073,
      "being the ": 5074,
      "beast": 5075,
      "bewil": 5076,
      "beats ": 5077,
      "ghost": 5078,
      "ghost ": 5079,
      "it all": 5080,
      "it has ": 5081,
      "it just ": 5082,
      "it is a ": 5083,
      "it to the ": 5084,
      "it more ": 5085,
      "it will ": 5086,
      "it out": 5087,
      "it des": 5088,
      "it was": 5089,
      "it again": 5090,
      "it doesn't ": 5091,
      "it becomes ": 5092,
      "it up and ": 5093,
      "it mostly ": 5094,
      "it hard to ": 5095,
      "it woul": 5096,
      "it took ": 5097,
      "plan ": 5098,
      "plag": 5099,
      "pless ": 5100,
      "plum": 5101,
      "please ": 5102,
      "ooz": 5103,
      "ooth ": 5104,
      "ooked ": 5105,
      "events ": 5106,
      "even though ": 5107,
      "I will ": 5108,
      "I know": 5109,
      "I might ": 5110,
      "I love ": 5111,
      "I hope ": 5112,
      "I saw": 5113,
      "I saw ": 5114,
      "I mean ": 5115,
      "I caught ": 5116,
      "mad": 5117,
      "maint": 5118,
      "max ": 5119,
      "haun": 5120,
      "hades": 5121,
      "wife, ": 5122,
      "un-": 5123,
      "unt": 5124,
      "unch": 5125,
      "unreal ": 5126,
      "unbeliev": 5127,
      "undead": 5128,
      "unfortunately ": 5129,
      "lif": 5130,
      "lier, ": 5131,
      "life, ": 5132,
      "lips. A": 5133,
      "rist": 5134,
      "rigu": 5135,
      "rid herself ": 5136,
      "m and win": 5137,
      "you.<br /><br />": 5138,
      "with their ": 5139,
      "asp": 5140,
      "asking ": 5141,
      "asks ": 5142,
      "asion ": 5143,
      "assign": 5144,
      "le-": 5145,
      "ably the ": 5146,
      ". To": 5147,
      ". Tony ": 5148,
      "<br /><br />The ": 5149,
      "die-": 5150,
      "buc": 5151,
      "actor": 5152,
      "actual": 5153,
      "actually": 5154,
      "older": 5155,
      "olfin": 5156,
      "older ": 5157,
      "olescent ": 5158,
      "al to make ": 5159,
      "k sh": 5160,
      "was that ": 5161,
      "was just ": 5162,
      "was very ": 5163,
      "was on the ": 5164,
      "was really ": 5165,
      "was kin": 5166,
      "was bro": 5167,
      "was played by a ": 5168,
      "urder": 5169,
      "urate ": 5170,
      "irrelev": 5171,
      "his own ": 5172,
      "his character ": 5173,
      "his best ": 5174,
      "his life ": 5175,
      "his wife ": 5176,
      "his family ": 5177,
      "ayers ": 5178,
      "shop": 5179,
      "shots ": 5180,
      "sheriff ": 5181,
      "shelf ": 5182,
      "out and ": 5183,
      "of the movie ": 5184,
      "of the whole ": 5185,
      "of the entire ": 5186,
      "of the comic ": 5187,
      "amor": 5188,
      "amed ": 5189,
      "amoun": 5190,
      "amuse": 5191,
      "ement": 5192,
      "embar": 5193,
      ".<br /><br />A ": 5194,
      ".<br /><br />It's ": 5195,
      ".<br /><br />We ": 5196,
      "comman": 5197,
      "comedi": 5198,
      "e, to ": 5199,
      "e, not ": 5200,
      "e, only ": 5201,
      "e, col": 5202,
      "e, of cour": 5203,
      "that \"": 5204,
      "that it ": 5205,
      "that tw": 5206,
      "that you will ": 5207,
      "that men are ": 5208,
      "rag": 5209,
      "rape": 5210,
      "raid": 5211,
      "raps ": 5212,
      "for that ": 5213,
      "forth ": 5214,
      "forgot ": 5215,
      "forgett": 5216,
      "but that ": 5217,
      "but what ": 5218,
      "but it is ": 5219,
      "but hey": 5220,
      "se in ": 5221,
      "are still ": 5222,
      " this was ": 5223,
      " this one ": 5224,
      " this show ": 5225,
      " this after": 5226,
      "siv": 5227,
      "side": 5228,
      "sister ": 5229,
      "enty ": 5230,
      "entally ": 5231,
      "deb": 5232,
      "detr": 5233,
      "defi": 5234,
      "death": 5235,
      "ded, ": 5236,
      "dete": 5237,
      "depart": 5238,
      "depic": 5239,
      "for all ": 5240,
      "for any ": 5241,
      "for anyone ": 5242,
      "for an hour ": 5243,
      "to their ": 5244,
      "to think": 5245,
      "toine": 5246,
      "movie are ": 5247,
      "movie has ": 5248,
      "movie pro": 5249,
      "rop": 5250,
      "role": 5251,
      "robo": 5252,
      "role, ": 5253,
      "with no ": 5254,
      "with a c": 5255,
      "with a s": 5256,
      "with less ": 5257,
      "with high": 5258,
      "with sub": 5259,
      "with clearly ": 5260,
      "with each other": 5261,
      "with a high ": 5262,
      "aded with ": 5263,
      "addic": 5264,
      "adcast ": 5265,
      "adolescent ": 5266,
      "pet ": 5267,
      "pect ": 5268,
      "aust": 5269,
      "augh": 5270,
      "ault ": 5271,
      "one would ": 5272,
      "one or the ": 5273,
      "one else ": 5274,
      ", and even ": 5275,
      ", and that the ": 5276,
      ", and directed by ": 5277,
      " that she ": 5278,
      " that will ": 5279,
      " that actually ": 5280,
      " that isn't ": 5281,
      " that he is ": 5282,
      "all they ": 5283,
      "all these ": 5284,
      "ext ": 5285,
      "exem": 5286,
      "expos": 5287,
      "exec": 5288,
      "explan": 5289,
      "exist": 5290,
      "expen": 5291,
      "exist ": 5292,
      "expect ": 5293,
      "oth ": 5294,
      "poor": 5295,
      "post": 5296,
      "pop ": 5297,
      "poster": 5298,
      "up, I ": 5299,
      "upon a ": 5300,
      "upset ": 5301,
      "f cour": 5302,
      "in the first ": 5303,
      "in the film is ": 5304,
      "in the way ": 5305,
      "in the world ": 5306,
      "in the middle ": 5307,
      "...<br /><br />": 5308,
      "....": 5309,
      ".....": 5310,
      "intr": 5311,
      "intend": 5312,
      "intrigu": 5313,
      ". I thought ": 5314,
      "edy ": 5315,
      "ed, and ": 5316,
      "edop": 5317,
      "edly and the ": 5318,
      "not be ": 5319,
      "not much ": 5320,
      "not yet ": 5321,
      "not enough ": 5322,
      "not a good ": 5323,
      "have an ": 5324,
      "have never ": 5325,
      "have enough ": 5326,
      "have put ": 5327,
      "have seen": 5328,
      "have lost ": 5329,
      "age": 5330,
      "aged ": 5331,
      "age, ": 5332,
      "agent ": 5333,
      "agenc": 5334,
      "agree ": 5335,
      "tion.": 5336,
      "tion machine ": 5337,
      "you see ": 5338,
      "you could ": 5339,
      "you can't ": 5340,
      "you want to ": 5341,
      "her a ": 5342,
      "her in a ": 5343,
      "her dad": 5344,
      "her voice ": 5345,
      "so if ": 5346,
      "so bad": 5347,
      "so completely ": 5348,
      "so it took ": 5349,
      "verse ": 5350,
      "this was a ": 5351,
      "this movie's ": 5352,
      "this point ": 5353,
      ". The film ": 5354,
      ". The only ": 5355,
      ". The acting ": 5356,
      ". The plot is ": 5357,
      ". The story is ": 5358,
      "ought to ": 5359,
      "n top ": 5360,
      "ow budget ": 5361,
      "earful ": 5362,
      "s, \"": 5363,
      "s, is ": 5364,
      "s, it ": 5365,
      "s, I ": 5366,
      "s, who ": 5367,
      "s, which ": 5368,
      "- and ": 5369,
      "- or ": 5370,
      "- perhaps ": 5371,
      "tte ": 5372,
      "apy ": 5373,
      "apo ": 5374,
      "aper ": 5375,
      "apping ": 5376,
      "works ": 5377,
      "word, ": 5378,
      "worked ": 5379,
      "worthy ": 5380,
      "film of ": 5381,
      "film are ": 5382,
      "film where ": 5383,
      "film isn't ": 5384,
      "film director ": 5385,
      "\" (": 5386,
      "\" is ": 5387,
      "\" to ": 5388,
      "\" any": 5389,
      ". Appar": 5390,
      "who are ": 5391,
      "who have ": 5392,
      "who has ": 5393,
      "who also ": 5394,
      "who has been ": 5395,
      "contr": 5396,
      "conne": 5397,
      "constr": 5398,
      "conve": 5399,
      "consci": 5400,
      "ulg": 5401,
      "tical ": 5402,
      "charge": 5403,
      "ts about ": 5404,
      "trou": 5405,
      "trend ": 5406,
      "trick": 5407,
      "try to ": 5408,
      "ust for ": 5409,
      "moon": 5410,
      "moans ": 5411,
      "motiv": 5412,
      "mobster ": 5413,
      "motion machine ": 5414,
      ") to ": 5415,
      ") she ": 5416,
      ") Th": 5417,
      "imper": 5418,
      "pre-": 5419,
      "previ": 5420,
      "preview": 5421,
      "premi": 5422,
      "preposter": 5423,
      "opera": 5424,
      "has a ": 5425,
      "has its ": 5426,
      "has already ": 5427,
      "has apparently ": 5428,
      "has disappear": 5429,
      "has nothing to do with ": 5430,
      "ided to ": 5431,
      "idelity, ": 5432,
      "using": 5433,
      "usic ": 5434,
      "usual ": 5435,
      "usy Phil": 5436,
      "ept": 5437,
      "ept of ": 5438,
      "The plot ": 5439,
      "manner": 5440,
      "parents ": 5441,
      "part of ": 5442,
      "g Kinn": 5443,
      "more": 5444,
      "moral ": 5445,
      "more, ": 5446,
      "more. ": 5447,
      "like this ": 5448,
      "fetish ": 5449,
      "feature ": 5450,
      "per, ": 5451,
      "story, ": 5452,
      "storical ": 5453,
      "by a m": 5454,
      "by being ": 5455,
      "film-mak": 5456,
      "dod": 5457,
      "dog": 5458,
      "do this ": 5459,
      "dogs ": 5460,
      "about her ": 5461,
      "about this ": 5462,
      "about this movie": 5463,
      "about them, ": 5464,
      "some point": 5465,
      "some tran": 5466,
      "clai": 5467,
      "claim": 5468,
      "just so ": 5469,
      "just bad": 5470,
      "vior": 5471,
      "vier ": 5472,
      "tain ": 5473,
      "all in ": 5474,
      "all right": 5475,
      "she was ": 5476,
      "she was the ": 5477,
      "she deserv": 5478,
      "dering ": 5479,
      "deriv": 5480,
      "project ": 5481,
      "qui": 5482,
      "quick": 5483,
      "quiliz": 5484,
      "spor": 5485,
      "spur": 5486,
      "umini": 5487,
      "oci": 5488,
      "ocre": 5489,
      "ocol": 5490,
      "ocal ": 5491,
      "ock ": 5492,
      "occup": 5493,
      "gus ": 5494,
      "gue, ": 5495,
      "guess": 5496,
      "guitar ": 5497,
      ", the movie ": 5498,
      ", the other ": 5499,
      ", the most ": 5500,
      "endure ": 5501,
      "ends the ": 5502,
      "ending, ": 5503,
      "ended up ": 5504,
      "end, it ": 5505,
      "de Michael ": 5506,
      "de Sica ": 5507,
      "s. But ": 5508,
      "is a very good ": 5509,
      "is a pretty good ": 5510,
      "is a classic ": 5511,
      "other people ": 5512,
      "other movies ": 5513,
      "? This ": 5514,
      "? It ": 5515,
      "? Yes, ": 5516,
      "otom": 5517,
      "suff": 5518,
      "to the book ": 5519,
      "very little ": 5520,
      "very inten": 5521,
      "very memor": 5522,
      "neg": 5523,
      "nett": 5524,
      "neck ": 5525,
      "anders ": 5526,
      "more import": 5527,
      "awful ": 5528,
      "awful": 5529,
      "eif ": 5530,
      "either ": 5531,
      "what you ": 5532,
      "what happen": 5533,
      "ever seen ": 5534,
      "ever done ": 5535,
      "Who ": 5536,
      "While ": 5537,
      "somewhere, ": 5538,
      "no reason ": 5539,
      "no movie has ": 5540,
      "we were ": 5541,
      "we never ": 5542,
      "we have to ": 5543,
      "we meet ": 5544,
      "only had ": 5545,
      "even now ": 5546,
      "even remotely ": 5547,
      "mudd": 5548,
      "ant (": 5549,
      "it's \"": 5550,
      "it's good": 5551,
      "watched the ": 5552,
      "e. S": 5553,
      "e. My ": 5554,
      "minal ": 5555,
      "minus ": 5556,
      "on the be": 5557,
      "on the screen ": 5558,
      "on the cover": 5559,
      "on the shelf ": 5560,
      "will get ": 5561,
      "will always ": 5562,
      "had some ": 5563,
      "had enough ": 5564,
      "had Chinese ": 5565,
      "me, that ": 5566,
      ", but it ": 5567,
      ", but she ": 5568,
      ", but this is ": 5569,
      "itty ": 5570,
      "itting ": 5571,
      "when I ": 5572,
      "when i ": 5573,
      "when he is ": 5574,
      "from some ": 5575,
      "ity to ": 5576,
      "ity rule ": 5577,
      ". That ": 5578,
      ". Then ": 5579,
      ". Then, ": 5580,
      ". Then they ": 5581,
      "finished ": 5582,
      "knocked ": 5583,
      ". It is the ": 5584,
      ". It also ": 5585,
      ". It almost ": 5586,
      ". It was a ": 5587,
      "which may ": 5588,
      "fix": 5589,
      "fiel": 5590,
      "ks to ": 5591,
      "e and even ": 5592,
      "e and deriv": 5593,
      ". I also ": 5594,
      ". I love ": 5595,
      ". I liked ": 5596,
      ". I remember ": 5597,
      ". I figured ": 5598,
      "to be a s": 5599,
      "to be tru": 5600,
      "ut of ": 5601,
      "eriff": 5602,
      "able and ": 5603,
      "able chemi": 5604,
      "p into the ": 5605,
      "illa ": 5606,
      "es, he ": 5607,
      "es, I ": 5608,
      "its of ": 5609,
      "get to ": 5610,
      "good and ": 5611,
      "if she ": 5612,
      "if only ": 5613,
      "if its ": 5614,
      "if it is ": 5615,
      "me three ": 5616,
      "see it again ": 5617,
      "making the ": 5618,
      "scenes": 5619,
      "scenes and ": 5620,
      "blo": 5621,
      "caught": 5622,
      "ish the ": 5623,
      "ished in the ": 5624,
      "story and ": 5625,
      "story of the ": 5626,
      "bodi": 5627,
      "board ": 5628,
      "et's ": 5629,
      "her's ": 5630,
      "selves": 5631,
      "essor": 5632,
      "essenti": 5633,
      "esses that ": 5634,
      "ever. A": 5635,
      "my expectation": 5636,
      "w me ": 5637,
      "they don't ": 5638,
      "they really ": 5639,
      "they never ": 5640,
      "alike": 5641,
      "el is ": 5642,
      "biograph": 5643,
      "eah": 5644,
      "orting ": 5645,
      ". Her ": 5646,
      ". How ": 5647,
      "ourt ": 5648,
      "ain't ": 5649,
      "would make ": 5650,
      "angle ": 5651,
      "angles ": 5652,
      "end up ": 5653,
      "ds me ": 5654,
      "ante": 5655,
      "antly ": 5656,
      "any sense": 5657,
      "ed to watch ": 5658,
      "overall": 5659,
      "don't have to ": 5660,
      "don't think ": 5661,
      "fun and ": 5662,
      "firmly ": 5663,
      "ginally ": 5664,
      "a high": 5665,
      "a heal": 5666,
      "ite of ": 5667,
      "your best ": 5668,
      "your time": 5669,
      "avail": 5670,
      "noble ": 5671,
      "movie-": 5672,
      "movie.": 5673,
      "movie.<br /><br />": 5674,
      "movie! ": 5675,
      "movie. At ": 5676,
      "many of ": 5677,
      "many of the ": 5678,
      "many years ": 5679,
      "! This ": 5680,
      "! Gracias": 5681,
      "Thing ": 5682,
      "There ": 5683,
      "There's ": 5684,
      "Thomas ": 5685,
      "aster ": 5686,
      "disjo": 5687,
      "disbeli": 5688,
      "disagre": 5689,
      "still": 5690,
      "stilt": 5691,
      "write ": 5692,
      "entific ": 5693,
      ". By the ": 5694,
      ". Both ": 5695,
      "a cult ": 5696,
      "really does ": 5697,
      "really worth ": 5698,
      "stru": 5699,
      "streng": 5700,
      "because they ": 5701,
      "because they are ": 5702,
      ". This whole ": 5703,
      ". This is not ": 5704,
      ". This was a ": 5705,
      ", though": 5706,
      ", there is a ": 5707,
      "athetic": 5708,
      "could not ": 5709,
      "could possibly ": 5710,
      "phenomen": 5711,
      ", I was ": 5712,
      ", I can ": 5713,
      ", I didn't ": 5714,
      ", I enjoyed ": 5715,
      ". Sor": 5716,
      ". Sad": 5717,
      ". Since ": 5718,
      ". Splatt": 5719,
      "a sun": 5720,
      "assault ": 5721,
      "...and ": 5722,
      "...)<br /><br />": 5723,
      "first movie ": 5724,
      "first two ": 5725,
      "first introduc": 5726,
      "flick": 5727,
      "flick ": 5728,
      "flesh": 5729,
      "i felt ": 5730,
      "udes ": 5731,
      "s the sam": 5732,
      "s the need to ": 5733,
      "s the movie pro": 5734,
      "is the worst ": 5735,
      "a los": 5736,
      "a laugh": 5737,
      "a low budget ": 5738,
      "a local ": 5739,
      "ace the ": 5740,
      "plot and ": 5741,
      "plot or ": 5742,
      "grow": 5743,
      "gratu": 5744,
      "group ": 5745,
      "s and the ": 5746,
      "ation is ": 5747,
      "ation for ": 5748,
      "s to see ": 5749,
      "ance": 5750,
      "ing, it ": 5751,
      "ing, cle": 5752,
      ". And the ": 5753,
      ". And it's ": 5754,
      "how he ": 5755,
      "how many times ": 5756,
      "never comes ": 5757,
      "so they ": 5758,
      "attack": 5759,
      "it was the ": 5760,
      "actually to fin": 5761,
      "for the movie ": 5762,
      "for the first ": 5763,
      "characters with ": 5764,
      "This is ": 5765,
      "This is a ": 5766,
      "This isn't ": 5767,
      "kindly ": 5768,
      "less and ": 5769,
      "seemed to ": 5770,
      "excuse ": 5771,
      "... and ": 5772,
      "time to ": 5773,
      "time later": 5774,
      "time I saw ": 5775,
      "two girls ": 5776,
      "people that ": 5777,
      "ble cros": 5778,
      "crim": 5779,
      "criminal ": 5780,
      "fe figh": 5781,
      "pie ": 5782,
      "pixel": 5783,
      "one?": 5784,
      "ously": 5785,
      "comes to ": 5786,
      "comes acros": 5787,
      "screw": 5788,
      "scream": 5789,
      "scream ": 5790,
      "horrible ": 5791,
      "speed ": 5792,
      "ves home ": 5793,
      "ves of Dentist": 5794,
      "therapy ": 5795,
      "a mis": 5796,
      "a mem": 5797,
      "a mood ": 5798,
      "a mile ": 5799,
      "a murder": 5800,
      "of things. ": 5801,
      "ed by her ": 5802,
      "old couple ": 5803,
      "Ste": 5804,
      "Stuart ": 5805,
      "St. Splatt": 5806,
      "bad guy": 5807,
      "bad luck ": 5808,
      "drag": 5809,
      "drags ": 5810,
      "odile ": 5811,
      "rush": 5812,
      "rubb": 5813,
      "slash": 5814,
      "slaught": 5815,
      "en the film's ": 5816,
      "out-": 5817,
      "aries ": 5818,
      "aries and ": 5819,
      "in a film ": 5820,
      "in a dark ": 5821,
      ".<br /><br />The supporting ": 5822,
      "poss": 5823,
      "give a ": 5824,
      "give them ": 5825,
      "girlfriend ": 5826,
      "interesting": 5827,
      "interesting and ": 5828,
      "carto": 5829,
      "carry": 5830,
      "lots ": 5831,
      "loses ": 5832,
      "loaded with ": 5833,
      "superior ": 5834,
      "in this film ": 5835,
      "in this world": 5836,
      "at's what ": 5837,
      "all the other ": 5838,
      "have been a ": 5839,
      "still a good ": 5840,
      "still trying to ": 5841,
      "do not ": 5842,
      "hioned ": 5843,
      "ific": 5844,
      "iff ": 5845,
      "if they are ": 5846,
      "ked the ": 5847,
      "surpri": 5848,
      "surround": 5849,
      "ure, ": 5850,
      ". Well": 5851,
      ". Wiz": 5852,
      ". Women ": 5853,
      "es and then ": 5854,
      "es and spoke ": 5855,
      "show as ": 5856,
      "show up and ": 5857,
      "design": 5858,
      "ized ": 5859,
      "jok": 5860,
      "join": 5861,
      "joke ": 5862,
      "joking ": 5863,
      "throws ": 5864,
      ". Where ": 5865,
      ". When the ": 5866,
      "ated for ": 5867,
      "empty ": 5868,
      "empathy ": 5869,
      "commercial ": 5870,
      "appear ": 5871,
      "appealing ": 5872,
      "from the start": 5873,
      "probably the ": 5874,
      "friends ": 5875,
      "friends, ": 5876,
      "friends to ": 5877,
      "friendship ": 5878,
      "friendship": 5879,
      "; but ": 5880,
      "highly ": 5881,
      "imag": 5882,
      "sensitive ": 5883,
      "says that ": 5884,
      "t to a ": 5885,
      ". Now, ": 5886,
      ". <br /><br />It ": 5887,
      "chestbur": 5888,
      "made in the ": 5889,
      "made this ": 5890,
      "complaint": 5891,
      "complex ": 5892,
      "does bre": 5893,
      "aire ": 5894,
      "airplane ": 5895,
      "heart ": 5896,
      "heartw": 5897,
      "killed and ": 5898,
      "killing his ": 5899,
      "seriously ": 5900,
      "we'd ": 5901,
      "we'll ": 5902,
      "ance to ": 5903,
      "ings actually to fin": 5904,
      "action scenes ": 5905,
      "action takes ": 5906,
      "this movie was ": 5907,
      "makes a ": 5908,
      "makes me ": 5909,
      "funny, ": 5910,
      "-- in ": 5911,
      "0 minute ": 5912,
      "Alb": 5913,
      "Although": 5914,
      "Alison ": 5915,
      "brick": 5916,
      "marginally ": 5917,
      "men kill ": 5918,
      "term": 5919,
      "terri": 5920,
      "termin": 5921,
      "ting with the ": 5922,
      "ting for the ": 5923,
      "though.": 5924,
      "invasion ": 5925,
      "instance ": 5926,
      "om Rob": 5927,
      "acco": 5928,
      "accid": 5929,
      "accept ": 5930,
      "accord": 5931,
      "accents": 5932,
      "accurate ": 5933,
      "seeing this ": 5934,
      "seeing them ": 5935,
      "before he ": 5936,
      "perform": 5937,
      "perform ": 5938,
      "storyline ": 5939,
      "everyman": 5940,
      "DO ": 5941,
      "DO N": 5942,
      "E BOY": 5943,
      "From ": 5944,
      "der to ": 5945,
      "devoid of ": 5946,
      "trained ": 5947,
      "trail, ": 5948,
      "anny ": 5949,
      "orio": 5950,
      ". In fact ": 5951,
      ". In short": 5952,
      "film is not ": 5953,
      "film is still ": 5954,
      "trude Michael ": 5955,
      "impact": 5956,
      "pretty averag": 5957,
      "gore ": 5958,
      "gory ": 5959,
      "menthal ": 5960,
      "monit": 5961,
      "monster": 5962,
      "name of the ": 5963,
      "named after ": 5964,
      "names and spoke ": 5965,
      "said": 5966,
      "said, ": 5967,
      "s of his ": 5968,
      "s of a c": 5969,
      "having a ": 5970,
      "able, ": 5971,
      "able, and ": 5972,
      "did so much ": 5973,
      "out of our ": 5974,
      "work in ": 5975,
      "work by ": 5976,
      "minutes of ": 5977,
      "In the ": 5978,
      "In this ": 5979,
      "REALL": 5980,
      "boring and ": 5981,
      "famous ": 5982,
      "famili": 5983,
      "talent ": 5984,
      "talents ": 5985,
      " through the ": 5986,
      " thriller": 5987,
      ". Of cour": 5988,
      "right is a ": 5989,
      "comedic ": 5990,
      "comedy that ": 5991,
      ". Also ": 5992,
      ". Almost ": 5993,
      ". Also": 5994,
      "taking the ": 5995,
      "takes the ": 5996,
      "* The ": 5997,
      "Pauline and ": 5998,
      "low-": 5999,
      "lowest ": 6000,
      "might have been ": 6001,
      ". Dire": 6002,
      ". Despite ": 6003,
      ". Doesn't ": 6004,
      "real people ": 6005,
      "real life ": 6006,
      "straw": 6007,
      "straight ": 6008,
      "at the end": 6009,
      "at the end ": 6010,
      "I was very ": 6011,
      "ase in point": 6012,
      "gets the ": 6013,
      "subplot": 6014,
      "subplots ": 6015,
      "girl was the ": 6016,
      "love interest": 6017,
      "appears ": 6018,
      "appears to ": 6019,
      "appearance ": 6020,
      "performance": 6021,
      ", this is a pretty good ": 6022,
      "Carl": 6023,
      "Carri": 6024,
      "Carlit": 6025,
      "Carlt": 6026,
      "achel ": 6027,
      "costum": 6028,
      "coaster ": 6029,
      "duce ": 6030,
      "duct": 6031,
      "he's the ": 6032,
      "prime ": 6033,
      "priest": 6034,
      "well-": 6035,
      ". Mean": 6036,
      "reality ": 6037,
      "realism": 6038,
      "while you're ": 6039,
      "sequel": 6040,
      "sequel ": 6041,
      "may be ": 6042,
      ". It's also ": 6043,
      "ed, we ": 6044,
      "again, ": 6045,
      "goes to ": 6046,
      "goes off ": 6047,
      "self-": 6048,
      "anything remotely ": 6049,
      "It is ": 6050,
      "cry ": 6051,
      "cris": 6052,
      "crooked ": 6053,
      "calls ": 6054,
      "got a ": 6055,
      "humour": 6056,
      "port ": 6057,
      "portion": 6058,
      "portion ": 6059,
      "sort ": 6060,
      "sorry ": 6061,
      "ty Py": 6062,
      "als a tough ": 6063,
      "he is in ": 6064,
      "without any ": 6065,
      "compan": 6066,
      "compare ": 6067,
      "compelling ": 6068,
      "decided to ": 6069,
      "take on the ": 6070,
      "look on his ": 6071,
      "if you haven't ": 6072,
      "each other ": 6073,
      "screen time and ": 6074,
      "reason for ": 6075,
      "type ": 6076,
      "typical ": 6077,
      "believable ": 6078,
      "between the ": 6079,
      "between th": 6080,
      "T & ": 6081,
      "back of the ": 6082,
      "back to the ": 6083,
      "go for some ": 6084,
      "help": 6085,
      "helps ": 6086,
      "ll, ": 6087,
      "llll": 6088,
      "oh, I ": 6089,
      "smile ": 6090,
      "s are so ": 6091,
      "another year": 6092,
      "ing thing ": 6093,
      "ing there ": 6094,
      "ing these ": 6095,
      "began playing ": 6096,
      "planet ": 6097,
      "actors are ": 6098,
      "s, but the ": 6099,
      "contemp": 6100,
      "feeling": 6101,
      "video": 6102,
      "produced ": 6103,
      "production ": 6104,
      "scenes that ": 6105,
      "ish it. The ": 6106,
      "understand": 6107,
      "understated ": 6108,
      "b your ": 6109,
      "basic ": 6110,
      "basically ": 6111,
      "count": 6112,
      "count ": 6113,
      "ficial ": 6114,
      "fictional ": 6115,
      "local ": 6116,
      "locks ": 6117,
      "locals ": 6118,
      "local theat": 6119,
      "use the ": 6120,
      "use of ": 6121,
      "want to see ": 6122,
      "thinking ": 6123,
      "there is a ": 6124,
      "on-Brown": 6125,
      "always thought ": 6126,
      "itude": 6127,
      "who the ": 6128,
      "why not ": 6129,
      "places": 6130,
      ".<br /><br />An": 6131,
      "side of ": 6132,
      "audience": 6133,
      "expected ": 6134,
      "sci-fi": 6135,
      "scientific ": 6136,
      "intention": 6137,
      "particular ": 6138,
      "particip": 6139,
      "like those ": 6140,
      ". There are some ": 6141,
      "imagination": 6142,
      "imaginary ": 6143,
      "graphic": 6144,
      "CRY THE ": 6145,
      "2 equ": 6146,
      "breed": 6147,
      "break": 6148,
      "ble, ": 6149,
      "blew me ": 6150,
      "dummy ": 6151,
      "down and ": 6152,
      "eaten ": 6153,
      "kids ": 6154,
      "must see": 6155,
      "roles": 6156,
      "s.<br /><br />My ": 6157,
      "spoil": 6158,
      "s. The only ": 6159,
      "say I was ": 6160,
      "ten day": 6161,
      "trial": 6162,
      "trip ": 6163,
      "tries to ": 6164,
      "tells ": 6165,
      "tell the ": 6166,
      "ysis ": 6167,
      "themselves ": 6168,
      "read a ": 6169,
      "ically un": 6170,
      "budget": 6171,
      "experiment": 6172,
      "international ": 6173,
      ". I'd ": 6174,
      ". Inst": 6175,
      "ear 2: ": 6176,
      "convey ": 6177,
      "convicts ": 6178,
      "violence, ": 6179,
      "looking for the ": 6180,
      "looking for a ": 6181,
      "new anim": 6182,
      ". He is ": 6183,
      "I'm doing ": 6184,
      "woman has disappear": 6185,
      " think this ": 6186,
      "problems ": 6187,
      "Morty ": 6188,
      "Morty, ": 6189,
      "Morty-": 6190,
      "Park": 6191,
      "Shut": 6192,
      "Sheriff ": 6193,
      "Sharp": 6194,
      "crap": 6195,
      "drives home ": 6196,
      "hilarity ": 6197,
      "nery ": 6198,
      "school": 6199,
      "winsome ": 6200,
      "incess ": 6201,
      "enjoyable ": 6202,
      ", so I ": 6203,
      "a vampire": 6204,
      "stuff": 6205,
      "studio ": 6206,
      "style, ": 6207,
      "maybe it's ": 6208,
      "univers": 6209,
      "universe ": 6210,
      "let me ": 6211,
      "point of ": 6212,
      "apparent": 6213,
      "apparent ": 6214,
      "concept of ": 6215,
      "s. I will ": 6216,
      "mind-": 6217,
      "mindless ": 6218,
      "given the ": 6219,
      "big Hollywood ": 6220,
      "people's ": 6221,
      "I've seen": 6222,
      "possibl": 6223,
      "possible ": 6224,
      "worldwide ": 6225,
      "funny. ": 6226,
      "CRY FREEDOM ": 6227,
      "closets, ": 6228,
      "husband who ": 6229,
      "several people ": 6230,
      "several times": 6231,
      "Souther": 6232,
      "Union ": 6233,
      "catch ": 6234,
      "catcher ": 6235,
      "care for ": 6236,
      "how the ": 6237,
      "myself ": 6238,
      "mystery": 6239,
      "publisher ": 6240,
      "penis": 6241,
      "painfully ": 6242,
      "sket": 6243,
      "ers' ": 6244,
      ", who helped ": 6245,
      "releas": 6246,
      "e, but no movie has ": 6247,
      "again and ": 6248,
      "part of this movie ": 6249,
      "perfect ": 6250,
      "spirit": 6251,
      "ockta": 6252,
      "more than just ": 6253,
      "watching this movie ": 6254,
      "find out ": 6255,
      "heroes ": 6256,
      "heroism": 6257,
      "played N": 6258,
      "fun to watch ": 6259,
      "generation ": 6260,
      "video gam": 6261,
      "video tap": 6262,
      "especially the ": 6263,
      "\"Shades": 6264,
      "\", which ": 6265,
      "Antoine": 6266,
      "Brid": 6267,
      "Like ": 6268,
      "OVER": 6269,
      "Robin ": 6270,
      "Robot": 6271,
      "Sean Con": 6272,
      "camer": 6273,
      "establ": 6274,
      "freakin": 6275,
      "last criticism ": 6276,
      "longer ": 6277,
      "military ": 6278,
      "moves ": 6279,
      "night club ": 6280,
      "picture": 6281,
      "sniff": 6282,
      "warm and win": 6283,
      "insight ": 6284,
      ", Bur": 6285,
      ", unless ": 6286,
      "recent ": 6287,
      "recep": 6288,
      "as he gets ": 6289,
      "ity, but ": 6290,
      "plot, ": 6291,
      "until the ": 6292,
      "lightening ": 6293,
      "lead to a ": 6294,
      "leaving ": 6295,
      "dialogue, ": 6296,
      "shotgun": 6297,
      ".<br /><br />So the ": 6298,
      ".<br /><br />There ": 6299,
      ".<br /><br />That's ": 6300,
      ".<br /><br />There are ": 6301,
      "for this": 6302,
      "politician ": 6303,
      "black major": 6304,
      "black and whit": 6305,
      "alien's ": 6306,
      ". However, it's ": 6307,
      "except for ": 6308,
      "women looked ": 6309,
      "youngest ": 6310,
      "Grant Grant ": 6311,
      "effects": 6312,
      "between Pauline and ": 6313,
      "particularly ": 6314,
      "school to ": 6315,
      "Black ": 6316,
      "Blach": 6317,
      "Claire ": 6318,
      "Dee ": 6319,
      "Dead": 6320,
      "Films ": 6321,
      "Ironside ": 6322,
      "Moon": 6323,
      "Most ": 6324,
      "adise": 6325,
      "average ": 6326,
      "backgr": 6327,
      "double cros": 6328,
      "pull": 6329,
      "twig": 6330,
      "wished ": 6331,
      ". Loo": 6332,
      ". Let's ": 6333,
      ". Profiler ": 6334,
      "seem a bit ": 6335,
      "distribu": 6336,
      "his father's ": 6337,
      ".<br /><br />What ": 6338,
      "example ": 6339,
      "expression ": 6340,
      "expression": 6341,
      "expressed ": 6342,
      "intelligence ": 6343,
      "tions into ": 6344,
      "filmmaker": 6345,
      "filmmakers ": 6346,
      "guys ": 6347,
      "surely ": 6348,
      "meaning": 6349,
      "direction": 6350,
      "disappointing ": 6351,
      "disappointed": 6352,
      "strange ": 6353,
      "director's ": 6354,
      "a little bit ": 6355,
      "a little bit of ": 6356,
      "throughout and ": 6357,
      "French-": 6358,
      "true story ": 6359,
      "housewife ": 6360,
      "plane crash ": 6361,
      ". I'm still trying to ": 6362,
      "following ": 6363,
      "South Afric": 6364,
      "South African ": 6365,
      "powerful ": 6366,
      "children, ": 6367,
      "\"Fearful ": 6368,
      "\"Fear 2: ": 6369,
      ".. i ": 6370,
      "2003": 6371,
      "8 1/": 6372,
      "Benson": 6373,
      "Benjam": 6374,
      "Eyes Wide ": 6375,
      "McLag": 6376,
      "Not that you ": 6377,
      "Room ": 6378,
      "Space ": 6379,
      "Sidney Young": 6380,
      "Wayans ": 6381,
      "axton ": 6382,
      "brother": 6383,
      "drew ": 6384,
      "daddy, ": 6385,
      "fan of ": 6386,
      "fairy ": 6387,
      "fairly ": 6388,
      "hungr": 6389,
      "hotel ": 6390,
      "picion": 6391,
      "swimming ": 6392,
      "s. As ": 6393,
      "susp": 6394,
      "suspect": 6395,
      "suspicion": 6396,
      "satisf": 6397,
      "team ": 6398,
      "um and ": 6399,
      "those who ": 6400,
      "indulg": 6401,
      "innoc": 6402,
      "indeed ": 6403,
      "indeed": 6404,
      "annoying ": 6405,
      "annoying": 6406,
      ", it just ": 6407,
      "a great family ": 6408,
      "regular ": 6409,
      "revolu": 6410,
      "stupid": 6411,
      "of her husband": 6412,
      "of course ": 6413,
      "while": 6414,
      "while, ": 6415,
      "I would have ": 6416,
      "listening ": 6417,
      "yourself": 6418,
      "absolute ": 6419,
      "emotion ": 6420,
      "emotionally ": 6421,
      "formul": 6422,
      "fortunately": 6423,
      "signation": 6424,
      "opening credit": 6425,
      "close friend": 6426,
      "needs ": 6427,
      "when it comes to ": 6428,
      "when she finds ": 6429,
      "anyone could ": 6430,
      "obviously ": 6431,
      "if the writ": 6432,
      "surviv": 6433,
      "survive ": 6434,
      "survivor": 6435,
      "descrip": 6436,
      "describe ": 6437,
      "described ": 6438,
      "high school ": 6439,
      "weeks ": 6440,
      "turns out ": 6441,
      "Chinese, ": 6442,
      "ING ": 6443,
      "experienc": 6444,
      "experience": 6445,
      "focus on the ": 6446,
      "moments. The ": 6447,
      "Matthau ": 6448,
      "Matthau and ": 6449,
      "fantasi": 6450,
      "ridiculous ": 6451,
      "\"bad\" ": 6452,
      "(or maybe ": 6453,
      ".)<br /><br />The ": 6454,
      "Colum": 6455,
      "Greg Kinn": 6456,
      "It: ": 6457,
      "Louis ": 6458,
      "MM ": 6459,
      "Mrs. ": 6460,
      "Mr. Wiz": 6461,
      "Mars ": 6462,
      "March": 6463,
      "One of the ": 6464,
      "Ramones ": 6465,
      "Rambo ": 6466,
      "climax ": 6467,
      "daughter ": 6468,
      "fans of the ": 6469,
      "glossed ": 6470,
      "patient ": 6471,
      "patients ": 6472,
      "ugly": 6473,
      "vampire ": 6474,
      "wait": 6475,
      "third act": 6476,
      "initi": 6477,
      "animation ": 6478,
      " that, ": 6479,
      "ensen and ": 6480,
      ", with no ": 6481,
      "respond ": 6482,
      "responsi": 6483,
      "reminiscent ": 6484,
      "reminds me ": 6485,
      "as an episode of ": 6486,
      "the same as the ": 6487,
      "es his wife ": 6488,
      "whether": 6489,
      "when they ": 6490,
      "beyond the ": 6491,
      "plant, ": 6492,
      "I don't know": 6493,
      "I found the ": 6494,
      "mass ": 6495,
      "river ": 6496,
      "river and ": 6497,
      "she's still ": 6498,
      "form of humor": 6499,
      "destro": 6500,
      "detail ": 6501,
      "details ": 6502,
      "robbed": 6503,
      "one of them ": 6504,
      "tttttttt": 6505,
      "confrontation ": 6506,
      "ultimate ": 6507,
      "ultimately ": 6508,
      "transp": 6509,
      "prefer ": 6510,
      "ummm": 6511,
      "? Did ": 6512,
      "? What ": 6513,
      "newsp": 6514,
      "gives the ": 6515,
      "mediocre": 6516,
      "ity of the proceed": 6517,
      "figure": 6518,
      "boys ": 6519,
      "avoid ": 6520,
      "avoided ": 6521,
      "a series of ": 6522,
      "I'd watch ": 6523,
      "exception of ": 6524,
      "horrid ": 6525,
      "special effects": 6526,
      " thinking skill": 6527,
      "!!!!!!!!": 6528,
      "girlfriend's ": 6529,
      "reasonably ": 6530,
      "simplic": 6531,
      "simple. ": 6532,
      "married ": 6533,
      "men are all ": 6534,
      "1950's ": 6535,
      "performances": 6536,
      "small children": 6537,
      "humans ": 6538,
      "corny ": 6539,
      "painful to watch": 6540,
      "a lot of fun ": 6541,
      "children's ": 6542,
      "soundtrack by ": 6543,
      "television": 6544,
      "incredibly ": 6545,
      "a small town ": 6546,
      "Melting Man ": 6547,
      "Barbara ": 6548,
      "Burn": 6549,
      "Emmenthal ": 6550,
      "New York ": 6551,
      "Sellers' ": 6552,
      "US-": 6553,
      "bits and ": 6554,
      "car sequenc": 6555,
      "cooking, cle": 6556,
      "fascin": 6557,
      "fashioned ": 6558,
      "future ": 6559,
      "future": 6560,
      "fourth": 6561,
      "ignor": 6562,
      "jump into the ": 6563,
      "judge ": 6564,
      "less, ": 6565,
      "mistak": 6566,
      "normally": 6567,
      "number of ": 6568,
      "switch": 6569,
      "sittings actually to fin": 6570,
      "s. And two of the ": 6571,
      "tongu": 6572,
      "tell it ": 6573,
      "s or even ": 6574,
      "infidelity, ": 6575,
      " three dimensional ": 6576,
      "steps ": 6577,
      "student": 6578,
      "why the Emmenthal ": 6579,
      "he gets out of ": 6580,
      "in many ways ": 6581,
      "bearing ": 6582,
      "before, but no movie has ": 6583,
      "aspect ": 6584,
      "abandon": 6585,
      "sheer ": 6586,
      ".<br /><br />Nothing ": 6587,
      "deadly": 6588,
      "rocodile ": 6589,
      "tion of the dentist": 6590,
      ". As it ": 6591,
      ". All in all, ": 6592,
      "confesses that ": 6593,
      "impression": 6594,
      "parody": 6595,
      "clawing at ": 6596,
      "s. Whereas ": 6597,
      "suggest ": 6598,
      "suggestive ": 6599,
      ". There's the ": 6600,
      "knife figh": 6601,
      "if you're a ": 6602,
      "me to sleep ": 6603,
      "hero and hero": 6604,
      "gressi": 6605,
      "gresses ": 6606,
      "frighten": 6607,
      "frightening ": 6608,
      "noticed ": 6609,
      "flashback": 6610,
      "character development ": 6611,
      "character development": 6612,
      "This movie was ": 6613,
      "one? or two": 6614,
      "slow and ": 6615,
      "supposedly Japanese ": 6616,
      "genius ": 6617,
      "surprisingly ": 6618,
      "surprise that ": 6619,
      "team, ": 6620,
      "reading the book": 6621,
      "men were sexually ": 6622,
      "men were caricature": 6623,
      "travels to ": 6624,
      ". On the ": 6625,
      "chooses to ": 6626,
      "Americans ": 6627,
      "spoke stilt": 6628,
      "crazy ": 6629,
      "nature of ": 6630,
      "choice: ": 6631,
      "half the ": 6632,
      "half of the ": 6633,
      "figure out why the Emmenthal ": 6634,
      "doubt ": 6635,
      "greatest inner": 6636,
      "a heart trans": 6637,
      "lady who ": 6638,
      "revenge": 6639,
      "revenge ": 6640,
      "weekend ": 6641,
      "Chinese accents": 6642,
      "Gaillardi": 6643,
      "Gaillardian ": 6644,
      "narration was ": 6645,
      "frustrations into ": 6646,
      "Asimov's ": 6647,
      "lawyer ": 6648,
      "no mention of how he ": 6649,
      "\"Hero": 6650,
      "*The Secret Li": 6651,
      "ARE ": 6652,
      "Dark Sha": 6653,
      "Eddie ": 6654,
      "Fillion and ": 6655,
      "GHT ": 6656,
      "Gus Van ": 6657,
      "Hope Dav": 6658,
      "Halloween": 6659,
      "IMDb ": 6660,
      "If you ": 6661,
      "I thought it was ": 6662,
      "Jon F": 6663,
      "Murph": 6664,
      "Nelson ": 6665,
      "OK, ": 6666,
      "Prime ": 6667,
      "Symme": 6668,
      "Sandler ": 6669,
      "Simpson": 6670,
      "With ": 6671,
      "Woody Al": 6672,
      "William ": 6673,
      "afraid": 6674,
      "besid": 6675,
      "censor": 6676,
      "domes": 6677,
      "damn": 6678,
      "deliver": 6679,
      "four times": 6680,
      "fear of ": 6681,
      "gle B": 6682,
      "hold your ": 6683,
      "ject": 6684,
      "justice ": 6685,
      "killed": 6686,
      "level": 6687,
      "ladies, ": 6688,
      "night, ": 6689,
      "paid ": 6690,
      "routine ": 6691,
      "soothe the ": 6692,
      "societ": 6693,
      "venture": 6694,
      "witness": 6695,
      "inane ": 6696,
      "inatra": 6697,
      "individ": 6698,
      "industr": 6699,
      ". Very ": 6700,
      ". 10 minus ": 6701,
      "artistic ": 6702,
      "resembl": 6703,
      "respect ": 6704,
      "tized ": 6705,
      "to a hosp": 6706,
      "chased by ": 6707,
      "at this point": 6708,
      "separate ": 6709,
      "security ": 6710,
      "ice, so it took ": 6711,
      "I can't even ": 6712,
      "was bad. Women ": 6713,
      "should, ": 6714,
      "amateur": 6715,
      "foreign ": 6716,
      "deals with a ": 6717,
      "today.": 6718,
      "extent ": 6719,
      "extra ": 6720,
      "her father ": 6721,
      "- -no ": 6722,
      "contains a ": 6723,
      "pregnant ": 6724,
      "uses the F": 6725,
      "The Intruder ": 6726,
      "managed to ": 6727,
      "parade of ": 6728,
      "taking his ": 6729,
      "all \"bad\"": 6730,
      "propag": 6731,
      "protagon": 6732,
      "guilty ": 6733,
      "other reviews ": 6734,
      "successful": 6735,
      "aware that ": 6736,
      "had a house": 6737,
      "fifty ": 6738,
      "would have been better ": 6739,
      ". This is the kind of ": 6740,
      "photograph": 6741,
      "solid ": 6742,
      "seems to me ": 6743,
      "Steve Irwin ": 6744,
      "superficial ": 6745,
      "history, and ": 6746,
      "emphasiz": 6747,
      "complicated ": 6748,
      "invisible ": 6749,
      "you've seen ": 6750,
      "traumatized ": 6751,
      "over and over ": 6752,
      "drink ": 6753,
      "drama ": 6754,
      ". First of all": 6755,
      "guy in the employment ": 6756,
      "system": 6757,
      "cinematic ": 6758,
      "based on the ": 6759,
      ".<br /><br />And the ": 6760,
      "2 hours of ": 6761,
      "Movies have put ": 6762,
      "curios": 6763,
      "roller-coaster ": 6764,
      "street and ": 6765,
      "naturally ": 6766,
      "soldier": 6767,
      "authentic": 6768,
      "Connolly ": 6769,
      "OVED COUN": 6770,
      "insistence ": 6771,
      "dialog, ": 6772,
      "dialog was bad. Women ": 6773,
      ". If you ask ": 6774,
      "effects are ": 6775,
      "cinematography ": 6776,
      "left me ": 6777,
      "McAdams ": 6778,
      "central ": 6779,
      "obvious she ": 6780,
      "Christensen and ": 6781,
      "Christopher's ": 6782,
      "ridiculously bad ": 6783,
      "Bill Paxton ": 6784,
      "cliché ": 6785,
      "purpose ": 6786,
      "vampyre ": 6787,
      "I give this movie a rating of ": 6788,
      "Red Eye ": 6789,
      "circumstances ": 6790,
      "wrapped up with each other": 6791,
      "perpetual motion machine ": 6792,
      "Dreamcatcher ": 6793,
      "Neil Simon's ": 6794,
      "Soprano": 6795,
      "ard of Oz": 6796,
      "Thunderbol": 6797,
      "\"so bad it's good": 6798,
      "'Fido' ": 6799,
      "About It: ": 6800,
      "Bouvier ": 6801,
      "Belgi": 6802,
      "By the time ": 6803,
      "Bruce ": 6804,
      "Beale,": 6805,
      "BELOVED COUN": 6806,
      "Can't ": 6807,
      "Callah": 6808,
      "Cinderella ": 6809,
      "Chase's ": 6810,
      "Davi": 6811,
      "Do I give this movie a rating of ": 6812,
      "Erika ": 6813,
      "Edie' ": 6814,
      "Falco ": 6815,
      "Gertrude Michael ": 6816,
      "Gunn ": 6817,
      "Gandolfin": 6818,
      "Gestapo ": 6819,
      "Harding ": 6820,
      "Home Room ": 6821,
      "HINE BOY": 6822,
      "Imper": 6823,
      "Julie ": 6824,
      "Jungle B": 6825,
      "Jennif": 6826,
      "Kubrick": 6827,
      "Kissinger": 6828,
      "Missouri": 6829,
      "MANDEL": 6830,
      "NSHINE BOY": 6831,
      "Okay": 6832,
      "Olsen ": 6833,
      "Oscar ": 6834,
      "Office ": 6835,
      "Peter ": 6836,
      "PJ Sol": 6837,
      "Rawlin": 6838,
      "Rourke ": 6839,
      "Rancid Al": 6840,
      "SUNSHINE BOY": 6841,
      "Scott": 6842,
      "Vittorio": 6843,
      "a**hol": 6844,
      "bitter ": 6845,
      "bazook": 6846,
      "cancel": 6847,
      "dunno": 6848,
      "eerie ": 6849,
      "effici": 6850,
      "flir": 6851,
      "gonna be ": 6852,
      "ichard ": 6853,
      "mouth": 6854,
      "multi": 6855,
      "matter ": 6856,
      "nominated ": 6857,
      "treasure ": 6858,
      "vaudev": 6859,
      "wiss bor": 6860,
      "woods ": 6861,
      "inspire": 6862,
      "institut": 6863,
      "include ": 6864,
      "inexplicab": 6865,
      "d Stra": 6866,
      "erry-Thomas ": 6867,
      "analysis ": 6868,
      "enormous ": 6869,
      ", partly because it's ": 6870,
      "is one of those ": 6871,
      "is always the sam": 6872,
      "a world of ": 6873,
      "a completely new ": 6874,
      "record ": 6875,
      "reconcili": 6876,
      "reference ": 6877,
      "to warn ": 6878,
      "to Monty Py": 6879,
      "to speak of": 6880,
      "stomach ": 6881,
      "stellar": 6882,
      "sterious ": 6883,
      "chose to ": 6884,
      "at Miami Air": 6885,
      "elessness ": 6886,
      "ellectual ": 6887,
      "in convers": 6888,
      "in spite of ": 6889,
      "an okay ": 6890,
      "behavior": 6891,
      "bewilder": 6892,
      "it deserves ": 6893,
      "I caught this ": 6894,
      "die-hard ": 6895,
      "embarrass": 6896,
      "that twice, so it took ": 6897,
      "raps were ": 6898,
      "detective ": 6899,
      "to think that ": 6900,
      "robotic ": 6901,
      "with clearly Chinese accents": 6902,
      "exposure ": 6903,
      "execut": 6904,
      "explanation ": 6905,
      "edly and the men were caricature": 6906,
      "construc": 6907,
      "motivation": 6908,
      ") Their ": 6909,
      "previous ": 6910,
      "has already been ": 6911,
      "usy Philipp": 6912,
      "some tranquiliz": 6913,
      "claim ": 6914,
      "very memorable, and ": 6915,
      "ever done that twice, so it took ": 6916,
      "had Chinese names and spoke ": 6917,
      "knocked off ": 6918,
      ". It almost seems like ": 6919,
      "e and derivative ": 6920,
      "able chemistr": 6921,
      "me three sittings actually to fin": 6922,
      "a healthy ": 6923,
      "available ": 6924,
      "disjoint": 6925,
      "strength": 6926,
      "could possibly be ": 6927,
      "s the movie progresses ": 6928,
      "kindly old ": 6929,
      "pixelated": 6930,
      "ves of Dentists* ": 6931,
      "rubbish": 6932,
      "in a dark room ": 6933,
      ".<br /><br />The supporting cast ": 6934,
      "surrounded by ": 6935,
      "does break ": 6936,
      "Alison Olsen ": 6937,
      "men kill each other": 6938,
      "om Robbin": 6939,
      "pretty average and derivative ": 6940,
      "REALLY ": 6941,
      ". Director ": 6942,
      "Carlton-Brown": 6943,
      "als a tough choice: ": 6944,
      "ish it. The dialog was bad. Women ": 6945,
      "local theater": 6946,
      "CRY THE BELOVED COUN": 6947,
      "2 equals a tough choice: ": 6948,
      "new animated ": 6949,
      "woman has disappeared and ": 6950,
      "part of this movie is the ": 6951,
      "Sean Connery ": 6952,
      "warm and winning ": 6953,
      "black majority rule ": 6954,
      "women looked Chinese, ": 6955,
      "his father's tombstone ": 6956,
      ". I'm still trying to figure out why the Emmenthal ": 6957,
      "\"Fearful Symme": 6958,
      "8 1/2 equals a tough choice: ": 6959,
      "Eyes Wide Shut": 6960,
      "McLaglen ": 6961,
      "revolution": 6962,
      "Greg Kinnear ": 6963,
      "reminiscent of the ": 6964,
      "Barbara Ste": 6965,
      "New York City, ": 6966,
      "cooking, cleaning, ": 6967,
      "s. And two of the supposedly Japanese ": 6968,
      "before, but no movie has ever done that twice, so it took ": 6969,
      "clawing at your own face ": 6970,
      "me to sleep before, but no movie has ever done that twice, so it took ": 6971,
      "men were sexually wrapped up with each other": 6972,
      "spoke stiltedly and the men were caricature": 6973,
      "greatest innermost ": 6974,
      "*The Secret Lives of Dentists* ": 6975,
      "Dark Shad": 6976,
      "Gus Van Sant ": 6977,
      "Hope Davis ": 6978,
      ". 10 minus 8 1/2 equals a tough choice: ": 6979,
      "guy in the employment agenc": 6980,
      "Movies have put me to sleep before, but no movie has ever done that twice, so it took ": 6981,
      "Do I give this movie a rating of one? or two": 6982,
      "Rancid Alumini": 6983,
      "SUNSHINE BOYS ": 6984,
      "wiss border ": 6985,
      "to Monty Python": 6986,
      "with clearly Chinese accents. I'm still trying to figure out why the Emmenthal ": 6987,
      "had Chinese names and spoke with clearly Chinese accents. I'm still trying to figure out why the Emmenthal ": 6988,
      "me three sittings actually to finish it. The dialog was bad. Women ": 6989,
      "Carlton-Browne of the ": 6990,
      "CRY THE BELOVED COUNTRY": 6991,
      "women looked Chinese, had Chinese names and spoke with clearly Chinese accents. I'm still trying to figure out why the Emmenthal ": 6992,
      "\"Fearful Symmetry": 6993,
      "s. And two of the supposedly Japanese women looked Chinese, had Chinese names and spoke with clearly Chinese accents. I'm still trying to figure out why the Emmenthal ": 6994,
      "men were sexually wrapped up with each other. 10 minus 8 1/2 equals a tough choice: ": 6995,
      "spoke stiltedly and the men were caricatures. And two of the supposedly Japanese women looked Chinese, had Chinese names and spoke with clearly Chinese accents. I'm still trying to figure out why the Emmenthal ": 6996,
      "Movies have put me to sleep before, but no movie has ever done that twice, so it took me three sittings actually to finish it. The dialog was bad. Women ": 6997,
      "men were sexually wrapped up with each other. 10 minus 8 1/2 equals a tough choice: Do I give this movie a rating of one? or two": 6998,
      "spoke stiltedly and the men were caricatures. And two of the supposedly Japanese women looked Chinese, had Chinese names and spoke with clearly Chinese accents. I'm still trying to figure out why the Emmenthal men were sexually wrapped up with each other. 10 minus 8 1/2 equals a tough choice: Do I give this movie a rating of one? or two": 6999,
      "Movies have put me to sleep before, but no movie has ever done that twice, so it took me three sittings actually to finish it. The dialog was bad. Women spoke stiltedly and the men were caricatures. And two of the supposedly Japanese women looked Chinese, had Chinese names and spoke with clearly Chinese accents. I'm still trying to figure out why the Emmenthal men were sexually wrapped up with each other. 10 minus 8 1/2 equals a tough choice: Do I give this movie a rating of one? or two": 7000,
      " \"": 7001,
      " 2": 7002,
      " R": 7003,
      " V": 7004,
      " d": 7005,
      " to ": 7006,
      " of the ": 7007,
      " with ": 7008,
      " mak": 7009,
      " with the ": 7010,
      " is the ": 7011,
      " never ": 7012,
      " point": 7013,
      " kill": 7014,
      " makes ": 7015,
      " as a ": 7016,
      " I was ": 7017,
      " TV": 7018,
      " if you ": 7019,
      " uni": 7020,
      " Adele ": 7021,
      " 10 ": 7022,
      " long ": 7023,
      " (the ": 7024,
      " seas": 7025,
      " science fiction ": 7026,
      " CH": 7027,
      " aren't ": 7028,
      " shot ": 7029,
      " better than ": 7030,
      " channel": 7031,
      " wro": 7032,
      " BOY": 7033,
      " action sequences": 7034,
      " your own face ": 7035,
      " witch": 7036,
      " more": 7037,
      " OVER": 7038,
      " Benson": 7039,
      " brother": 7040,
      " indeed": 7041,
      "!<br /><br />": 7042,
      "!) and ": 7043,
      "!\", ": 7044,
      "!)<br /><br />": 7045,
      "!\" and ": 7046,
      "\")": 7047,
      "\"J": 7048,
      "\"M": 7049,
      "\"T": 7050,
      "\"U": 7051,
      "\"Y": 7052,
      "\"g": 7053,
      "\". ": 7054,
      "\"a ": 7055,
      "\"re": 7056,
      "\"the ": 7057,
      "\", and ": 7058,
      "\") ": 7059,
      "\"cl": 7060,
      "\", the ": 7061,
      "\"loo": 7062,
      "\"what ": 7063,
      "\"some": 7064,
      "\"get ": 7065,
      "\"your ": 7066,
      "\"a s": 7067,
      "\"This ": 7068,
      "\"character": 7069,
      "\"mis": 7070,
      "\"come ": 7071,
      "\"comed": 7072,
      "\"well": 7073,
      "\"anything ": 7074,
      "\"can't ": 7075,
      "\"cont": 7076,
      "\".<br /><br />A": 7077,
      "\"stop": 7078,
      "\"action": 7079,
      "\"let ": 7080,
      "\"hero": 7081,
      "\"fre": 7082,
      "\"shot": 7083,
      "\"And ": 7084,
      "\"dre": 7085,
      "\"tel": 7086,
      "\"space ": 7087,
      "\"lou": 7088,
      "\"sex ": 7089,
      "\"guess ": 7090,
      "\"when you ": 7091,
      "\"---": 7092,
      "\"Even ": 7093,
      "\"; and ": 7094,
      "\"Zombi": 7095,
      "\"sav": 7096,
      "\"woun": 7097,
      "\"indi": 7098,
      "\" them": 7099,
      "\". Un": 7100,
      "\", and then ": 7101,
      "\". I won't ": 7102,
      "\". She ": 7103,
      "\"oh ": 7104,
      "\"music": 7105,
      "\"Thunderb": 7106,
      "\"20 ": 7107,
      "\"Pre": 7108,
      "\"design": 7109,
      "\"chestbur": 7110,
      "\"accid": 7111,
      "\". Doesn't ": 7112,
      "\"experiment": 7113,
      "\"men are all ": 7114,
      "\"killed": 7115,
      "\"invisible ": 7116,
      "\"Bill Paxton ": 7117,
      "\"Eyes Wide Shut": 7118,
      "\"Carlton-Browne of the ": 7119,
      "$15 ": 7120,
      "$29 ": 7121,
      "$ mak": 7122,
      "&a": 7123,
      "& the ": 7124,
      "& T": 7125,
      "'(": 7126,
      "'-": 7127,
      "'J": 7128,
      "'h": 7129,
      "' the ": 7130,
      "'un": 7131,
      "'m ": 7132,
      "'em": 7133,
      "', and ": 7134,
      "'we ": 7135,
      "'it's ": 7136,
      "'make ": 7137,
      "'do ": 7138,
      "'Al": 7139,
      "'ec": 7140,
      "'call": 7141,
      "'take ": 7142,
      "'t, ": 7143,
      "'You ": 7144,
      "'S ": 7145,
      "'. R": 7146,
      "'music ": 7147,
      "'Ex": 7148,
      "'Gre": 7149,
      "'t-": 7150,
      "'.<br /><br />But ": 7151,
      "'Intr": 7152,
      "'un ": 7153,
      "'. Well, ": 7154,
      "'sub-": 7155,
      "'Red Ey": 7156,
      "'Big ": 7157,
      "'Har": 7158,
      "'Little ": 7159,
      "'. Ev": 7160,
      "'why": 7161,
      "'s. As ": 7162,
      "(A": 7163,
      "(D": 7164,
      "(K": 7165,
      "(M": 7166,
      "(i": 7167,
      "(is ": 7168,
      "(on ": 7169,
      "(that ": 7170,
      "(but ": 7171,
      "(by ": 7172,
      "(more ": 7173,
      "(some": 7174,
      "(which ": 7175,
      "(also ": 7176,
      "(St": 7177,
      "(after ": 7178,
      "(bad": 7179,
      "(19": 7180,
      "(did ": 7181,
      "(he's ": 7182,
      "(their ": 7183,
      "(cont": 7184,
      "(Par": 7185,
      "(Sh": 7186,
      "(\"D": 7187,
      "(Se": 7188,
      "(as he ": 7189,
      "(Br": 7190,
      "(err": 7191,
      "(Sidney ": 7192,
      "(To": 7193,
      "(Tw": 7194,
      "(already ": 7195,
      "(whom ": 7196,
      "(Gre": 7197,
      "(One ": 7198,
      "(e.": 7199,
      "(whe": 7200,
      "(even the ": 7201,
      "(I don't ": 7202,
      "(I am ": 7203,
      "(!!!": 7204,
      "(though ": 7205,
      "(even more ": 7206,
      "(Denis ": 7207,
      "(Filli": 7208,
      "(Just ": 7209,
      "(call the ": 7210,
      "(mind ": 7211,
      "(if I ": 7212,
      "(green ": 7213,
      "(los": 7214,
      "(appropri": 7215,
      "(1) ": 7216,
      "(2) ": 7217,
      "(Eli": 7218,
      "(Fl": 7219,
      "(Philli": 7220,
      "(nic": 7221,
      "(if only ": 7222,
      "(Carri": 7223,
      "(if you haven't ": 7224,
      "(especially the ": 7225,
      "(shotgun": 7226,
      "(surely ": 7227,
      "(emotionally ": 7228,
      "(OK, ": 7229,
      "(I can't even ": 7230,
      "(inexplicab": 7231,
      "( \"": 7232,
      "(!) and ": 7233,
      "). ": 7234,
      ")? ": 7235,
      "). I ": 7236,
      "): ": 7237,
      "). This ": 7238,
      "). And ": 7239,
      "). W": 7240,
      "); ": 7241,
      "). <br /><br />": 7242,
      "), and the ": 7243,
      ") than ": 7244,
      "). M": 7245,
      ").<br /><br />Wh": 7246,
      "). C": 7247,
      "), then ": 7248,
      "), they ": 7249,
      "), but the ": 7250,
      "). So ": 7251,
      "). On": 7252,
      ").<br /><br />It ": 7253,
      ")with little ": 7254,
      "). Maybe ": 7255,
      ") though ": 7256,
      "*@": 7257,
      "*F": 7258,
      "*W": 7259,
      "*s": 7260,
      "*t": 7261,
      "*": 7262,
      "*, ": 7263,
      "* the ": 7264,
      "*and": 7265,
      "*...": 7266,
      "*lov": 7267,
      "*. And ": 7268,
      "*laugh": 7269,
      "*woul": 7270,
      "*this": 7271,
      "*Secret Li": 7272,
      "*Spo": 7273,
      "*alone": 7274,
      "*why": 7275,
      "*sniff": 7276,
      "*Eyes Wide Shut": 7277,
      ",w": 7278,
      ", this movie ": 7279,
      ",live ": 7280,
      ",it mostly ": 7281,
      ",(emotionally ": 7282,
      "-H": 7283,
      "-P": 7284,
      "-U": 7285,
      "-Z": 7286,
      "-b": 7287,
      "-j": 7288,
      "-r": 7289,
      "-s": 7290,
      "-ar": 7291,
      "-ti": 7292,
      "-it ": 7293,
      "-wi": 7294,
      "-un": 7295,
      "-li": 7296,
      "-you": 7297,
      "-as": 7298,
      "-out ": 7299,
      "-ed": 7300,
      "-so ": 7301,
      "-ough": 7302,
      "-mor": 7303,
      "-fe": 7304,
      "-up ": 7305,
      "-et": 7306,
      "-lin": 7307,
      "-ph": 7308,
      "-star": 7309,
      "-duc": 7310,
      "-ful": 7311,
      "-year": 7312,
      "-che": 7313,
      "-you'": 7314,
      "-low": 7315,
      "-life ": 7316,
      "-hum": 7317,
      "-sy": 7318,
      "-watch ": 7319,
      "-there ": 7320,
      "- they are ": 7321,
      "-them": 7322,
      "-lik": 7323,
      "-keep": 7324,
      "-better": 7325,
      "-my": 7326,
      "-ness ": 7327,
      "-Se": 7328,
      "-house ": 7329,
      "-Fil": 7330,
      "-movie. ": 7331,
      "-dist": 7332,
      "-room": 7333,
      "-strang": 7334,
      "-money ": 7335,
      "-AN": 7336,
      "-by": 7337,
      "-bra": 7338,
      "-less": 7339,
      "-alien ": 7340,
      "-British ": 7341,
      "-Luc": 7342,
      "-don": 7343,
      "-old": 7344,
      "-five ": 7345,
      "-miss": 7346,
      "-four": 7347,
      "-nor": 7348,
      "-inspir": 7349,
      "-horror": 7350,
      "-10.": 7351,
      "-Dad ": 7352,
      "-the-": 7353,
      "- there are ": 7354,
      "-quality ": 7355,
      "-box ": 7356,
      "-release": 7357,
      "-worthy ": 7358,
      "-out-": 7359,
      "-realism": 7360,
      "-hungr": 7361,
      "-revenge": 7362,
      ".4": 7363,
      ".A": 7364,
      ".O": 7365,
      ".com": 7366,
      ".e. ": 7367,
      ".**": 7368,
      ". they are ": 7369,
      ".2 ": 7370,
      ". these ": 7371,
      ".. If ": 7372,
      ".,\" ": 7373,
      ".it is a ": 7374,
      ".. I love ": 7375,
      ".'Big ": 7376,
      ".-them": 7377,
      "/V": 7378,
      "/re": 7379,
      "/her ": 7380,
      "/direct": 7381,
      "/action ": 7382,
      "/produc": 7383,
      "/gl": 7384,
      "/hol": 7385,
      "/or the ": 7386,
      "/director": 7387,
      "/funny ": 7388,
      "/writer ": 7389,
      "/assassin ": 7390,
      "/office ": 7391,
      "/entertainment ": 7392,
      "/employment ": 7393,
      "/Ser": 7394,
      "/the ali": 7395,
      "/mystery": 7396,
      "/detective ": 7397,
      "/ 10 ": 7398,
      "0s": 7399,
      "0...": 7400,
      "0 and ": 7401,
      "0's": 7402,
      "12": 7403,
      "13": 7404,
      "1. ": 7405,
      "12 ": 7406,
      "1, un": 7407,
      "28": 7408,
      "2f": 7409,
      "2. ": 7410,
      "2fu": 7411,
      "28 ": 7412,
      "23 ": 7413,
      "24 ": 7414,
      "2/10": 7415,
      "20s ": 7416,
      "21 ": 7417,
      "2, but this is ": 7418,
      "3. ": 7419,
      "3. I ": 7420,
      "300": 7421,
      "3/10": 7422,
      "3.2 ": 7423,
      "4.": 7424,
      "49": 7425,
      "56": 7426,
      "5's ": 7427,
      "5) ": 7428,
      "5th ": 7429,
      "5$ mak": 7430,
      "6 and ": 7431,
      "64 ": 7432,
      "60s ": 7433,
      "6+ ": 7434,
      "6 seas": 7435,
      "65's ": 7436,
      "77": 7437,
      "78": 7438,
      "7's ": 7439,
      "70s ": 7440,
      "85 ": 7441,
      "80's ": 7442,
      "87 ": 7443,
      "8/10": 7444,
      "86+ ": 7445,
      "87's ": 7446,
      "99, ": 7447,
      "90 minute ": 7448,
      "90's": 7449,
      ": th": 7450,
      ": that ": 7451,
      "; this ": 7452,
      "?, a ": 7453,
      "?\" and ": 7454,
      "?? H": 7455,
      "?? Wh": 7456,
      "?!!!": 7457,
      "@hot ": 7458,
      "AB": 7459,
      "AC": 7460,
      "AK": 7461,
      "AS": 7462,
      "Aa": 7463,
      "Aj": 7464,
      "Am": 7465,
      "Ap": 7466,
      "Au": 7467,
      "Av": 7468,
      "At ": 7469,
      "Al ": 7470,
      "Ash": 7471,
      "Asi": 7472,
      "Att": 7473,
      "Aqu": 7474,
      "Aft": 7475,
      "Are ": 7476,
      "A and ": 7477,
      "A.<br /><br />The ": 7478,
      "Age ": 7479,
      "A. N": 7480,
      "Agn": 7481,
      "AD ": 7482,
      "AIN": 7483,
      "Air ": 7484,
      "Alive ": 7485,
      "After ": 7486,
      "Asian ": 7487,
      "ATOR": 7488,
      "AFIN": 7489,
      "AHE": 7490,
      "Bac": 7491,
      "Bis": 7492,
      "BI ": 7493,
      "Bas": 7494,
      "Bab": 7495,
      "Ball": 7496,
      "Bad ": 7497,
      "Bay ": 7498,
      "But": 7499,
      "Bet": 7500,
      "Bever": 7501,
      "Bob": 7502,
      "Bak": 7503,
      "Beli": 7504,
      "Bec": 7505,
      "Bey": 7506,
      "Bry": 7507,
      "Bond ": 7508,
      "Bost": 7509,
      "Bart": 7510,
      "Banks ": 7511,
      "Berg": 7512,
      "Bond": 7513,
      "Bunn": 7514,
      "Bunch": 7515,
      "Blier, ": 7516,
      "Busy Philipp": 7517,
      "B-movie. ": 7518,
      "CC": 7519,
      "CU": 7520,
      "Cor": 7521,
      "Co ": 7522,
      "Cre": 7523,
      "Cow": 7524,
      "Cas": 7525,
      "Cle": 7526,
      "Cra": 7527,
      "Could ": 7528,
      "Cim": 7529,
      "Coun": 7530,
      "Clin": 7531,
      "Cain": 7532,
      "Cath": 7533,
      "Clo": 7534,
      "Cail": 7535,
      "City": 7536,
      "Case": 7537,
      "Cros": 7538,
      "Cind": 7539,
      "Cram": 7540,
      "Czar": 7541,
      "Cox": 7542,
      "Crow ": 7543,
      "Cuck": 7544,
      "Court ": 7545,
      "Case in point": 7546,
      "C TV": 7547,
      "Du": 7548,
      "De ": 7549,
      "Dan": 7550,
      "Dar": 7551,
      "Dat": 7552,
      "Dri": 7553,
      "Dir": 7554,
      "Day": 7555,
      "Dam": 7556,
      "Dem": 7557,
      "Dear": 7558,
      "Day ": 7559,
      "Daw": 7560,
      "Duc": 7561,
      "Don't ": 7562,
      "Dea": 7563,
      "Date ": 7564,
      "Danc": 7565,
      "Doh": 7566,
      "DS ": 7567,
      "Dire": 7568,
      "Darc": 7569,
      "Devil": 7570,
      "DING": 7571,
      "D!!!": 7572,
      "Dreading the ": 7573,
      "Darl": 7574,
      "Despite ": 7575,
      "Dalle": 7576,
      "Disney ": 7577,
      "Danny ": 7578,
      "EI": 7579,
      "ET": 7580,
      "Er": 7581,
      "Ear": 7582,
      "Eas": 7583,
      "Eur": 7584,
      "Every ": 7585,
      "E: ": 7586,
      "East ": 7587,
      "Edie ": 7588,
      "Emp": 7589,
      "FX": 7590,
      "Fre": 7591,
      "Fic": 7592,
      "Fle": 7593,
      "Fem": 7594,
      "Fra": 7595,
      "Fear": 7596,
      "Ful": 7597,
      "Fea": 7598,
      "F and ": 7599,
      "Feli": 7600,
      "Fire": 7601,
      "Funn": 7602,
      "FLE": 7603,
      "F indeed": 7604,
      "F.O": 7605,
      "FBI ": 7606,
      "GG": 7607,
      "Gw": 7608,
      "Go ": 7609,
      "Gar": 7610,
      "Gir": 7611,
      "Goth": 7612,
      "Get ": 7613,
      "Gold ": 7614,
      "GE ": 7615,
      "Gard": 7616,
      "Gaun": 7617,
      "GON": 7618,
      "Glad": 7619,
      "Gord": 7620,
      "Gate": 7621,
      "Giss": 7622,
      "Gold": 7623,
      "G-1": 7624,
      "GAIN": 7625,
      "HO": 7626,
      "HU": 7627,
      "Ha": 7628,
      "Hô": 7629,
      "Hen": 7630,
      "Hon": 7631,
      "His ": 7632,
      "Her ": 7633,
      "Hil": 7634,
      "Hit": 7635,
      "How": 7636,
      "Hun": 7637,
      "Hay": 7638,
      "How ": 7639,
      "Hap": 7640,
      "Haw": 7641,
      "Hill": 7642,
      "Hone": 7643,
      "Hold ": 7644,
      "Hard ": 7645,
      "Hoff": 7646,
      "Hick": 7647,
      "Hamp": 7648,
      "Hock": 7649,
      "Hern": 7650,
      "Herr": 7651,
      "HOU": 7652,
      "High ": 7653,
      "House": 7654,
      "Heav": 7655,
      "HAT ": 7656,
      "HHE": 7657,
      "Hein": 7658,
      "If": 7659,
      "Is": 7660,
      "II ": 7661,
      "Isl": 7662,
      "IE ": 7663,
      "Isa": 7664,
      "Ital": 7665,
      "IT ": 7666,
      "IS ": 7667,
      "ION": 7668,
      "Imp": 7669,
      "IMM": 7670,
      "Ipan": 7671,
      "Ian B": 7672,
      "Its a ": 7673,
      "ICK": 7674,
      "ILER": 7675,
      "I-don": 7676,
      "Jou": 7677,
      "Jar": 7678,
      "Jed ": 7679,
      "Jes": 7680,
      "Jas": 7681,
      "Jur": 7682,
      "Jay": 7683,
      "Jam": 7684,
      "Jack ": 7685,
      "Jour": 7686,
      "Jack": 7687,
      "Jef": 7688,
      "Jok": 7689,
      "Jean": 7690,
      "Jones": 7691,
      "Jessica ": 7692,
      "Jester": 7693,
      "Ke": 7694,
      "Kl": 7695,
      "Kan": 7696,
      "King": 7697,
      "Kar": 7698,
      "Kev": 7699,
      "Kli": 7700,
      "Kay": 7701,
      "Kid": 7702,
      "K. Th": 7703,
      "Kate ": 7704,
      "King, ": 7705,
      "Kati": 7706,
      "Kans": 7707,
      "Kern": 7708,
      "KING": 7709,
      "Knigh": 7710,
      "Kenn": 7711,
      "K'S": 7712,
      "KLER": 7713,
      "Krist": 7714,
      "Kitty ": 7715,
      "Lo": 7716,
      "Lor": 7717,
      "Lar": 7718,
      "Lal": 7719,
      "Lil": 7720,
      "Les": 7721,
      "Low": 7722,
      "Lis": 7723,
      "Las": 7724,
      "Loth": 7725,
      "Lim": 7726,
      "Loc": 7727,
      "Law": 7728,
      "Long ": 7729,
      "Let ": 7730,
      "Lif": 7731,
      "Liz": 7732,
      "Lord": 7733,
      "Lili": 7734,
      "Lond": 7735,
      "LOVED ": 7736,
      "LOS": 7737,
      "Laur": 7738,
      "Love ": 7739,
      "Leif ": 7740,
      "L BOY": 7741,
      "L'Intr": 7742,
      "MU": 7743,
      "Ms ": 7744,
      "Min": 7745,
      "Mal": 7746,
      "Mr ": 7747,
      "May": 7748,
      "Mad": 7749,
      "Mad ": 7750,
      "May ": 7751,
      "Moun": 7752,
      "Mme ": 7753,
      "Mang": 7754,
      "Mass": 7755,
      "Matt": 7756,
      "Mos": 7757,
      "Male ": 7758,
      "Mark ": 7759,
      "MOV": 7760,
      "Mart": 7761,
      "Mean": 7762,
      "Mini": 7763,
      "Men and ": 7764,
      "MST": 7765,
      "Mouse ": 7766,
      "Morgan ": 7767,
      "Music ": 7768,
      "Na": 7769,
      "No ": 7770,
      "Nar": 7771,
      "Nol": 7772,
      "Nay ": 7773,
      "ND ": 7774,
      "Non-": 7775,
      "None of ": 7776,
      "Native ": 7777,
      "Now, ": 7778,
      "North ": 7779,
      "Next ": 7780,
      "Nintend": 7781,
      "NAS": 7782,
      "OT": 7783,
      "Op": 7784,
      "Or": 7785,
      "Over": 7786,
      "Oper": 7787,
      "Oft": 7788,
      "Other": 7789,
      "Okan": 7790,
      "Oscar": 7791,
      "Outer ": 7792,
      "Our ": 7793,
      "On top ": 7794,
      "OILER": 7795,
      "Pu": 7796,
      "Pit": 7797,
      "Pac": 7798,
      "Pat": 7799,
      "Pul": 7800,
      "Pea": 7801,
      "Pav": 7802,
      "Piz": 7803,
      "Pict": 7804,
      "Psy": 7805,
      "P. C": 7806,
      "Palu": 7807,
      "Patch": 7808,
      "Police ": 7809,
      "Profiler ": 7810,
      "Paqu": 7811,
      "Pathetic": 7812,
      "P 2": 7813,
      "PG-1": 7814,
      "POILER": 7815,
      "Rh": 7816,
      "Ring": 7817,
      "Rel": 7818,
      "Res": 7819,
      "Rid": 7820,
      "Rut": 7821,
      "R. H": 7822,
      "Rud": 7823,
      "Rick ": 7824,
      "Real": 7825,
      "Right": 7826,
      "Rhon": 7827,
      "Riff ": 7828,
      "Rachel ": 7829,
      "Richard ": 7830,
      "R witch": 7831,
      "SW": 7832,
      "St ": 7833,
      "Sch": 7834,
      "Sli": 7835,
      "Sol": 7836,
      "Sur": 7837,
      "Sir": 7838,
      "Sag": 7839,
      "Str": 7840,
      "Sus": 7841,
      "Spar": 7842,
      "Sta": 7843,
      "Sne": 7844,
      "Sea": 7845,
      "Sno": 7846,
      "Sam ": 7847,
      "Some ": 7848,
      "S), ": 7849,
      "ST ": 7850,
      "Shu": 7851,
      "SHE ": 7852,
      "SAN": 7853,
      "Silly ": 7854,
      "Sir ": 7855,
      "Smi": 7856,
      "Sni": 7857,
      "S*** ": 7858,
      "SAR": 7859,
      "Sander": 7860,
      "Satur": 7861,
      "SOUN": 7862,
      "SIDE": 7863,
      "Sayers ": 7864,
      "Sinatra": 7865,
      "Swiss border ": 7866,
      "S!)<br /><br />": 7867,
      "S). I ": 7868,
      "S.A": 7869,
      "SAB": 7870,
      "SFX": 7871,
      "SICK": 7872,
      "SPOILER": 7873,
      "TW": 7874,
      "Ten": 7875,
      "Tor": 7876,
      "Tre": 7877,
      "Ten ": 7878,
      "Tur": 7879,
      "T.<br /><br />": 7880,
      "Tear": 7881,
      "Tot": 7882,
      "Tak": 7883,
      "Treas": 7884,
      "Temp": 7885,
      "Todd ": 7886,
      "Tues": 7887,
      "Tinder": 7888,
      "TLE ": 7889,
      "T. and the ": 7890,
      "Title ": 7891,
      "Tom Robbin": 7892,
      "TF indeed": 7893,
      "THHE": 7894,
      "Ul": 7895,
      "Um": 7896,
      "US ": 7897,
      "Ve": 7898,
      "Vi": 7899,
      "Von": 7900,
      "Val": 7901,
      "Vic": 7902,
      "Vau": 7903,
      "Vint": 7904,
      "Vang": 7905,
      "Vampire": 7906,
      "VER": 7907,
      "Viet": 7908,
      "Wr": 7909,
      "Wing": 7910,
      "Wil": 7911,
      "Wes": 7912,
      "Wes ": 7913,
      "Were ": 7914,
      "Wall": 7915,
      "Wint": 7916,
      "Wed": 7917,
      "Well": 7918,
      "Wend": 7919,
      "Wand": 7920,
      "Will": 7921,
      "Wess": 7922,
      "Well ": 7923,
      "WE ": 7924,
      "Wire ": 7925,
      "WAL": 7926,
      "Wax": 7927,
      "Wind": 7928,
      "Willy ": 7929,
      "WAT": 7930,
      "Wein": 7931,
      "Wuh": 7932,
      "W OVER": 7933,
      "WHO": 7934,
      "WII ": 7935,
      "WTF indeed": 7936,
      "X-Fil": 7937,
      "Ye": 7938,
      "Yay": 7939,
      "Yet ": 7940,
      "Yes there ": 7941,
      "Zi": 7942,
      "Zel": 7943,
      "Zand": 7944,
      "Zsa": 7945,
      "Zone, ": 7946,
      "Zhang": 7947,
      "[Spo": 7948,
      "] I was ": 7949,
      "_it": 7950,
      "_lov": 7951,
      "abe": 7952,
      "ait ": 7953,
      "aha": 7954,
      "a, and ": 7955,
      "a\" ": 7956,
      "atic": 7957,
      "avery ": 7958,
      "a...": 7959,
      "a. And ": 7960,
      "atic ": 7961,
      "ahi": 7962,
      "ax ": 7963,
      "a, so ": 7964,
      "a, as ": 7965,
      "afoot": 7966,
      "a??": 7967,
      "a) who ": 7968,
      "afront ": 7969,
      "a) she ": 7970,
      "a/action ": 7971,
      "ben": 7972,
      "bou": 7973,
      "band ": 7974,
      "bor ": 7975,
      "bri": 7976,
      "bir": 7977,
      "boul": 7978,
      "bs, ": 7979,
      "b) ": 7980,
      "bloo": 7981,
      "ber, ": 7982,
      "band": 7983,
      "bill": 7984,
      "bath": 7985,
      "batt": 7986,
      "bber": 7987,
      "bick": 7988,
      "b.) ": 7989,
      "bellig": 7990,
      "bone, ": 7991,
      "bony ": 7992,
      "bones ": 7993,
      "bitch ": 7994,
      "bicle ": 7995,
      "bagg": 7996,
      "b---": 7997,
      "bang ": 7998,
      "backs ": 7999,
      "bable. It is ": 8000,
      "bed in the middle ": 8001,
      "b the film's ": 8002,
      "backed ": 8003,
      "bin and ": 8004,
      "cal": 8005,
      "cow": 8006,
      "ctr": 8007,
      "cere": 8008,
      "cand": 8009,
      "cei": 8010,
      "cup ": 8011,
      "cut": 8012,
      "cob": 8013,
      "catt": 8014,
      "cold ": 8015,
      "cod": 8016,
      "cover ": 8017,
      "cable": 8018,
      "cash": 8019,
      "cellent ": 8020,
      "cock": 8021,
      "cult ": 8022,
      "cash ": 8023,
      "cements ": 8024,
      "ctional ": 8025,
      "cing that the ": 8026,
      "c A": 8027,
      "cision": 8028,
      "cable and ": 8029,
      "crocodile ": 8030,
      "dan": 8031,
      "dil": 8032,
      "dat": 8033,
      "den ": 8034,
      "don ": 8035,
      "dab": 8036,
      "dbu": 8037,
      "de, ": 8038,
      "dent": 8039,
      "dop": 8040,
      "dely ": 8041,
      "dest ": 8042,
      "d. Th": 8043,
      "dually ": 8044,
      "dak": 8045,
      "dru": 8046,
      "dge ": 8047,
      "dread": 8048,
      "dom ": 8049,
      "d, and the ": 8050,
      "d* ": 8051,
      "dlife ": 8052,
      "damp": 8053,
      "dish ": 8054,
      "dys": 8055,
      "dread ": 8056,
      "d. He ": 8057,
      "d. R": 8058,
      "dart": 8059,
      "ded on ": 8060,
      "done, ": 8061,
      "dash ": 8062,
      "dated": 8063,
      "dow, ": 8064,
      "danci": 8065,
      "ditch ": 8066,
      "dances ": 8067,
      "d. We ": 8068,
      "d. Not ": 8069,
      "dull": 8070,
      "dalli": 8071,
      "date. ": 8072,
      "dsight": 8073,
      "ders the ": 8074,
      "deni": 8075,
      "ding. Th": 8076,
      "dooz": 8077,
      "dust for ": 8078,
      "ej": 8079,
      "ek": 8080,
      "eu": 8081,
      "eer": 8082,
      "eat ": 8083,
      "eel": 8084,
      "ees ": 8085,
      "ean ": 8086,
      "ek ": 8087,
      "ech ": 8088,
      "eau": 8089,
      "e. A": 8090,
      "etr": 8091,
      "eup ": 8092,
      "eous ": 8093,
      "east ": 8094,
      "eing to ": 8095,
      "e. This ": 8096,
      "e. And ": 8097,
      "eber": 8098,
      "ether ": 8099,
      "eally": 8100,
      "e, this ": 8101,
      "egg": 8102,
      "e), ": 8103,
      "e.<br /><br />A": 8104,
      "e. It was ": 8105,
      "e), and ": 8106,
      "e\" and ": 8107,
      "estrang": 8108,
      "e. In fact": 8109,
      "e. I'm ": 8110,
      "eded": 8111,
      "e. This is a ": 8112,
      "e're ": 8113,
      "eing on ": 8114,
      "e, their ": 8115,
      "e. It's not ": 8116,
      "eties ": 8117,
      "eone else ": 8118,
      "ette ": 8119,
      "e. Then ": 8120,
      "eDee ": 8121,
      "e), then ": 8122,
      "ft ": 8123,
      "fal": 8124,
      "fom": 8125,
      "fes": 8126,
      "fro": 8127,
      "fed": 8128,
      "fus": 8129,
      "foun": 8130,
      "fall ": 8131,
      "fely ": 8132,
      "fish": 8133,
      "fate ": 8134,
      "fight ": 8135,
      "found": 8136,
      "fans": 8137,
      "fying ": 8138,
      "foli": 8139,
      "fought ": 8140,
      "fy as ": 8141,
      "fit the ": 8142,
      "fox ": 8143,
      "fingers ": 8144,
      "frag": 8145,
      "fends the ": 8146,
      "ft to a ": 8147,
      "gm": 8148,
      "gé": 8149,
      "gar": 8150,
      "gat": 8151,
      "gal ": 8152,
      "g.<br /><br />": 8153,
      "gent": 8154,
      "ged": 8155,
      "gge": 8156,
      "gap": 8157,
      "gum": 8158,
      "gely ": 8159,
      "gar ": 8160,
      "gel ": 8161,
      "gain": 8162,
      "gang": 8163,
      "gend ": 8164,
      "gath": 8165,
      "gical ": 8166,
      "gans ": 8167,
      "gard": 8168,
      "gain ": 8169,
      "ged, ": 8170,
      "ger and ": 8171,
      "glet ": 8172,
      "gros": 8173,
      "gsaw ": 8174,
      "gold": 8175,
      "gnew": 8176,
      "gone? ": 8177,
      "gang ": 8178,
      "gant and ": 8179,
      "g-budget ": 8180,
      "g. \"": 8181,
      "ge, to ": 8182,
      "g-r": 8183,
      "gdan": 8184,
      "hh": 8185,
      "han": 8186,
      "hor ": 8187,
      "his": 8188,
      "hoo": 8189,
      "hur": 8190,
      "hir": 8191,
      "hood ": 8192,
      "heir ": 8193,
      "het": 8194,
      "hate ": 8195,
      "h, I ": 8196,
      "hell ": 8197,
      "hence ": 8198,
      "hood": 8199,
      "hone": 8200,
      "hole ": 8201,
      "hack": 8202,
      "hick ": 8203,
      "hate the ": 8204,
      "h, these ": 8205,
      "here's a ": 8206,
      "hidden ": 8207,
      "hensible ": 8208,
      "hinged ": 8209,
      "hock ": 8210,
      "h!\", ": 8211,
      "hged": 8212,
      "ik": 8213,
      "ix": 8214,
      "ie ": 8215,
      "iar": 8216,
      "ia ": 8217,
      "ied ": 8218,
      "ies ": 8219,
      "i's ": 8220,
      "ibu": 8221,
      "ifr": 8222,
      "ifi": 8223,
      "ie and ": 8224,
      "ious ": 8225,
      "ies, ": 8226,
      "ith ": 8227,
      "iew": 8228,
      "iked ": 8229,
      "ither ": 8230,
      "ister ": 8231,
      "istra": 8232,
      "ivers": 8233,
      "ioli": 8234,
      "ibility ": 8235,
      "istorical ": 8236,
      "i, who helped ": 8237,
      "i'm ": 8238,
      "jo ": 8239,
      "ja ": 8240,
      "jell": 8241,
      "jaw": 8242,
      "jure": 8243,
      "jack": 8244,
      "jail": 8245,
      "ja v": 8246,
      "jeal": 8247,
      "jest": 8248,
      "jaun": 8249,
      "jarr": 8250,
      "jerk ": 8251,
      "ks": 8252,
      "ky": 8253,
      "king": 8254,
      "kel": 8255,
      "ken ": 8256,
      "kic": 8257,
      "kis": 8258,
      "k this ": 8259,
      "ked": 8260,
      "ks, ": 8261,
      "k\" ": 8262,
      "kep": 8263,
      "kne": 8264,
      "ked to ": 8265,
      "k. And ": 8266,
      "kings ": 8267,
      "k. In ": 8268,
      "kick": 8269,
      "k. M": 8270,
      "kick ": 8271,
      "knew ": 8272,
      "k. However, ": 8273,
      "kers. ": 8274,
      "khead ": 8275,
      "king, and ": 8276,
      "kip ": 8277,
      "k. While ": 8278,
      "k, N": 8279,
      "kin on ": 8280,
      "kboard ": 8281,
      "len": 8282,
      "lon": 8283,
      "land ": 8284,
      "lor ": 8285,
      "lin ": 8286,
      "lli": 8287,
      "lovi": 8288,
      "lay ": 8289,
      "land": 8290,
      "l they ": 8291,
      "late ": 8292,
      "lend ": 8293,
      "led to ": 8294,
      "last": 8295,
      "l...": 8296,
      "lob": 8297,
      "ling, ": 8298,
      "lous": 8299,
      "led by ": 8300,
      "lus ": 8301,
      "lure": 8302,
      "les and ": 8303,
      "lating ": 8304,
      "lach": 8305,
      "lax": 8306,
      "les are ": 8307,
      "lends ": 8308,
      "l three ": 8309,
      "land, ": 8310,
      "lord ": 8311,
      "layers ": 8312,
      "mun": 8313,
      "mir": 8314,
      "mere ": 8315,
      "mill ": 8316,
      "mood ": 8317,
      "me. ": 8318,
      "me and ": 8319,
      "mble ": 8320,
      "mmer": 8321,
      "me, and ": 8322,
      "m. He ": 8323,
      "me, but ": 8324,
      "mowing ": 8325,
      "mise": 8326,
      "mirac": 8327,
      "mother, ": 8328,
      "mer for th": 8329,
      "mbodi": 8330,
      "nn": 8331,
      "né": 8332,
      "ny ": 8333,
      "non": 8334,
      "n, ": 8335,
      "ning": 8336,
      "nag": 8337,
      "nap": 8338,
      "ners ": 8339,
      "ny, ": 8340,
      "ne and ": 8341,
      "n: ": 8342,
      "never": 8343,
      "nali": 8344,
      "nati": 8345,
      "nak": 8346,
      "neli": 8347,
      "nish ": 8348,
      "ns, and ": 8349,
      "none of ": 8350,
      "native ": 8351,
      "nadi": 8352,
      "narc": 8353,
      "ningly ": 8354,
      "nation of ": 8355,
      "ning-": 8356,
      "neph": 8357,
      "n thing ": 8358,
      "n the M": 8359,
      "nchron": 8360,
      "n-ness ": 8361,
      "o, ": 8362,
      "oor": 8363,
      "oil": 8364,
      "oom": 8365,
      "oes ": 8366,
      "oon ": 8367,
      "ode": 8368,
      "oke ": 8369,
      "o) ": 8370,
      "ota": 8371,
      "o, the ": 8372,
      "ogr": 8373,
      "otic ": 8374,
      "o. A ": 8375,
      "o, or ": 8376,
      "o, he ": 8377,
      "oir ": 8378,
      "o. When ": 8379,
      "o. Not ": 8380,
      "ogy ": 8381,
      "oero": 8382,
      "o. Y": 8383,
      "o.\" The ": 8384,
      "opolitical ": 8385,
      "o\". Un": 8386,
      "o' the ": 8387,
      "o-realism": 8388,
      "ogical ": 8389,
      "pon": 8390,
      "p the ": 8391,
      "pal": 8392,
      "pti": 8393,
      "pac": 8394,
      "pat": 8395,
      "poo": 8396,
      "p this ": 8397,
      "pall": 8398,
      "pup": 8399,
      "ps, ": 8400,
      "pus": 8401,
      "py, ": 8402,
      "put": 8403,
      "pover": 8404,
      "pav": 8405,
      "path": 8406,
      "ps the ": 8407,
      "patt": 8408,
      "pack": 8409,
      "ped and ": 8410,
      "pain ": 8411,
      "pses ": 8412,
      "py and ": 8413,
      "pair ": 8414,
      "pcorn": 8415,
      "ping. I ": 8416,
      "pool ": 8417,
      "pays ": 8418,
      "pe for ": 8419,
      "pt into ": 8420,
      "ptical ": 8421,
      "pper, ": 8422,
      "rth": 8423,
      "ris ": 8424,
      "ring": 8425,
      "rar": 8426,
      "rer ": 8427,
      "rat": 8428,
      "ric": 8429,
      "rare ": 8430,
      "rup": 8431,
      "rust ": 8432,
      "roun": 8433,
      "re and ": 8434,
      "rack ": 8435,
      "rough ": 8436,
      "rang": 8437,
      "ring to ": 8438,
      "rence ": 8439,
      "rily ": 8440,
      "rat's ": 8441,
      "rori": 8442,
      "rick": 8443,
      "rise ": 8444,
      "rowing ": 8445,
      "row, ": 8446,
      "rling ": 8447,
      "rally the ": 8448,
      "ranks ": 8449,
      "ratch": 8450,
      "ra L": 8451,
      "ron C": 8452,
      "racco": 8453,
      "ss": 8454,
      "san": 8455,
      "sis ": 8456,
      "sal": 8457,
      "sit": 8458,
      "sac": 8459,
      "san ": 8460,
      "sis": 8461,
      "soul": 8462,
      "smo": 8463,
      "sn't ": 8464,
      "sell": 8465,
      "squ": 8466,
      "sy, ": 8467,
      "sloo": 8468,
      "sest ": 8469,
      "sill": 8470,
      "sits ": 8471,
      "sack ": 8472,
      "sort": 8473,
      "site ": 8474,
      "s, th": 8475,
      "skin": 8476,
      "sless ": 8477,
      "sold ": 8478,
      "sak": 8479,
      "sily ": 8480,
      "sage ": 8481,
      "ses and ": 8482,
      "s**": 8483,
      "s; ": 8484,
      "sing and ": 8485,
      "swe": 8486,
      "sings ": 8487,
      "s. In ": 8488,
      "sed and ": 8489,
      "sed with ": 8490,
      "sses ": 8491,
      "s. It is ": 8492,
      "sale ": 8493,
      "snat": 8494,
      "s. A ": 8495,
      "s- the ": 8496,
      "s.) ": 8497,
      "s. If ": 8498,
      "swish": 8499,
      "slight ": 8500,
      "s\" and ": 8501,
      "serk": 8502,
      "silly ": 8503,
      "s, that's ": 8504,
      "s. In fact, ": 8505,
      "slim": 8506,
      "sity of the ": 8507,
      "s.<br /><br />The movie ": 8508,
      "s; the ": 8509,
      "sull": 8510,
      "s), the ": 8511,
      "s; and ": 8512,
      "serves ": 8513,
      "sadly ": 8514,
      "s? It's ": 8515,
      "s, their ": 8516,
      "s: the ": 8517,
      "sa G": 8518,
      "sends the ": 8519,
      "s. This is not ": 8520,
      "s. There are some ": 8521,
      "s. I'd ": 8522,
      "s. Inst": 8523,
      "s- -no ": 8524,
      "s. It almost seems like ": 8525,
      "s*, ": 8526,
      "s-out ": 8527,
      "s/re": 8528,
      "s?, a ": 8529,
      "tan": 8530,
      "ted ": 8531,
      "tac": 8532,
      "tly ": 8533,
      "tle": 8534,
      "tch ": 8535,
      "tro": 8536,
      "t, and ": 8537,
      "tup": 8538,
      "ted": 8539,
      "tall ": 8540,
      "test ": 8541,
      "tant ": 8542,
      "ture ": 8543,
      "t: ": 8544,
      "teri": 8545,
      "tes, ": 8546,
      "tel ": 8547,
      "tort": 8548,
      "tour": 8549,
      "tend ": 8550,
      "ting to ": 8551,
      "ta l": 8552,
      "t.<br /><br />The ": 8553,
      "temp": 8554,
      "town": 8555,
      "trip": 8556,
      "tently ": 8557,
      "teach ": 8558,
      "took": 8559,
      "t) and ": 8560,
      "ted in ": 8561,
      "tly, ": 8562,
      "tman ": 8563,
      "tants ": 8564,
      "ts, the ": 8565,
      "ton, ": 8566,
      "ts: ": 8567,
      "tled ": 8568,
      "tang ": 8569,
      "task ": 8570,
      "ted by a ": 8571,
      "tuou": 8572,
      "tinged ": 8573,
      "tamed ": 8574,
      "t. Appar": 8575,
      "te and even ": 8576,
      "t, though": 8577,
      "t\". She ": 8578,
      "t&a": 8579,
      "uen": 8580,
      "uel": 8581,
      "ugh": 8582,
      "usi": 8583,
      "uts ": 8584,
      "utr": 8585,
      "uous ": 8586,
      "uel ": 8587,
      "us to ": 8588,
      "uber": 8589,
      "uating ": 8590,
      "uary ": 8591,
      "ugl": 8592,
      "uire": 8593,
      "um of ": 8594,
      "uates ": 8595,
      "ually the ": 8596,
      "ually, ": 8597,
      "u, don't ": 8598,
      "vy": 8599,
      "v. ": 8600,
      "val": 8601,
      "ver ": 8602,
      "vom": 8603,
      "ved ": 8604,
      "val ": 8605,
      "vam": 8606,
      "vag": 8607,
      "vap": 8608,
      "vent ": 8609,
      "voc": 8610,
      "vot": 8611,
      "vable ": 8612,
      "ves, ": 8613,
      "vet": 8614,
      "vel ": 8615,
      "villi": 8616,
      "ve-": 8617,
      "ved in ": 8618,
      "ven, ": 8619,
      "vs.": 8620,
      "velling ": 8621,
      "vital ": 8622,
      "va) who ": 8623,
      "wo ": 8624,
      "wed ": 8625,
      "win the ": 8626,
      "wag": 8627,
      "wn ": 8628,
      "wers ": 8629,
      "wall ": 8630,
      "won the ": 8631,
      "wits ": 8632,
      "win this ": 8633,
      "wing and ": 8634,
      "ward ": 8635,
      "wber": 8636,
      "wail": 8637,
      "wound": 8638,
      "wick ": 8639,
      "wear ": 8640,
      "w things ": 8641,
      "wanna ": 8642,
      "wander": 8643,
      "wit and ": 8644,
      "wangles ": 8645,
      "wkers. ": 8646,
      "xed ": 8647,
      "xim": 8648,
      "xic ": 8649,
      "xible ": 8650,
      "xious ": 8651,
      "y th": 8652,
      "yal": 8653,
      "ya ": 8654,
      "y this ": 8655,
      "yup": 8656,
      "y) ": 8657,
      "yell": 8658,
      "ying the ": 8659,
      "y. Th": 8660,
      "y: ": 8661,
      "yes, ": 8662,
      "yi ": 8663,
      "y. Wh": 8664,
      "ying and ": 8665,
      "y--": 8666,
      "y. Al": 8667,
      "yster ": 8668,
      "y), ": 8669,
      "y, that ": 8670,
      "y. In": 8671,
      "y), and ": 8672,
      "yway, ": 8673,
      "y things ": 8674,
      "yingly ": 8675,
      "yism": 8676,
      "y, they ": 8677,
      "y.)<br /><br />": 8678,
      "y? Wh": 8679,
      "yank": 8680,
      "yank ": 8681,
      "y!\"": 8682,
      "ycle ": 8683,
      "y thing ": 8684,
      "y? It's ": 8685,
      "y. No ": 8686,
      "ystery": 8687,
      "yester": 8688,
      "yes: ": 8689,
      "ymoon": 8690,
      "yeah": 8691,
      "y. How ": 8692,
      "yance": 8693,
      "y thriller": 8694,
      "ysterious ": 8695,
      "yc A": 8696,
      "yron C": 8697,
      "zz": 8698,
      "za ": 8699,
      "zil": 8700,
      "zom": 8701,
      "zen ": 8702,
      "z's ": 8703,
      "zoo": 8704,
      "zany ": 8705,
      "zone": 8706,
      "zil ": 8707,
      "zz ": 8708,
      "zip ": 8709,
      "z's, ": 8710,
      "zero ": 8711,
      "zingers ": 8712,
      "zilla ": 8713,
      "zabe": 8714,
      "ze.<br /><br />A": 8715,
      "zoom": 8716,
      "£6 and ": 8717,
      "éat": 8718,
      "égé": 8719,
      "e in": 8720,
      "e or ": 8721,
      "e on ": 8722,
      "e be": 8723,
      "e out ": 8724,
      "e that ": 8725,
      "e with ": 8726,
      "e in the ": 8727,
      "e her ": 8728,
      "e this ": 8729,
      "e is a ": 8730,
      "e to the ": 8731,
      "e your ": 8732,
      "e it was ": 8733,
      "e characters ": 8734,
      "e in this ": 8735,
      "e may ": 8736,
      "e movies ": 8737,
      "e comp": 8738,
      "e pet": 8739,
      "e (the ": 8740,
      "e after the ": 8741,
      "e written ": 8742,
      "e wall": 8743,
      "e in an ": 8744,
      "e in which the ": 8745,
      "e many other ": 8746,
      "e you've ": 8747,
      "e talent": 8748,
      "e rice ": 8749,
      "e plan ": 8750,
      "e but it is ": 8751,
      "e contemp": 8752,
      "e hotel ": 8753,
      "e Giss": 8754,
      "e Hone": 8755,
      "e Love ": 8756,
      "e me and ": 8757,
      "e o' the ": 8758,
      "s it ": 8759,
      "s for": 8760,
      "s int": 8761,
      "s have ": 8762,
      "s con": 8763,
      "s tr": 8764,
      "s she ": 8765,
      "s sp": 8766,
      "s aw": 8767,
      "s when ": 8768,
      "s which ": 8769,
      "s don't ": 8770,
      "s is the ": 8771,
      "s bad ": 8772,
      "s little ": 8773,
      "s for a ": 8774,
      "s every": 8775,
      "s as the ": 8776,
      "s didn't ": 8777,
      "s that the ": 8778,
      "s one of the ": 8779,
      "s on a ": 8780,
      "s movies ": 8781,
      "s into the ": 8782,
      "s off ": 8783,
      "s book ": 8784,
      "s like th": 8785,
      "s Pauline ": 8786,
      "s can be ": 8787,
      "s win": 8788,
      "s was a ": 8789,
      "s times": 8790,
      "s how": 8791,
      "s mil": 8792,
      "s near": 8793,
      "s house ": 8794,
      "s throughout ": 8795,
      "s during the ": 8796,
      "s since ": 8797,
      "s such as ": 8798,
      "s that's ": 8799,
      "s someth": 8800,
      "s from a ": 8801,
      "s soon ": 8802,
      "s \"C": 8803,
      "s than": 8804,
      "s is almost ": 8805,
      "s when": 8806,
      "s driv": 8807,
      "s hot ": 8808,
      "s me to ": 8809,
      "s nowhere ": 8810,
      "s could be ": 8811,
      "s leading ": 8812,
      "s together ": 8813,
      "s echo": 8814,
      "s this is the ": 8815,
      "s office ": 8816,
      "s pretty much ": 8817,
      "s dumb": 8818,
      "s hilarious ": 8819,
      "s Lucianna ": 8820,
      "s next ": 8821,
      "s defi": 8822,
      "s to their ": 8823,
      "s all in ": 8824,
      "s a low budget ": 8825,
      "s from the start": 8826,
      "s might have been ": 8827,
      "s again and ": 8828,
      "s longer ": 8829,
      "s pull": 8830,
      "s (or maybe ": 8831,
      "s lady who ": 8832,
      "s pair ": 8833,
      "th.": 8834,
      "thly ": 8835,
      "thin ": 8836,
      "thus": 8837,
      "ther, ": 8838,
      "thany ": 8839,
      "thing, ": 8840,
      "thless ": 8841,
      "thus ": 8842,
      "then the ": 8843,
      "thair": 8844,
      "thew ": 8845,
      "then, ": 8846,
      "theless ": 8847,
      "then th": 8848,
      "thony ": 8849,
      "thwhil": 8850,
      "th.<br /><br />But ": 8851,
      "thing that the ": 8852,
      "there's a ": 8853,
      "th? It ": 8854,
      "thusi": 8855,
      "thyism": 8856,
      "t at ": 8857,
      "t on ": 8858,
      "t it ": 8859,
      "t of the ": 8860,
      "t de": 8861,
      "t one ": 8862,
      "t have ": 8863,
      "t - ": 8864,
      "t about ": 8865,
      "t even ": 8866,
      "t Th": 8867,
      "t character ": 8868,
      "t A ": 8869,
      "t por": 8870,
      "t world": 8871,
      "t set ": 8872,
      "t etc": 8873,
      "t might be ": 8874,
      "t deal ": 8875,
      "t Eastwood ": 8876,
      "t novel": 8877,
      "t Young": 8878,
      "t II": 8879,
      "t instead": 8880,
      "t the ali": 8881,
      "t this point ": 8882,
      "t right is a ": 8883,
      "t crooked ": 8884,
      "t brother": 8885,
      "t Dam": 8886,
      "t Pat": 8887,
      "t tall ": 8888,
      "iner": 8889,
      "ino ": 8890,
      "ining": 8891,
      "ina ": 8892,
      "inch": 8893,
      "inse": 8894,
      "into": 8895,
      "inad": 8896,
      "ins, ": 8897,
      "intim": 8898,
      "incl": 8899,
      "iny, ": 8900,
      "inous ": 8901,
      "inher": 8902,
      "inant": 8903,
      "indis": 8904,
      "in. B": 8905,
      "ini ": 8906,
      "iniz": 8907,
      "inder ": 8908,
      "inion": 8909,
      "ine, and ": 8910,
      "inside ": 8911,
      "inbre": 8912,
      "indic": 8913,
      "inconc": 8914,
      "ined to be ": 8915,
      "in, B": 8916,
      "infel": 8917,
      "inist ": 8918,
      "inform": 8919,
      "in that": 8920,
      "inker ": 8921,
      "in that the ": 8922,
      "in?<br /><br />": 8923,
      "in. Remember": 8924,
      "in's, ": 8925,
      "inju": 8926,
      "ink-": 8927,
      "in, while ": 8928,
      "in\" (": 8929,
      "inept": 8930,
      "in. Her ": 8931,
      "ined to watch ": 8932,
      "injustice ": 8933,
      "in-che": 8934,
      "injure": 8935,
[...]
